#ifndef ARM_LITE_MODEL_H
#define arm_lite_model_H


unsigned int arm_lite_model_len = 17384;
unsigned char arm_lite_model[] = {
 0x1c, 0x00, 0x00, 0x00, 0x54, 0x46, 0x4c, 0x33, 0x14, 0x00, 0x20, 0x00,
  0x04, 0x00, 0x08, 0x00, 0x0c, 0x00, 0x10, 0x00, 0x14, 0x00, 0x00, 0x00,
  0x18, 0x00, 0x1c, 0x00, 0x14, 0x00, 0x00, 0x00, 0x03, 0x00, 0x00, 0x00,
  0x18, 0x00, 0x00, 0x00, 0x24, 0x00, 0x00, 0x00, 0x64, 0x01, 0x00, 0x00,
  0x24, 0x00, 0x00, 0x00, 0x0c, 0x01, 0x00, 0x00, 0x78, 0x00, 0x00, 0x00,
  0x03, 0x00, 0x00, 0x00, 0x18, 0x07, 0x00, 0x00, 0x38, 0x06, 0x00, 0x00,
  0x50, 0x05, 0x00, 0x00, 0x01, 0x00, 0x00, 0x00, 0x64, 0x01, 0x00, 0x00,
  0x16, 0x00, 0x00, 0x00, 0x8c, 0x43, 0x00, 0x00, 0x88, 0x43, 0x00, 0x00,
  0x98, 0x42, 0x00, 0x00, 0xd0, 0x41, 0x00, 0x00, 0x14, 0x41, 0x00, 0x00,
  0x58, 0x40, 0x00, 0x00, 0x9c, 0x3f, 0x00, 0x00, 0xdc, 0x3e, 0x00, 0x00,
  0x60, 0x3e, 0x00, 0x00, 0x00, 0x37, 0x00, 0x00, 0x98, 0x28, 0x00, 0x00,
  0x30, 0x1a, 0x00, 0x00, 0xc8, 0x0b, 0x00, 0x00, 0x38, 0x07, 0x00, 0x00,
  0x54, 0x43, 0x00, 0x00, 0x50, 0x43, 0x00, 0x00, 0x4c, 0x43, 0x00, 0x00,
  0x48, 0x43, 0x00, 0x00, 0x44, 0x43, 0x00, 0x00, 0x40, 0x43, 0x00, 0x00,
  0x3c, 0x43, 0x00, 0x00, 0xc8, 0x00, 0x00, 0x00, 0x01, 0x00, 0x00, 0x00,
  0x10, 0x00, 0x00, 0x00, 0x00, 0x00, 0x0a, 0x00, 0x10, 0x00, 0x0c, 0x00,
  0x08, 0x00, 0x04, 0x00, 0x0a, 0x00, 0x00, 0x00, 0x0c, 0x00, 0x00, 0x00,
  0x1c, 0x00, 0x00, 0x00, 0x20, 0x00, 0x00, 0x00, 0x0f, 0x00, 0x00, 0x00,
  0x73, 0x65, 0x72, 0x76, 0x69, 0x6e, 0x67, 0x5f, 0x64, 0x65, 0x66, 0x61,
  0x75, 0x6c, 0x74, 0x00, 0x01, 0x00, 0x00, 0x00, 0x14, 0x00, 0x00, 0x00,
  0x01, 0x00, 0x00, 0x00, 0x28, 0x00, 0x00, 0x00, 0x08, 0x00, 0x0c, 0x00,
  0x08, 0x00, 0x04, 0x00, 0x08, 0x00, 0x00, 0x00, 0x13, 0x00, 0x00, 0x00,
  0x04, 0x00, 0x00, 0x00, 0x08, 0x00, 0x00, 0x00, 0x64, 0x65, 0x6e, 0x73,
  0x65, 0x5f, 0x35, 0x34, 0x00, 0x00, 0x00, 0x00, 0x2a, 0xbe, 0xff, 0xff,
  0x04, 0x00, 0x00, 0x00, 0x15, 0x00, 0x00, 0x00, 0x6e, 0x6f, 0x72, 0x6d,
  0x61, 0x6c, 0x69, 0x7a, 0x61, 0x74, 0x69, 0x6f, 0x6e, 0x5f, 0x37, 0x5f,
  0x69, 0x6e, 0x70, 0x75, 0x74, 0x00, 0x00, 0x00, 0x01, 0x00, 0x00, 0x00,
  0x0c, 0x00, 0x00, 0x00, 0x08, 0x00, 0x0c, 0x00, 0x04, 0x00, 0x08, 0x00,
  0x08, 0x00, 0x00, 0x00, 0x08, 0x00, 0x00, 0x00, 0x15, 0x00, 0x00, 0x00,
  0x13, 0x00, 0x00, 0x00, 0x6d, 0x69, 0x6e, 0x5f, 0x72, 0x75, 0x6e, 0x74,
  0x69, 0x6d, 0x65, 0x5f, 0x76, 0x65, 0x72, 0x73, 0x69, 0x6f, 0x6e, 0x00,
  0x82, 0xbe, 0xff, 0xff, 0x04, 0x00, 0x00, 0x00, 0x10, 0x00, 0x00, 0x00,
  0x31, 0x2e, 0x36, 0x2e, 0x30, 0x00, 0x00, 0x00, 0x00, 0x00, 0x00, 0x00,
  0x00, 0x00, 0x00, 0x00, 0x0f, 0x00, 0x00, 0x00, 0x4d, 0x4c, 0x49, 0x52,
  0x20, 0x43, 0x6f, 0x6e, 0x76, 0x65, 0x72, 0x74, 0x65, 0x64, 0x2e, 0x00,
  0x00, 0x00, 0x0e, 0x00, 0x18, 0x00, 0x04, 0x00, 0x08, 0x00, 0x0c, 0x00,
  0x10, 0x00, 0x14, 0x00, 0x0e, 0x00, 0x00, 0x00, 0x14, 0x00, 0x00, 0x00,
  0x64, 0x00, 0x00, 0x00, 0x68, 0x00, 0x00, 0x00, 0x6c, 0x00, 0x00, 0x00,
  0x88, 0x00, 0x00, 0x00, 0x14, 0x00, 0x00, 0x00, 0xb0, 0x41, 0x00, 0x00,
  0x64, 0x41, 0x00, 0x00, 0xe0, 0x40, 0x00, 0x00, 0x24, 0x40, 0x00, 0x00,
  0x68, 0x3f, 0x00, 0x00, 0xac, 0x3e, 0x00, 0x00, 0xb0, 0x3d, 0x00, 0x00,
  0x34, 0x3d, 0x00, 0x00, 0xa0, 0x3c, 0x00, 0x00, 0x40, 0x35, 0x00, 0x00,
  0xd8, 0x26, 0x00, 0x00, 0x70, 0x18, 0x00, 0x00, 0x08, 0x0a, 0x00, 0x00,
  0x64, 0x05, 0x00, 0x00, 0x84, 0x04, 0x00, 0x00, 0x9c, 0x03, 0x00, 0x00,
  0xa4, 0x02, 0x00, 0x00, 0xd4, 0x01, 0x00, 0x00, 0x04, 0x01, 0x00, 0x00,
  0x74, 0x00, 0x00, 0x00, 0x01, 0x00, 0x00, 0x00, 0x00, 0x00, 0x00, 0x00,
  0x01, 0x00, 0x00, 0x00, 0x13, 0x00, 0x00, 0x00, 0x07, 0x00, 0x00, 0x00,
  0xec, 0x04, 0x00, 0x00, 0x14, 0x04, 0x00, 0x00, 0x1c, 0x03, 0x00, 0x00,
  0x3c, 0x02, 0x00, 0x00, 0x6c, 0x01, 0x00, 0x00, 0x9c, 0x00, 0x00, 0x00,
  0x10, 0x00, 0x00, 0x00, 0x04, 0x00, 0x00, 0x00, 0x6d, 0x61, 0x69, 0x6e,
  0x00, 0x00, 0x00, 0x00, 0x1e, 0xfc, 0xff, 0xff, 0x00, 0x00, 0x00, 0x08,
  0x02, 0x00, 0x00, 0x00, 0x18, 0x00, 0x00, 0x00, 0x0c, 0x00, 0x00, 0x00,
  0x04, 0x00, 0x00, 0x00, 0x94, 0xbe, 0xff, 0xff, 0x01, 0x00, 0x00, 0x00,
  0x13, 0x00, 0x00, 0x00, 0x03, 0x00, 0x00, 0x00, 0x12, 0x00, 0x00, 0x00,
  0x0c, 0x00, 0x00, 0x00, 0x01, 0x00, 0x00, 0x00, 0x24, 0xbf, 0xff, 0xff,
  0x14, 0x00, 0x00, 0x00, 0x14, 0x00, 0x00, 0x00, 0x18, 0x00, 0x00, 0x00,
  0x40, 0x00, 0x00, 0x00, 0x30, 0x00, 0x00, 0x00, 0x02, 0x00, 0x00, 0x00,
  0x01, 0x00, 0x00, 0x00, 0x09, 0x00, 0x00, 0x00, 0x19, 0x00, 0x00, 0x00,
  0x53, 0x74, 0x61, 0x74, 0x65, 0x66, 0x75, 0x6c, 0x50, 0x61, 0x72, 0x74,
  0x69, 0x74, 0x69, 0x6f, 0x6e, 0x65, 0x64, 0x43, 0x61, 0x6c, 0x6c, 0x3a,
  0x30, 0x00, 0x00, 0x00, 0x02, 0x00, 0x00, 0x00, 0xff, 0xff, 0xff, 0xff,
  0x09, 0x00, 0x00, 0x00, 0x00, 0xbf, 0xff, 0xff, 0xa6, 0xfc, 0xff, 0xff,
  0x00, 0x00, 0x00, 0x08, 0x02, 0x00, 0x00, 0x00, 0x1c, 0x00, 0x00, 0x00,
  0x10, 0x00, 0x00, 0x00, 0x04, 0x00, 0x00, 0x00, 0x8a, 0xfd, 0xff, 0xff,
  0x00, 0x00, 0x00, 0x01, 0x01, 0x00, 0x00, 0x00, 0x12, 0x00, 0x00, 0x00,
  0x03, 0x00, 0x00, 0x00, 0x11, 0x00, 0x00, 0x00, 0x0b, 0x00, 0x00, 0x00,
  0x02, 0x00, 0x00, 0x00, 0xb0, 0xbf, 0xff, 0xff, 0x14, 0x00, 0x00, 0x00,
  0x13, 0x00, 0x00, 0x00, 0x18, 0x00, 0x00, 0x00, 0x80, 0x00, 0x00, 0x00,
  0x70, 0x00, 0x00, 0x00, 0x02, 0x00, 0x00, 0x00, 0x01, 0x00, 0x00, 0x00,
  0x1e, 0x00, 0x00, 0x00, 0x58, 0x00, 0x00, 0x00, 0x73, 0x65, 0x71, 0x75,
  0x65, 0x6e, 0x74, 0x69, 0x61, 0x6c, 0x5f, 0x31, 0x30, 0x2f, 0x64, 0x65,
  0x6e, 0x73, 0x65, 0x5f, 0x35, 0x33, 0x2f, 0x4d, 0x61, 0x74, 0x4d, 0x75,
  0x6c, 0x3b, 0x73, 0x65, 0x71, 0x75, 0x65, 0x6e, 0x74, 0x69, 0x61, 0x6c,
  0x5f, 0x31, 0x30, 0x2f, 0x64, 0x65, 0x6e, 0x73, 0x65, 0x5f, 0x35, 0x33,
  0x2f, 0x52, 0x65, 0x6c, 0x75, 0x3b, 0x73, 0x65, 0x71, 0x75, 0x65, 0x6e,
  0x74, 0x69, 0x61, 0x6c, 0x5f, 0x31, 0x30, 0x2f, 0x64, 0x65, 0x6e, 0x73,
  0x65, 0x5f, 0x35, 0x33, 0x2f, 0x42, 0x69, 0x61, 0x73, 0x41, 0x64, 0x64,
  0x00, 0x00, 0x00, 0x00, 0x02, 0x00, 0x00, 0x00, 0xff, 0xff, 0xff, 0xff,
  0x1e, 0x00, 0x00, 0x00, 0xcc, 0xbf, 0xff, 0xff, 0x72, 0xfd, 0xff, 0xff,
  0x00, 0x00, 0x00, 0x08, 0x02, 0x00, 0x00, 0x00, 0x1c, 0x00, 0x00, 0x00,
  0x10, 0x00, 0x00, 0x00, 0x04, 0x00, 0x00, 0x00, 0x56, 0xfe, 0xff, 0xff,
  0x00, 0x00, 0x00, 0x01, 0x01, 0x00, 0x00, 0x00, 0x11, 0x00, 0x00, 0x00,
  0x03, 0x00, 0x00, 0x00, 0x10, 0x00, 0x00, 0x00, 0x0a, 0x00, 0x00, 0x00,
  0x03, 0x00, 0x00, 0x00, 0x7c, 0xc0, 0xff, 0xff, 0x14, 0x00, 0x00, 0x00,
  0x12, 0x00, 0x00, 0x00, 0x18, 0x00, 0x00, 0x00, 0x80, 0x00, 0x00, 0x00,
  0x70, 0x00, 0x00, 0x00, 0x02, 0x00, 0x00, 0x00, 0x01, 0x00, 0x00, 0x00,
  0x1e, 0x00, 0x00, 0x00, 0x58, 0x00, 0x00, 0x00, 0x73, 0x65, 0x71, 0x75,
  0x65, 0x6e, 0x74, 0x69, 0x61, 0x6c, 0x5f, 0x31, 0x30, 0x2f, 0x64, 0x65,
  0x6e, 0x73, 0x65, 0x5f, 0x35, 0x32, 0x2f, 0x4d, 0x61, 0x74, 0x4d, 0x75,
  0x6c, 0x3b, 0x73, 0x65, 0x71, 0x75, 0x65, 0x6e, 0x74, 0x69, 0x61, 0x6c,
  0x5f, 0x31, 0x30, 0x2f, 0x64, 0x65, 0x6e, 0x73, 0x65, 0x5f, 0x35, 0x32,
  0x2f, 0x52, 0x65, 0x6c, 0x75, 0x3b, 0x73, 0x65, 0x71, 0x75, 0x65, 0x6e,
  0x74, 0x69, 0x61, 0x6c, 0x5f, 0x31, 0x30, 0x2f, 0x64, 0x65, 0x6e, 0x73,
  0x65, 0x5f, 0x35, 0x32, 0x2f, 0x42, 0x69, 0x61, 0x73, 0x41, 0x64, 0x64,
  0x00, 0x00, 0x00, 0x00, 0x02, 0x00, 0x00, 0x00, 0xff, 0xff, 0xff, 0xff,
  0x1e, 0x00, 0x00, 0x00, 0x98, 0xc0, 0xff, 0xff, 0x3e, 0xfe, 0xff, 0xff,
  0x00, 0x00, 0x00, 0x08, 0x02, 0x00, 0x00, 0x00, 0x1c, 0x00, 0x00, 0x00,
  0x10, 0x00, 0x00, 0x00, 0x04, 0x00, 0x00, 0x00, 0x22, 0xff, 0xff, 0xff,
  0x00, 0x00, 0x00, 0x01, 0x01, 0x00, 0x00, 0x00, 0x10, 0x00, 0x00, 0x00,
  0x03, 0x00, 0x00, 0x00, 0x0f, 0x00, 0x00, 0x00, 0x09, 0x00, 0x00, 0x00,
  0x04, 0x00, 0x00, 0x00, 0x48, 0xc1, 0xff, 0xff, 0x14, 0x00, 0x00, 0x00,
  0x11, 0x00, 0x00, 0x00, 0x18, 0x00, 0x00, 0x00, 0x80, 0x00, 0x00, 0x00,
  0x70, 0x00, 0x00, 0x00, 0x02, 0x00, 0x00, 0x00, 0x01, 0x00, 0x00, 0x00,
  0x1e, 0x00, 0x00, 0x00, 0x58, 0x00, 0x00, 0x00, 0x73, 0x65, 0x71, 0x75,
  0x65, 0x6e, 0x74, 0x69, 0x61, 0x6c, 0x5f, 0x31, 0x30, 0x2f, 0x64, 0x65,
  0x6e, 0x73, 0x65, 0x5f, 0x35, 0x31, 0x2f, 0x4d, 0x61, 0x74, 0x4d, 0x75,
  0x6c, 0x3b, 0x73, 0x65, 0x71, 0x75, 0x65, 0x6e, 0x74, 0x69, 0x61, 0x6c,
  0x5f, 0x31, 0x30, 0x2f, 0x64, 0x65, 0x6e, 0x73, 0x65, 0x5f, 0x35, 0x31,
  0x2f, 0x52, 0x65, 0x6c, 0x75, 0x3b, 0x73, 0x65, 0x71, 0x75, 0x65, 0x6e,
  0x74, 0x69, 0x61, 0x6c, 0x5f, 0x31, 0x30, 0x2f, 0x64, 0x65, 0x6e, 0x73,
  0x65, 0x5f, 0x35, 0x31, 0x2f, 0x42, 0x69, 0x61, 0x73, 0x41, 0x64, 0x64,
  0x00, 0x00, 0x00, 0x00, 0x02, 0x00, 0x00, 0x00, 0xff, 0xff, 0xff, 0xff,
  0x1e, 0x00, 0x00, 0x00, 0x5c, 0xc2, 0xff, 0xff, 0x00, 0x00, 0x0e, 0x00,
  0x1a, 0x00, 0x08, 0x00, 0x0c, 0x00, 0x10, 0x00, 0x07, 0x00, 0x14, 0x00,
  0x0e, 0x00, 0x00, 0x00, 0x00, 0x00, 0x00, 0x08, 0x02, 0x00, 0x00, 0x00,
  0x24, 0x00, 0x00, 0x00, 0x18, 0x00, 0x00, 0x00, 0x0c, 0x00, 0x00, 0x00,
  0x00, 0x00, 0x06, 0x00, 0x08, 0x00, 0x07, 0x00, 0x06, 0x00, 0x00, 0x00,
  0x00, 0x00, 0x00, 0x01, 0x01, 0x00, 0x00, 0x00, 0x0f, 0x00, 0x00, 0x00,
  0x03, 0x00, 0x00, 0x00, 0x0e, 0x00, 0x00, 0x00, 0x08, 0x00, 0x00, 0x00,
  0x05, 0x00, 0x00, 0x00, 0x4c, 0xfe, 0xff, 0xff, 0x09, 0x00, 0x00, 0x00,
  0x00, 0x00, 0x00, 0x09, 0x01, 0x00, 0x00, 0x00, 0x3c, 0xc2, 0xff, 0xff,
  0x14, 0x00, 0x00, 0x00, 0x10, 0x00, 0x00, 0x00, 0x18, 0x00, 0x00, 0x00,
  0x80, 0x00, 0x00, 0x00, 0x70, 0x00, 0x00, 0x00, 0x02, 0x00, 0x00, 0x00,
  0x01, 0x00, 0x00, 0x00, 0x1e, 0x00, 0x00, 0x00, 0x58, 0x00, 0x00, 0x00,
  0x73, 0x65, 0x71, 0x75, 0x65, 0x6e, 0x74, 0x69, 0x61, 0x6c, 0x5f, 0x31,
  0x30, 0x2f, 0x64, 0x65, 0x6e, 0x73, 0x65, 0x5f, 0x35, 0x30, 0x2f, 0x4d,
  0x61, 0x74, 0x4d, 0x75, 0x6c, 0x3b, 0x73, 0x65, 0x71, 0x75, 0x65, 0x6e,
  0x74, 0x69, 0x61, 0x6c, 0x5f, 0x31, 0x30, 0x2f, 0x64, 0x65, 0x6e, 0x73,
  0x65, 0x5f, 0x35, 0x30, 0x2f, 0x52, 0x65, 0x6c, 0x75, 0x3b, 0x73, 0x65,
  0x71, 0x75, 0x65, 0x6e, 0x74, 0x69, 0x61, 0x6c, 0x5f, 0x31, 0x30, 0x2f,
  0x64, 0x65, 0x6e, 0x73, 0x65, 0x5f, 0x35, 0x30, 0x2f, 0x42, 0x69, 0x61,
  0x73, 0x41, 0x64, 0x64, 0x00, 0x00, 0x00, 0x00, 0x02, 0x00, 0x00, 0x00,
  0xff, 0xff, 0xff, 0xff, 0x1e, 0x00, 0x00, 0x00, 0x50, 0xc3, 0xff, 0xff,
  0x00, 0x00, 0x0e, 0x00, 0x18, 0x00, 0x08, 0x00, 0x0c, 0x00, 0x10, 0x00,
  0x07, 0x00, 0x14, 0x00, 0x0e, 0x00, 0x00, 0x00, 0x00, 0x00, 0x00, 0x15,
  0x01, 0x00, 0x00, 0x00, 0x18, 0x00, 0x00, 0x00, 0x0c, 0x00, 0x00, 0x00,
  0x04, 0x00, 0x00, 0x00, 0x84, 0xc2, 0xff, 0xff, 0x01, 0x00, 0x00, 0x00,
  0x0e, 0x00, 0x00, 0x00, 0x02, 0x00, 0x00, 0x00, 0x0d, 0x00, 0x00, 0x00,
  0x06, 0x00, 0x00, 0x00, 0x30, 0xff, 0xff, 0xff, 0x12, 0x00, 0x00, 0x00,
  0x00, 0x00, 0x00, 0x12, 0x01, 0x00, 0x00, 0x00, 0x20, 0xc3, 0xff, 0xff,
  0x14, 0x00, 0x00, 0x00, 0x0f, 0x00, 0x00, 0x00, 0x18, 0x00, 0x00, 0x00,
  0x70, 0x00, 0x00, 0x00, 0x60, 0x00, 0x00, 0x00, 0x02, 0x00, 0x00, 0x00,
  0x01, 0x00, 0x00, 0x00, 0x0f, 0x00, 0x00, 0x00, 0x49, 0x00, 0x00, 0x00,
  0x73, 0x65, 0x71, 0x75, 0x65, 0x6e, 0x74, 0x69, 0x61, 0x6c, 0x5f, 0x31,
  0x30, 0x2f, 0x6e, 0x6f, 0x72, 0x6d, 0x61, 0x6c, 0x69, 0x7a, 0x61, 0x74,
  0x69, 0x6f, 0x6e, 0x5f, 0x37, 0x2f, 0x74, 0x72, 0x75, 0x65, 0x64, 0x69,
  0x76, 0x3b, 0x73, 0x65, 0x71, 0x75, 0x65, 0x6e, 0x74, 0x69, 0x61, 0x6c,
  0x5f, 0x31, 0x30, 0x2f, 0x6e, 0x6f, 0x72, 0x6d, 0x61, 0x6c, 0x69, 0x7a,
  0x61, 0x74, 0x69, 0x6f, 0x6e, 0x5f, 0x37, 0x2f, 0x53, 0x71, 0x72, 0x74,
  0x31, 0x00, 0x00, 0x00, 0x02, 0x00, 0x00, 0x00, 0xff, 0xff, 0xff, 0xff,
  0x0f, 0x00, 0x00, 0x00, 0x24, 0xc4, 0xff, 0xff, 0x00, 0x00, 0x0e, 0x00,
  0x14, 0x00, 0x00, 0x00, 0x08, 0x00, 0x0c, 0x00, 0x07, 0x00, 0x10, 0x00,
  0x0e, 0x00, 0x00, 0x00, 0x00, 0x00, 0x00, 0x1c, 0x18, 0x00, 0x00, 0x00,
  0x0c, 0x00, 0x00, 0x00, 0x04, 0x00, 0x00, 0x00, 0x54, 0xc3, 0xff, 0xff,
  0x01, 0x00, 0x00, 0x00, 0x0d, 0x00, 0x00, 0x00, 0x02, 0x00, 0x00, 0x00,
  0x00, 0x00, 0x00, 0x00, 0x07, 0x00, 0x00, 0x00, 0x0c, 0x00, 0x10, 0x00,
  0x0b, 0x00, 0x00, 0x00, 0x0c, 0x00, 0x04, 0x00, 0x0c, 0x00, 0x00, 0x00,
  0x29, 0x00, 0x00, 0x00, 0x00, 0x00, 0x00, 0x29, 0x01, 0x00, 0x00, 0x00,
  0xfc, 0xc3, 0xff, 0xff, 0x14, 0x00, 0x00, 0x00, 0x0e, 0x00, 0x00, 0x00,
  0x18, 0x00, 0x00, 0x00, 0x48, 0x00, 0x00, 0x00, 0x38, 0x00, 0x00, 0x00,
  0x02, 0x00, 0x00, 0x00, 0x01, 0x00, 0x00, 0x00, 0x0f, 0x00, 0x00, 0x00,
  0x21, 0x00, 0x00, 0x00, 0x73, 0x65, 0x71, 0x75, 0x65, 0x6e, 0x74, 0x69,
  0x61, 0x6c, 0x5f, 0x31, 0x30, 0x2f, 0x6e, 0x6f, 0x72, 0x6d, 0x61, 0x6c,
  0x69, 0x7a, 0x61, 0x74, 0x69, 0x6f, 0x6e, 0x5f, 0x37, 0x2f, 0x73, 0x75,
  0x62, 0x00, 0x00, 0x00, 0x02, 0x00, 0x00, 0x00, 0xff, 0xff, 0xff, 0xff,
  0x0f, 0x00, 0x00, 0x00, 0xe0, 0xc3, 0xff, 0xff, 0xd2, 0xc4, 0xff, 0xff,
  0x04, 0x00, 0x00, 0x00, 0x38, 0x04, 0x00, 0x00, 0x12, 0xe7, 0xb4, 0x3e,
  0x85, 0x92, 0x86, 0xbe, 0xb9, 0x75, 0x28, 0xbf, 0xfb, 0x32, 0x5c, 0xbe,
  0xcc, 0xaf, 0xea, 0xbd, 0x83, 0xde, 0x93, 0xbe, 0x11, 0xad, 0xa5, 0xbe,
  0x18, 0x38, 0x5d, 0xbd, 0xe6, 0x47, 0x3e, 0x3f, 0x95, 0x88, 0x80, 0xba,
  0x9a, 0x48, 0xe1, 0xbd, 0xc1, 0x11, 0x88, 0xbe, 0x47, 0x3d, 0x2f, 0xbe,
  0x6d, 0x13, 0x81, 0x3d, 0x5a, 0x9d, 0xce, 0x3e, 0xa2, 0x7f, 0x9f, 0x3e,
  0x61, 0xb8, 0x84, 0xbe, 0x60, 0xf7, 0x96, 0xbd, 0x06, 0xf4, 0x18, 0xbd,
  0x5a, 0xd8, 0xee, 0xbb, 0xfa, 0x89, 0xaa, 0xbe, 0xcd, 0x6a, 0x35, 0xbf,
  0xfe, 0x64, 0xe2, 0x3e, 0x54, 0xbf, 0x64, 0xbe, 0xf8, 0x04, 0x8e, 0x3e,
  0xed, 0xc3, 0x13, 0xbd, 0xee, 0x95, 0x46, 0x3f, 0xec, 0xfd, 0x8a, 0xbe,
  0xc6, 0x22, 0x0d, 0x3f, 0x22, 0x83, 0xd4, 0xbe, 0xa1, 0x41, 0xc2, 0x3e,
  0x53, 0x58, 0xee, 0xbe, 0xc6, 0x95, 0xa3, 0xbd, 0xb8, 0xc8, 0x6d, 0xbe,
  0x2b, 0xd7, 0x4a, 0xbe, 0x23, 0xdf, 0x4a, 0xbe, 0x1e, 0x05, 0x57, 0xbe,
  0xc4, 0xff, 0x17, 0xbe, 0x2b, 0x55, 0xd9, 0xbe, 0x67, 0x4d, 0x44, 0x3e,
  0x6f, 0x54, 0x91, 0xbd, 0xd5, 0x55, 0xcf, 0xbe, 0x1e, 0xf8, 0x58, 0xbe,
  0xc2, 0x43, 0x10, 0xbf, 0x1f, 0xce, 0xd0, 0x3e, 0x40, 0x97, 0xb0, 0x3e,
  0x15, 0x4c, 0x8b, 0xbe, 0xda, 0xcc, 0xfa, 0xbc, 0xc8, 0x8f, 0x25, 0x3f,
  0x0d, 0xcd, 0x16, 0x3f, 0x6b, 0xee, 0x9d, 0x3e, 0xe4, 0xb5, 0xf7, 0x3e,
  0x79, 0x6b, 0xd6, 0xbc, 0xab, 0x06, 0xd1, 0x3d, 0xa8, 0x44, 0x16, 0x3e,
  0x58, 0xc5, 0xcb, 0x3e, 0xd7, 0x13, 0xf5, 0x3e, 0x07, 0xee, 0x20, 0xbf,
  0x85, 0xec, 0x0c, 0x3f, 0x21, 0x52, 0xf0, 0xbe, 0xe9, 0x7f, 0x71, 0xbe,
  0x71, 0xd8, 0xd5, 0x3e, 0x7a, 0xe1, 0x01, 0x3f, 0x12, 0xdc, 0x55, 0x3e,
  0xc4, 0x25, 0x5a, 0xbe, 0x99, 0x66, 0x17, 0x3e, 0x2c, 0x19, 0x73, 0x3e,
  0x65, 0x48, 0x84, 0x3e, 0x03, 0xfc, 0x78, 0x3f, 0x43, 0xf9, 0xfb, 0xbe,
  0x2d, 0x40, 0x41, 0xbe, 0xcd, 0xa3, 0x1b, 0xbf, 0x05, 0x1c, 0xaa, 0x3d,
  0x81, 0xd1, 0xea, 0xbc, 0x56, 0x7d, 0x20, 0xbe, 0x4a, 0xbb, 0x05, 0xbf,
  0xef, 0xd5, 0x30, 0x3e, 0xf0, 0x3d, 0x59, 0xbd, 0x2d, 0x37, 0x3f, 0xbe,
  0x8a, 0x06, 0x59, 0x3e, 0xbd, 0x1c, 0xc2, 0x3e, 0x28, 0x37, 0xbf, 0x3e,
  0x1f, 0x14, 0x15, 0xbf, 0x58, 0x9d, 0x5d, 0x3e, 0x1f, 0x2f, 0xda, 0xbe,
  0x7c, 0x74, 0x8f, 0x3e, 0xbe, 0x63, 0x40, 0xbc, 0x05, 0xc6, 0x31, 0x3f,
  0x59, 0xf8, 0x25, 0x3e, 0x27, 0x09, 0x41, 0x3e, 0x3a, 0x3b, 0x78, 0xbd,
  0x00, 0x82, 0xbb, 0xbe, 0x4e, 0x3c, 0x86, 0x3e, 0xb9, 0x5d, 0x9f, 0xbe,
  0x06, 0x24, 0x88, 0xbe, 0x05, 0x5a, 0x07, 0x3f, 0x18, 0xa3, 0x83, 0xbe,
  0x7d, 0x82, 0x75, 0x3e, 0xdb, 0x18, 0xc9, 0xbd, 0x47, 0x91, 0x8e, 0xbe,
  0x66, 0x67, 0xd0, 0xbd, 0x65, 0xd8, 0x3e, 0xbc, 0x91, 0xe4, 0xd6, 0x3d,
  0x23, 0xc5, 0xec, 0x3d, 0x6b, 0x0e, 0x9b, 0xbe, 0x5e, 0x97, 0x33, 0xbd,
  0xe3, 0x8a, 0xbf, 0x3e, 0x75, 0xf4, 0x39, 0xbe, 0x14, 0x23, 0xdb, 0x3e,
  0xc4, 0x5a, 0x2e, 0xbf, 0x8e, 0x1a, 0x24, 0x3e, 0x05, 0x86, 0xff, 0x3d,
  0x8b, 0x27, 0x65, 0x3e, 0xdc, 0x40, 0xae, 0xbd, 0xee, 0x20, 0x21, 0x3d,
  0x80, 0x76, 0xee, 0xbe, 0xad, 0x10, 0xc0, 0xbd, 0x54, 0x58, 0x94, 0x3e,
  0x26, 0x9e, 0x48, 0x3d, 0x90, 0x60, 0x8d, 0x3d, 0x59, 0x0a, 0xba, 0xbe,
  0x80, 0x6d, 0x21, 0xbe, 0xc9, 0xfb, 0xab, 0xbd, 0x79, 0x07, 0xa3, 0x3e,
  0xeb, 0x9d, 0x7f, 0xbd, 0x52, 0xd2, 0xac, 0xbd, 0x67, 0xd5, 0xda, 0xba,
  0xe9, 0x21, 0x04, 0xbe, 0x65, 0xe9, 0xbb, 0xbe, 0xa3, 0xf0, 0x02, 0x3f,
  0x7d, 0x1d, 0x60, 0xbe, 0x17, 0x95, 0x35, 0x3f, 0xd9, 0xec, 0xa3, 0xbe,
  0x7e, 0x28, 0xc7, 0x3c, 0x44, 0xc7, 0xec, 0xbd, 0xde, 0x5d, 0xae, 0x3e,
  0x87, 0x82, 0x67, 0xbe, 0xea, 0x39, 0xa1, 0xbe, 0xad, 0x7b, 0xe7, 0x3d,
  0x30, 0x5a, 0xab, 0xbe, 0x99, 0x87, 0x81, 0x3e, 0x43, 0x2d, 0xc3, 0x3e,
  0xad, 0x6f, 0xbd, 0xbe, 0xd2, 0x72, 0x51, 0x3e, 0x7d, 0x40, 0xc7, 0xbe,
  0x96, 0x71, 0x13, 0x3d, 0x4f, 0x17, 0x06, 0xbf, 0x12, 0xfc, 0x39, 0x3f,
  0xf8, 0xb5, 0x70, 0xbe, 0xb9, 0x2d, 0xa0, 0x3e, 0x3f, 0x82, 0x63, 0xbe,
  0x6d, 0xe2, 0x14, 0xbe, 0x3b, 0x85, 0x9d, 0xbe, 0x4f, 0x05, 0xb0, 0xbe,
  0x09, 0x8e, 0xaf, 0xbe, 0x53, 0x36, 0xc4, 0x3e, 0x3a, 0x92, 0x0e, 0x3e,
  0xbe, 0x18, 0x61, 0x3e, 0x4a, 0x9e, 0x07, 0x3c, 0xde, 0xc5, 0xe5, 0x3d,
  0x0f, 0x67, 0x81, 0x3d, 0x6f, 0xe2, 0xc3, 0xbe, 0x24, 0xdb, 0xa5, 0xbe,
  0x71, 0x10, 0x10, 0x3e, 0xbd, 0x8f, 0x60, 0x3d, 0x59, 0x0d, 0x97, 0x3e,
  0x4a, 0x8b, 0x82, 0x3d, 0xe2, 0x6a, 0x80, 0xbd, 0x9b, 0x5b, 0xc3, 0xbe,
  0xf2, 0x0f, 0x8a, 0xbe, 0x54, 0xbf, 0x65, 0xbe, 0x06, 0xde, 0x89, 0xbe,
  0xfe, 0xa3, 0xc8, 0xbe, 0xf0, 0x00, 0x51, 0xbe, 0xe7, 0x30, 0xb2, 0xbe,
  0x03, 0x20, 0x37, 0xbe, 0xfe, 0xf7, 0xc9, 0xbe, 0x19, 0xf7, 0xc1, 0xbd,
  0x2f, 0xba, 0x6c, 0xbe, 0x6d, 0xdc, 0xd5, 0xbd, 0xce, 0xd4, 0x25, 0xbe,
  0xbb, 0x61, 0x4a, 0x3e, 0x62, 0xec, 0x06, 0x3e, 0x32, 0x9a, 0x9c, 0x3e,
  0xff, 0x78, 0x86, 0xbe, 0x7b, 0x79, 0x3e, 0x3e, 0xee, 0xe6, 0x94, 0x3e,
  0xcd, 0xc6, 0xb0, 0xbe, 0x6a, 0x3c, 0x17, 0x3e, 0x67, 0x2b, 0xb8, 0xbe,
  0x90, 0x0e, 0xf6, 0xbd, 0xef, 0xfc, 0xda, 0x3d, 0xf5, 0xb1, 0x27, 0x3d,
  0x48, 0xa6, 0x1e, 0x3e, 0x37, 0xcb, 0xea, 0xbc, 0x4b, 0xb9, 0x48, 0xbd,
  0xed, 0xee, 0xa3, 0x3e, 0x92, 0xda, 0x44, 0x3e, 0x79, 0x4f, 0x59, 0xbe,
  0x25, 0xed, 0x32, 0xbe, 0xe8, 0x10, 0x4b, 0xbd, 0x14, 0x41, 0x95, 0x3e,
  0xe7, 0x43, 0x2b, 0x3e, 0x62, 0x5a, 0x86, 0xbd, 0x78, 0xe2, 0xc5, 0x3d,
  0x1c, 0xc6, 0xd0, 0x3c, 0x82, 0x81, 0xa6, 0xbe, 0x6f, 0x1d, 0x62, 0x3e,
  0x13, 0x01, 0x8c, 0xbd, 0x06, 0x65, 0x01, 0xbf, 0xe5, 0x19, 0xac, 0x3d,
  0xc8, 0xda, 0x20, 0x3d, 0xe2, 0xf4, 0x07, 0xbe, 0xcc, 0x42, 0x04, 0xbe,
  0x2f, 0xd4, 0x8a, 0x3e, 0xe4, 0x39, 0x22, 0x3e, 0x6e, 0x61, 0x29, 0x3e,
  0x81, 0x0e, 0xbd, 0xbe, 0x9a, 0x70, 0x44, 0xbe, 0xa4, 0x8e, 0x2e, 0x3e,
  0xa8, 0xcb, 0x60, 0x3d, 0x10, 0x68, 0xae, 0xbe, 0xa9, 0x83, 0xa3, 0xbe,
  0xed, 0x22, 0xee, 0xbd, 0x96, 0xbb, 0xbf, 0xbd, 0xe8, 0x82, 0x8c, 0x3e,
  0x62, 0x81, 0x09, 0x3e, 0x7b, 0x65, 0xa2, 0x3e, 0x6b, 0x7a, 0x28, 0x3e,
  0x7a, 0x61, 0xaf, 0x3e, 0xd4, 0x24, 0xf2, 0x3d, 0x3c, 0x5e, 0x0c, 0x3e,
  0xf2, 0xad, 0x3f, 0x3e, 0x2e, 0x58, 0xc0, 0xbe, 0x1b, 0x81, 0x9a, 0x3d,
  0x74, 0xe1, 0x96, 0xbe, 0x4a, 0x92, 0xce, 0xbe, 0xec, 0xc8, 0xc4, 0xbe,
  0xd9, 0x23, 0x76, 0xbd, 0x01, 0xdb, 0xb9, 0xbe, 0x66, 0x70, 0x35, 0x3e,
  0x50, 0x71, 0x52, 0xbe, 0xcb, 0xe8, 0xa6, 0x3c, 0x59, 0xf1, 0xa2, 0xbd,
  0x53, 0x02, 0xb0, 0xbe, 0xcb, 0x4e, 0xc2, 0x3c, 0xbe, 0x01, 0x3d, 0x3d,
  0xbf, 0x4b, 0x1d, 0x3f, 0x60, 0xe5, 0x6d, 0xbe, 0xd2, 0xad, 0x73, 0x3e,
  0x2b, 0x06, 0xe8, 0x3d, 0xa0, 0x67, 0xdb, 0x3e, 0xe0, 0xec, 0x85, 0x3e,
  0xdd, 0xcf, 0x2b, 0x3c, 0xc8, 0x40, 0x01, 0xbf, 0x76, 0x24, 0xba, 0xbe,
  0xfa, 0xc8, 0xc7, 0xbe, 0x38, 0x22, 0xd7, 0xbc, 0x40, 0xe8, 0x27, 0xbf,
  0x0c, 0x61, 0xaa, 0x3e, 0xfa, 0xa8, 0x22, 0x3e, 0xee, 0xfc, 0xf8, 0x3e,
  0x2e, 0x9b, 0x67, 0x3e, 0x27, 0xd8, 0xa8, 0xbc, 0x39, 0x8b, 0x8b, 0x3d,
  0x9b, 0x51, 0xf1, 0x3e, 0x54, 0x35, 0x72, 0xbe, 0xf8, 0xf5, 0xc7, 0xbe,
  0xf9, 0x9f, 0x48, 0xbe, 0x36, 0x7c, 0xf4, 0x3e, 0xde, 0xc8, 0xff, 0xff,
  0x10, 0x00, 0x00, 0x00, 0x0d, 0x00, 0x00, 0x00, 0x14, 0x00, 0x00, 0x00,
  0x34, 0x00, 0x00, 0x00, 0x02, 0x00, 0x00, 0x00, 0x09, 0x00, 0x00, 0x00,
  0x1e, 0x00, 0x00, 0x00, 0x1d, 0x00, 0x00, 0x00, 0x73, 0x65, 0x71, 0x75,
  0x65, 0x6e, 0x74, 0x69, 0x61, 0x6c, 0x5f, 0x31, 0x30, 0x2f, 0x64, 0x65,
  0x6e, 0x73, 0x65, 0x5f, 0x35, 0x34, 0x2f, 0x4d, 0x61, 0x74, 0x4d, 0x75,
  0x6c, 0x00, 0x00, 0x00, 0x6c, 0xc8, 0xff, 0xff, 0x5e, 0xc9, 0xff, 0xff,
  0x04, 0x00, 0x00, 0x00, 0x10, 0x0e, 0x00, 0x00, 0x14, 0xc3, 0x81, 0x3e,
  0x2f, 0x84, 0xf3, 0x3d, 0xf9, 0x81, 0x84, 0xbe, 0x0c, 0x43, 0x40, 0xbe,
  0x5e, 0xef, 0x7c, 0x3c, 0x55, 0x26, 0x37, 0x3e, 0xa3, 0x24, 0x6a, 0x3e,
  0x83, 0x35, 0x16, 0xbe, 0x3a, 0x05, 0x61, 0x3e, 0xd9, 0x73, 0xb3, 0xbd,
  0x33, 0x27, 0x08, 0xbe, 0x73, 0xd8, 0x2e, 0xbe, 0xf5, 0x3e, 0xa1, 0x3d,
  0xca, 0x97, 0x10, 0x3e, 0xd7, 0xa2, 0x63, 0xbe, 0x8f, 0x7a, 0x98, 0xbe,
  0xe1, 0xc1, 0x88, 0xbc, 0x66, 0xc9, 0xf0, 0x3d, 0xdc, 0x01, 0x55, 0xbe,
  0x41, 0xea, 0x20, 0xbe, 0xc3, 0x7d, 0xcf, 0x3c, 0x45, 0x97, 0x0a, 0xbe,
  0x76, 0xf8, 0x9e, 0xbe, 0x88, 0xeb, 0x9a, 0x3c, 0xf4, 0x3e, 0x32, 0xbe,
  0x45, 0x9f, 0x21, 0x3e, 0x72, 0xd8, 0xae, 0x3d, 0xad, 0x5f, 0x19, 0xbd,
  0xe0, 0x78, 0x3e, 0xbe, 0xc3, 0x32, 0x86, 0xbe, 0xb8, 0x57, 0x06, 0x3e,
  0x8e, 0x37, 0x00, 0xbf, 0x79, 0x0a, 0xcd, 0x3d, 0xf4, 0xb2, 0xfe, 0x3c,
  0x74, 0xeb, 0x32, 0x3e, 0xb0, 0x0f, 0xbd, 0xbc, 0x0c, 0xd9, 0x97, 0x3e,
  0x6d, 0x3f, 0x79, 0xbe, 0xee, 0x34, 0xad, 0x3d, 0x7e, 0xf5, 0xc8, 0xbd,
  0xdb, 0x01, 0xd9, 0xbd, 0x8d, 0x11, 0x46, 0xbe, 0x64, 0xd7, 0x7b, 0xbc,
  0xbb, 0x88, 0x56, 0x3e, 0xd4, 0x95, 0x56, 0x3c, 0x1a, 0x85, 0x2a, 0x3e,
  0x81, 0x75, 0x45, 0xbe, 0xe8, 0xdc, 0x2f, 0x3e, 0xb4, 0x38, 0x4a, 0x3e,
  0x1a, 0xd8, 0x30, 0xbc, 0x53, 0xc5, 0xe3, 0xbd, 0x7b, 0x81, 0xa3, 0x3e,
  0xc0, 0xca, 0x83, 0x3e, 0x27, 0x87, 0x41, 0xbe, 0x63, 0xb5, 0xa8, 0xbd,
  0x2d, 0x81, 0x67, 0x3e, 0xd1, 0x25, 0x4c, 0x3e, 0x4c, 0xad, 0x0d, 0x3e,
  0xe8, 0x45, 0x87, 0x3e, 0xfb, 0x29, 0x38, 0x3e, 0x00, 0xcc, 0x4e, 0xbe,
  0xb3, 0xcd, 0xcf, 0xbe, 0x2b, 0x5d, 0x95, 0xbe, 0x0e, 0xe5, 0x96, 0xbc,
  0x01, 0x55, 0x52, 0xbe, 0xa2, 0x0e, 0x43, 0x3d, 0xed, 0xbe, 0x45, 0x3e,
  0x61, 0x14, 0x4a, 0xbd, 0xd6, 0x8b, 0x77, 0x3e, 0x82, 0x45, 0x97, 0x3e,
  0x6c, 0x52, 0xe3, 0xbd, 0xf7, 0x27, 0x85, 0x3e, 0x7e, 0xb7, 0x6a, 0xbe,
  0xe2, 0xf9, 0xa6, 0x3e, 0xd1, 0x6d, 0x69, 0xbc, 0xd3, 0x20, 0x5d, 0x3d,
  0xd6, 0xc4, 0x3d, 0xbe, 0x84, 0x5b, 0x12, 0x3e, 0xfa, 0x14, 0x07, 0xbe,
  0x7a, 0xc3, 0xcf, 0xbe, 0x75, 0xa9, 0x2a, 0xbe, 0x6c, 0xa9, 0xd7, 0x3e,
  0x84, 0x11, 0xa0, 0x3e, 0x21, 0x5a, 0x9b, 0x3d, 0x4b, 0xbb, 0xe7, 0xbd,
  0xf5, 0x58, 0x02, 0xbd, 0x94, 0x00, 0x53, 0x3e, 0xa0, 0x46, 0xe6, 0x3d,
  0xfd, 0x7a, 0x88, 0x3d, 0x17, 0x22, 0xb6, 0xbd, 0x69, 0x93, 0xe9, 0xbc,
  0x26, 0x39, 0x67, 0x3d, 0xa5, 0xc2, 0xcc, 0x3d, 0xc9, 0x79, 0x07, 0xbe,
  0x9c, 0xc8, 0xd2, 0xbd, 0x94, 0x5e, 0xd4, 0xbd, 0x9a, 0x25, 0x83, 0x3e,
  0x9d, 0xe7, 0x59, 0xbe, 0x2a, 0x3e, 0xf5, 0x3d, 0xc8, 0x6b, 0x28, 0x3e,
  0xdb, 0x64, 0x5a, 0x3e, 0xe4, 0x85, 0x49, 0xbd, 0x41, 0xc1, 0x0f, 0x3d,
  0xc3, 0xac, 0x17, 0xbd, 0x10, 0x52, 0x9c, 0xbd, 0x0a, 0xe4, 0xaa, 0xbd,
  0xb5, 0x5c, 0x5d, 0xbe, 0xd6, 0x4a, 0x94, 0xbe, 0x1a, 0xa6, 0x92, 0x3e,
  0xd7, 0xd3, 0x00, 0x3e, 0x63, 0x9e, 0x2e, 0xbe, 0x0c, 0xa3, 0x8f, 0xbc,
  0xf0, 0x3e, 0x22, 0xbe, 0xe4, 0xe4, 0x01, 0x3d, 0x42, 0x93, 0xac, 0x3d,
  0x6f, 0xd1, 0x51, 0xbe, 0x7d, 0x4d, 0x20, 0x3e, 0x6b, 0x72, 0x84, 0x3e,
  0x65, 0xb6, 0x2f, 0x3e, 0xbb, 0xcf, 0x89, 0xbe, 0xc9, 0x50, 0x70, 0xbe,
  0xbe, 0xc1, 0x93, 0xbe, 0xa6, 0x25, 0x98, 0xbb, 0x35, 0xcd, 0x50, 0x3d,
  0x1e, 0xe7, 0xdc, 0xbd, 0x2b, 0x50, 0x28, 0xbe, 0x0e, 0xf9, 0x02, 0x3e,
  0xcb, 0xbe, 0xa1, 0xbe, 0xd3, 0x4b, 0x4f, 0x3e, 0x7e, 0x4b, 0x51, 0x3e,
  0x86, 0x8a, 0xa1, 0xbe, 0x5c, 0x53, 0xd1, 0xbd, 0x08, 0xc9, 0x5d, 0xbe,
  0x75, 0xf9, 0x64, 0xbe, 0x62, 0x4d, 0x89, 0x3e, 0x33, 0xdf, 0x64, 0xbe,
  0x61, 0xb3, 0xca, 0xbd, 0x0e, 0x2b, 0xc9, 0x3d, 0x1a, 0x8a, 0xde, 0xbd,
  0xea, 0xe6, 0xfc, 0xbd, 0x55, 0x25, 0xa1, 0xbe, 0xc5, 0x1b, 0x2f, 0x3e,
  0x8a, 0xdb, 0x64, 0x3e, 0xa1, 0x01, 0x89, 0xbe, 0x92, 0xc2, 0x9f, 0xbe,
  0x4c, 0x6d, 0x69, 0x3e, 0xf0, 0x93, 0xe7, 0x3d, 0x07, 0x5d, 0x4b, 0x3d,
  0xde, 0xda, 0x96, 0xbe, 0x6b, 0x4f, 0x48, 0xbd, 0x89, 0xaa, 0x88, 0x3e,
  0xdb, 0x7c, 0x89, 0x3e, 0x3a, 0xa6, 0x1d, 0xbe, 0x16, 0xe6, 0x9f, 0xbe,
  0xd8, 0x76, 0x87, 0xbe, 0xe3, 0x51, 0x4c, 0xbe, 0xeb, 0x5d, 0x9e, 0x3d,
  0x8c, 0xea, 0xe7, 0xbd, 0xc0, 0xe5, 0xf4, 0xbd, 0xc1, 0x62, 0x3b, 0x3e,
  0xfb, 0x95, 0x4e, 0xbe, 0xbe, 0x06, 0x17, 0x3d, 0xb4, 0xbe, 0xa1, 0x3d,
  0x9d, 0xbe, 0xe3, 0x3c, 0xeb, 0x84, 0xf6, 0x3d, 0x18, 0xbe, 0x56, 0xbe,
  0xe4, 0x7b, 0x60, 0x3d, 0xb8, 0x76, 0x9e, 0xbe, 0x09, 0x19, 0x02, 0xbd,
  0x11, 0xbd, 0x2c, 0x3e, 0xf9, 0x0a, 0x71, 0x3e, 0xa3, 0x1d, 0xa5, 0xbe,
  0x10, 0x06, 0x3b, 0x3d, 0x29, 0x9e, 0xa7, 0xbd, 0x0f, 0x3a, 0xd8, 0x3b,
  0x7c, 0x79, 0x7d, 0x3e, 0x95, 0xf1, 0xdf, 0x3d, 0x45, 0x12, 0x53, 0xbe,
  0x14, 0x78, 0x48, 0xbe, 0x1a, 0x57, 0xc5, 0xbd, 0x9c, 0xe6, 0x41, 0xbe,
  0x4a, 0x08, 0x38, 0x3e, 0x01, 0xfd, 0xa2, 0xbe, 0x59, 0x57, 0x99, 0xbe,
  0x2b, 0xc6, 0x86, 0xbe, 0x92, 0x4d, 0x43, 0x3e, 0x09, 0x35, 0xab, 0xbd,
  0x56, 0x36, 0x82, 0xbd, 0x15, 0x5f, 0xf9, 0xbd, 0x6f, 0xcf, 0xa2, 0xbe,
  0x02, 0xa5, 0x31, 0x3e, 0x91, 0x36, 0x5d, 0x3e, 0xdd, 0xdd, 0x88, 0xbe,
  0xa9, 0xca, 0x59, 0xbc, 0xde, 0x6f, 0xec, 0x3d, 0x0d, 0x41, 0x78, 0x3e,
  0xa0, 0x24, 0x20, 0x3e, 0xc7, 0xbe, 0x99, 0x3e, 0xbc, 0x51, 0x3a, 0xbe,
  0xaa, 0xda, 0x65, 0x3e, 0x77, 0x8a, 0x9c, 0xbe, 0x6f, 0x57, 0xad, 0x3d,
  0x65, 0x29, 0x73, 0xbd, 0x60, 0xd3, 0x64, 0x3e, 0xa5, 0x18, 0x52, 0xbe,
  0x81, 0x2b, 0x20, 0xbe, 0x9d, 0xa7, 0x49, 0xbe, 0x81, 0xc7, 0xcd, 0xbd,
  0x1e, 0xec, 0x21, 0x3e, 0xd6, 0xf6, 0x06, 0x3e, 0x63, 0x9f, 0xb8, 0xbe,
  0x62, 0xbc, 0x9c, 0xbe, 0x50, 0x49, 0x97, 0x3c, 0x01, 0xb0, 0xae, 0x3e,
  0xc0, 0xd3, 0x61, 0xbc, 0xa0, 0x23, 0x9c, 0x3e, 0x28, 0x89, 0x31, 0x3e,
  0x7c, 0xaf, 0x8c, 0x3d, 0x71, 0xbb, 0xa9, 0x3e, 0x56, 0x41, 0x98, 0x3e,
  0xbb, 0x8f, 0x83, 0xbe, 0xb5, 0x0b, 0xc1, 0x3e, 0x10, 0xc7, 0x3b, 0xbe,
  0x25, 0x61, 0xf3, 0xbc, 0x46, 0x92, 0x87, 0xbd, 0x09, 0x01, 0xae, 0x3d,
  0x86, 0xf6, 0xce, 0x3d, 0x1c, 0x28, 0x8d, 0x3c, 0xb8, 0x07, 0x3e, 0x3e,
  0x48, 0x5d, 0x15, 0xbe, 0x0e, 0xcf, 0xff, 0x3c, 0x89, 0xfd, 0x8b, 0x3d,
  0xca, 0x09, 0x77, 0xbe, 0xfe, 0xd1, 0x28, 0x3c, 0x57, 0x69, 0x3b, 0x3e,
  0x45, 0x4c, 0xa6, 0x3d, 0x05, 0x4b, 0x9c, 0x3e, 0x9e, 0x43, 0x9d, 0xbd,
  0xbf, 0xa8, 0x45, 0xbe, 0xcd, 0xbb, 0x41, 0xbe, 0x6a, 0x02, 0x92, 0x3e,
  0x2b, 0x24, 0x16, 0xbf, 0x5b, 0x62, 0x5f, 0x3e, 0x93, 0x71, 0x76, 0x3d,
  0x41, 0xf0, 0x75, 0x3e, 0xf0, 0x76, 0xa2, 0x3e, 0x62, 0x2d, 0xcb, 0x3d,
  0x14, 0x47, 0x3d, 0xbe, 0x71, 0xfb, 0xbc, 0x3d, 0xe4, 0x41, 0xe8, 0x3e,
  0xa4, 0x54, 0x8c, 0xbe, 0xf9, 0x84, 0xf1, 0x3d, 0x9c, 0xdb, 0x87, 0xbe,
  0xd5, 0x7b, 0x7a, 0x3e, 0x91, 0xf2, 0x90, 0x3e, 0xab, 0x7a, 0xb7, 0xbe,
  0xe0, 0x13, 0x8f, 0xbe, 0x88, 0x11, 0xd3, 0xbd, 0x24, 0x4e, 0x29, 0xbe,
  0x4b, 0xb2, 0xff, 0x3e, 0x39, 0x04, 0x7e, 0xbe, 0xd5, 0xe3, 0xbc, 0x3e,
  0xeb, 0xea, 0x2a, 0x3d, 0xdc, 0x9a, 0x8c, 0x3c, 0xc6, 0x67, 0x1c, 0x3f,
  0x4c, 0xf1, 0x43, 0xbd, 0x8b, 0xd8, 0x9c, 0xbe, 0x82, 0xc8, 0x50, 0xbd,
  0x2f, 0xde, 0x8e, 0x3e, 0x3f, 0x5f, 0x5f, 0x3e, 0xaa, 0x7a, 0xd3, 0xbe,
  0xec, 0xc2, 0x7d, 0x3e, 0xfd, 0xd3, 0x82, 0xbe, 0x3f, 0xe5, 0x70, 0x3e,
  0x2c, 0x5a, 0x30, 0xbe, 0xb3, 0x6c, 0xb7, 0xbe, 0x7b, 0x05, 0x11, 0xbd,
  0x75, 0xe4, 0x71, 0xbe, 0x65, 0xd9, 0x43, 0xbe, 0x11, 0xad, 0x42, 0x3e,
  0x3f, 0xbf, 0x39, 0x3e, 0xee, 0x84, 0xa1, 0xbe, 0x61, 0x4f, 0xa8, 0x3e,
  0x97, 0xb4, 0xf6, 0xbd, 0x91, 0x0f, 0x7d, 0xbe, 0x46, 0x0a, 0x9d, 0x3e,
  0x7d, 0x3d, 0xef, 0x3d, 0x66, 0x4d, 0x2d, 0x3e, 0xe2, 0x02, 0x71, 0xbe,
  0x63, 0xfe, 0x1f, 0xbe, 0x8d, 0xd4, 0xf9, 0x3d, 0xae, 0xfe, 0xcf, 0xbd,
  0x2a, 0xd1, 0xe2, 0xbd, 0xda, 0x12, 0xb6, 0x3d, 0x71, 0x02, 0x55, 0xbc,
  0xdf, 0x54, 0x90, 0xbe, 0xc6, 0x36, 0xb9, 0x3d, 0x3a, 0xcd, 0x63, 0xbd,
  0xb5, 0x85, 0x82, 0xbe, 0x7a, 0x3b, 0x0a, 0x3e, 0x1e, 0x7f, 0x0f, 0x3d,
  0x6a, 0x2e, 0x93, 0x3e, 0x92, 0x34, 0x13, 0x3d, 0xf9, 0x26, 0xb7, 0xbd,
  0x1b, 0xc3, 0x7a, 0xbc, 0x0a, 0xe0, 0x9a, 0x3e, 0x6f, 0x75, 0x26, 0x3e,
  0x85, 0x09, 0x06, 0xbe, 0xc8, 0x52, 0x7d, 0xbe, 0x34, 0xb3, 0x83, 0x3e,
  0x40, 0xac, 0x3f, 0x3e, 0xfd, 0xa0, 0xaf, 0x3e, 0xc0, 0x27, 0xee, 0xbd,
  0x32, 0xe6, 0x45, 0x3c, 0x1e, 0xa2, 0x57, 0xbd, 0x9f, 0x0b, 0x72, 0x3e,
  0x43, 0xa3, 0x5b, 0x3d, 0x0d, 0x7c, 0x8e, 0xbe, 0x62, 0xc2, 0xfc, 0x3d,
  0x2f, 0xad, 0x0a, 0x3e, 0xc5, 0x7a, 0x54, 0xbe, 0x26, 0xe4, 0x9a, 0xbe,
  0x68, 0x6b, 0x8f, 0xbe, 0xfa, 0x0c, 0x48, 0x3d, 0x0c, 0x53, 0x98, 0xbe,
  0xd7, 0x3f, 0x96, 0xbe, 0x73, 0xd6, 0xc3, 0xbd, 0x23, 0xd6, 0x75, 0xbe,
  0x04, 0x10, 0x59, 0x3d, 0x00, 0xbb, 0xa0, 0xbe, 0xfd, 0x0d, 0xec, 0xbe,
  0x1b, 0x98, 0x0c, 0x3e, 0xa3, 0x8a, 0xeb, 0xbe, 0xb6, 0xdb, 0xfa, 0x3e,
  0x3a, 0xc7, 0x85, 0xbe, 0xad, 0x1e, 0xeb, 0xbd, 0xf5, 0x36, 0xb8, 0xbe,
  0x9d, 0xa1, 0x77, 0x39, 0xb0, 0xbe, 0x7f, 0xbe, 0x1f, 0x12, 0xb7, 0xbe,
  0xed, 0x3d, 0x85, 0x3d, 0xf0, 0x8b, 0x80, 0xbd, 0x77, 0xb4, 0xb0, 0x3e,
  0x16, 0xa9, 0x39, 0xbd, 0xc1, 0xf0, 0x07, 0xbd, 0x38, 0x04, 0x05, 0x3e,
  0x0c, 0xc0, 0x0d, 0x3e, 0x6e, 0x0f, 0x1a, 0x3d, 0x88, 0x33, 0x73, 0x3e,
  0xea, 0x76, 0x06, 0xbd, 0x32, 0xa5, 0x02, 0x3f, 0x81, 0x0f, 0x0e, 0xbe,
  0x10, 0xb6, 0xe1, 0xbc, 0xff, 0xff, 0xab, 0x3e, 0x2c, 0x9a, 0xc3, 0xbe,
  0x4b, 0x58, 0x93, 0x3d, 0x97, 0x70, 0x38, 0xbe, 0xea, 0x84, 0x92, 0xbd,
  0x63, 0x6e, 0x0b, 0xbe, 0x34, 0x0b, 0x4b, 0xbe, 0x5c, 0x32, 0x78, 0xbe,
  0x83, 0xc3, 0xbd, 0xbb, 0x97, 0x4b, 0xb4, 0x3c, 0xde, 0xd4, 0x4d, 0xbc,
  0xcd, 0xd9, 0x31, 0x3d, 0xed, 0xc7, 0x99, 0x3e, 0x0b, 0xef, 0xa8, 0xbd,
  0xc8, 0xd5, 0x23, 0xbc, 0xa9, 0x3c, 0x24, 0xbe, 0xa2, 0x9b, 0x18, 0xbd,
  0xd6, 0xcd, 0x17, 0xbe, 0x45, 0x4c, 0x25, 0x3e, 0xbb, 0xca, 0x43, 0xbe,
  0x8b, 0xf4, 0x4b, 0xbe, 0x90, 0x5c, 0x9c, 0x3e, 0x9d, 0x88, 0xaa, 0xbd,
  0x83, 0x1e, 0xcc, 0x3d, 0x53, 0x81, 0x40, 0xbe, 0x38, 0xb8, 0x0b, 0xbe,
  0x9b, 0x76, 0x1c, 0xbe, 0xee, 0x58, 0x7b, 0x3e, 0x7e, 0x86, 0x15, 0xbe,
  0x10, 0x5a, 0xf8, 0xbd, 0xf7, 0x05, 0xa1, 0x3e, 0x0d, 0xd0, 0xa8, 0x3e,
  0x98, 0x3c, 0x15, 0x3e, 0x45, 0x40, 0xa8, 0x3e, 0x93, 0x3e, 0xe6, 0x39,
  0x24, 0xf8, 0x1b, 0xbd, 0x13, 0x04, 0x39, 0xbe, 0xce, 0xcc, 0x62, 0x3d,
  0x04, 0xd8, 0x8b, 0xbe, 0x48, 0x67, 0xca, 0x3a, 0x10, 0x07, 0xd8, 0x3c,
  0x23, 0xf3, 0x08, 0xbe, 0x43, 0x2b, 0x9d, 0x3d, 0x74, 0xf9, 0x9f, 0x3e,
  0x67, 0x48, 0x9f, 0x3c, 0xac, 0x70, 0x9e, 0x3e, 0x3f, 0x71, 0x7e, 0x3e,
  0x5d, 0x9b, 0x05, 0xbe, 0x8d, 0x4d, 0x69, 0x3d, 0x3e, 0x0b, 0xc9, 0x3d,
  0x45, 0x0f, 0xb1, 0x3e, 0x9d, 0xa4, 0xc5, 0x3e, 0xe6, 0x2e, 0xc2, 0xbd,
  0xd0, 0x69, 0x77, 0x3e, 0xd0, 0x01, 0x7a, 0x3d, 0x50, 0xfc, 0xe6, 0xbd,
  0x7f, 0xbf, 0xcf, 0x3e, 0x08, 0x9d, 0x98, 0xbd, 0x77, 0x0e, 0x71, 0xbe,
  0xd3, 0x9f, 0x9b, 0xbe, 0x41, 0x86, 0x98, 0xbe, 0x3c, 0x08, 0xff, 0xbd,
  0x24, 0x70, 0x2e, 0x3e, 0x3c, 0x7a, 0x3b, 0xbe, 0xc8, 0x41, 0xc1, 0xbc,
  0xd3, 0x5c, 0xdd, 0xbc, 0x3a, 0x84, 0x52, 0xbe, 0x84, 0x2f, 0x65, 0xbb,
  0xf0, 0xa8, 0xa2, 0x3e, 0x02, 0x7a, 0xb3, 0xbd, 0xe4, 0x47, 0x5c, 0xbe,
  0xb4, 0xd8, 0xd8, 0xbd, 0x5d, 0x62, 0x60, 0x3e, 0x16, 0xa7, 0x89, 0x3e,
  0xae, 0x00, 0x35, 0x3e, 0xbf, 0x57, 0xae, 0x3d, 0x99, 0xdf, 0xac, 0x3e,
  0x8d, 0x24, 0x01, 0x3e, 0xa8, 0xf3, 0x0f, 0x3e, 0x93, 0xf0, 0x37, 0xbd,
  0x38, 0x8a, 0x3e, 0x3d, 0xf9, 0x2e, 0x16, 0x3e, 0x9f, 0x3d, 0x98, 0xbe,
  0x5e, 0x66, 0x48, 0x3e, 0x57, 0xe8, 0x22, 0x3e, 0xf2, 0x10, 0x3b, 0xbd,
  0xc0, 0x0f, 0x9e, 0x3e, 0xb8, 0x00, 0x52, 0xbe, 0xdf, 0xcc, 0x01, 0xbd,
  0x2f, 0x10, 0xa0, 0xbe, 0xdd, 0x9d, 0x2d, 0xbe, 0x7c, 0xd7, 0x98, 0x3e,
  0xcd, 0xbf, 0x77, 0xbe, 0xb4, 0xf0, 0x49, 0xbe, 0xfc, 0x4c, 0xba, 0x3e,
  0xee, 0x78, 0x45, 0xbe, 0xc1, 0x43, 0x02, 0xbe, 0x1b, 0x3a, 0xd6, 0xbd,
  0xb7, 0xd8, 0x51, 0x3e, 0x2a, 0x54, 0xed, 0xbd, 0xd8, 0x85, 0xf8, 0x3d,
  0xa3, 0x66, 0x93, 0x3b, 0x2f, 0xbc, 0x82, 0xbe, 0xb7, 0xbb, 0xfe, 0xbc,
  0xb7, 0xa9, 0xb3, 0xbe, 0x8b, 0x20, 0x79, 0x3e, 0xd0, 0x1d, 0x42, 0x3e,
  0xeb, 0x81, 0x8f, 0xbd, 0x93, 0xae, 0x76, 0xbd, 0x00, 0x1c, 0xfe, 0x3e,
  0x7f, 0x9a, 0x3b, 0x3e, 0x53, 0xea, 0x97, 0xbe, 0x2b, 0xab, 0x52, 0xbe,
  0x37, 0x5e, 0xa3, 0xbd, 0xc6, 0xb8, 0x62, 0xbe, 0xc7, 0x21, 0x7d, 0xbe,
  0x78, 0xc5, 0xb3, 0xbe, 0x48, 0xb6, 0x55, 0xbe, 0x61, 0x8c, 0xa1, 0xbe,
  0x99, 0xc1, 0xa7, 0x3b, 0xf4, 0xa1, 0x81, 0x3e, 0x62, 0x00, 0x19, 0x3e,
  0xfb, 0x7d, 0x15, 0xbd, 0xbd, 0xda, 0x3a, 0xbe, 0x04, 0xc3, 0x7b, 0x3e,
  0x1a, 0xa3, 0x8c, 0x3e, 0x5a, 0xac, 0xc2, 0xbe, 0x0a, 0x20, 0x56, 0xbe,
  0x19, 0x5f, 0x2b, 0xbe, 0x9d, 0x4a, 0xdc, 0xbd, 0x1a, 0x3c, 0x9f, 0xbe,
  0x9d, 0x88, 0x25, 0xbe, 0xb1, 0x18, 0x15, 0x3e, 0xbd, 0xf9, 0x01, 0x3e,
  0xa7, 0x2a, 0x4b, 0x3e, 0x49, 0xcd, 0x8e, 0xbe, 0x5f, 0xd6, 0xaa, 0x3c,
  0x21, 0x38, 0x8c, 0x3d, 0x80, 0xa5, 0xeb, 0x3d, 0xfc, 0xbd, 0x8e, 0xbe,
  0x08, 0x82, 0x02, 0x3c, 0x85, 0x71, 0x2a, 0xbd, 0x1e, 0xdc, 0x71, 0x3e,
  0x70, 0xc6, 0x23, 0xbe, 0x66, 0xa1, 0x6c, 0xbe, 0xd8, 0x51, 0x51, 0xbe,
  0xb6, 0xb3, 0x0b, 0x3e, 0x23, 0x09, 0x7f, 0xbd, 0x0c, 0x81, 0xfe, 0xbc,
  0xec, 0x7a, 0x94, 0x3e, 0x2f, 0xc3, 0x6d, 0x3e, 0x26, 0x3d, 0x7f, 0xbe,
  0x77, 0x45, 0x4a, 0xbe, 0x15, 0xde, 0xe1, 0xbc, 0x53, 0x54, 0x7f, 0x3e,
  0xda, 0x3d, 0x52, 0xbe, 0x1f, 0x80, 0x08, 0xbd, 0xa2, 0xa5, 0x49, 0xbe,
  0x31, 0xef, 0x9a, 0xbd, 0x14, 0x11, 0x76, 0x3e, 0xcf, 0x96, 0x94, 0xbe,
  0xc5, 0x1c, 0xf3, 0xbc, 0xa6, 0x0f, 0x6b, 0xbd, 0xbb, 0x61, 0x07, 0x3e,
  0xa8, 0xac, 0x41, 0xbe, 0xb1, 0x4c, 0x3f, 0xbe, 0x02, 0x4b, 0xa1, 0x3d,
  0x35, 0x3a, 0x2a, 0xbe, 0x7b, 0x7b, 0x99, 0x3c, 0xb0, 0xb1, 0x46, 0x3d,
  0xb8, 0xc0, 0x8a, 0x3d, 0x45, 0x1d, 0x7b, 0xbd, 0xa3, 0x89, 0xf8, 0x3d,
  0xa3, 0x8f, 0x01, 0xbe, 0x5c, 0xc9, 0x15, 0x3e, 0x60, 0x4e, 0x4f, 0xbe,
  0xa8, 0x48, 0x2a, 0xbe, 0xfd, 0xa7, 0x29, 0x3d, 0x0d, 0xcd, 0x3c, 0xbe,
  0x51, 0xc3, 0x69, 0x3e, 0x26, 0x27, 0x7e, 0x3e, 0x9b, 0x63, 0x79, 0xbe,
  0x38, 0x30, 0x48, 0xbe, 0xeb, 0x63, 0x27, 0xbe, 0x3e, 0xd1, 0x74, 0x3e,
  0x20, 0x08, 0x2c, 0xbb, 0x0b, 0xa2, 0x55, 0xbe, 0x2b, 0x8c, 0x79, 0x3e,
  0x54, 0xea, 0x0a, 0x3f, 0x75, 0xd3, 0xbe, 0x3d, 0xf6, 0xf5, 0x60, 0xbe,
  0x2b, 0xa9, 0x88, 0x3e, 0xb2, 0x1c, 0xb7, 0xbe, 0xef, 0xc9, 0x7b, 0xbe,
  0xfe, 0x54, 0xd7, 0xbd, 0x1e, 0x0a, 0x89, 0xbd, 0xc7, 0xc3, 0x18, 0x3b,
  0x64, 0x34, 0x16, 0x3d, 0x67, 0x93, 0xa1, 0xbe, 0x65, 0x12, 0x8f, 0xbe,
  0xea, 0x74, 0x9b, 0xbb, 0x8c, 0x44, 0xb9, 0x3d, 0x33, 0x0f, 0xb5, 0xbc,
  0x1b, 0xce, 0xb3, 0xbd, 0x7c, 0x82, 0x7d, 0x3e, 0xad, 0xe4, 0x80, 0x3e,
  0x96, 0x84, 0x1d, 0x3e, 0xb7, 0x14, 0xbc, 0x3e, 0xd1, 0x74, 0xeb, 0x3d,
  0x01, 0x70, 0x87, 0x3e, 0xcd, 0x32, 0x83, 0xbe, 0xfe, 0x72, 0x57, 0xbd,
  0x96, 0x55, 0x89, 0x3d, 0x9b, 0xa7, 0xea, 0x3d, 0x89, 0xc3, 0xba, 0x3e,
  0xbe, 0xb0, 0x90, 0xbe, 0x6a, 0xf4, 0x61, 0x3e, 0x48, 0x90, 0x82, 0x3d,
  0x11, 0xdb, 0x79, 0x3e, 0x64, 0xe1, 0xed, 0x3e, 0x2a, 0x73, 0x1a, 0x3e,
  0xf6, 0x9e, 0x75, 0x3e, 0x0b, 0x51, 0xad, 0x3e, 0xbb, 0xe6, 0x1c, 0xbe,
  0xcc, 0x5f, 0x94, 0x3e, 0x7a, 0x11, 0xe5, 0x3c, 0x79, 0x3f, 0x00, 0x3f,
  0x8f, 0xe5, 0xaa, 0x3c, 0xd6, 0xb6, 0x6e, 0x3e, 0x0c, 0x20, 0x33, 0x3e,
  0xf3, 0x94, 0x37, 0x3e, 0xe0, 0xcf, 0x74, 0xbe, 0x46, 0x97, 0x32, 0x3e,
  0xe5, 0xd7, 0x8f, 0x3e, 0x8d, 0xbc, 0x6c, 0xbe, 0xc9, 0xa2, 0x88, 0xbd,
  0xed, 0x7c, 0x07, 0xbe, 0x0f, 0x77, 0x9f, 0xbe, 0xc2, 0x21, 0xed, 0xbc,
  0x8c, 0x3a, 0x6c, 0x3d, 0x0e, 0x05, 0xca, 0x3e, 0x78, 0x16, 0xa4, 0x3e,
  0xd5, 0xe3, 0x2a, 0x3e, 0xf9, 0xb1, 0x36, 0xbe, 0x6d, 0x5e, 0xa9, 0x3e,
  0xe5, 0x01, 0xd7, 0xbd, 0x9a, 0xb9, 0x55, 0x3e, 0x4c, 0xa2, 0xba, 0xbd,
  0x50, 0x75, 0x0b, 0xbd, 0xe8, 0x08, 0x0e, 0xbd, 0x6f, 0x53, 0x73, 0xbe,
  0xce, 0x25, 0x44, 0x3e, 0x80, 0xf4, 0xf8, 0x3d, 0xee, 0x8e, 0x4a, 0xbe,
  0x34, 0xcb, 0xbe, 0x3d, 0x54, 0xef, 0xcc, 0x3d, 0x9e, 0x42, 0x20, 0x3e,
  0x21, 0x11, 0x06, 0xbe, 0xfd, 0x5e, 0x1e, 0xbe, 0x67, 0x9c, 0x94, 0xbe,
  0x1e, 0x85, 0x70, 0x3e, 0x78, 0x3b, 0x07, 0xbe, 0xbc, 0xb3, 0x9f, 0xbe,
  0x80, 0x48, 0x27, 0x3d, 0x96, 0x30, 0xe5, 0xbd, 0x69, 0x13, 0xa1, 0xbe,
  0x6a, 0x8a, 0x4f, 0xbe, 0x34, 0x28, 0x7f, 0xbe, 0x63, 0xdf, 0x16, 0xbe,
  0x13, 0x60, 0x84, 0x3e, 0x94, 0x4e, 0x77, 0xbe, 0x81, 0x92, 0x09, 0xbe,
  0x57, 0xbb, 0x96, 0x3e, 0x60, 0xad, 0xdf, 0xbd, 0x7d, 0x35, 0x25, 0xbe,
  0xc6, 0xdb, 0x4d, 0xbe, 0x04, 0x12, 0x19, 0xbe, 0x7f, 0x5d, 0x94, 0xbe,
  0x38, 0xbe, 0xbf, 0x3e, 0x21, 0xfe, 0xc3, 0x3d, 0xfa, 0x22, 0xfa, 0x3d,
  0x57, 0xab, 0xdb, 0xbd, 0xa3, 0x8d, 0x4c, 0xbd, 0xf7, 0x19, 0x43, 0x3e,
  0x6b, 0xf6, 0xc4, 0x3e, 0x53, 0xdc, 0xa2, 0x3b, 0xf1, 0xe5, 0x82, 0x3e,
  0x7c, 0x16, 0xa7, 0xbc, 0x82, 0x96, 0x96, 0x3e, 0x87, 0x63, 0x83, 0xbe,
  0x47, 0x5e, 0x75, 0xbd, 0xbc, 0x40, 0xc8, 0xbe, 0x44, 0x6d, 0xbc, 0x3e,
  0xa2, 0xd6, 0x9e, 0xbe, 0xd4, 0x94, 0x69, 0x3d, 0x40, 0xcb, 0x44, 0xbe,
  0x68, 0xce, 0x9a, 0xbe, 0xa1, 0x58, 0xdc, 0x3e, 0xe4, 0x13, 0xa0, 0xbe,
  0xed, 0x1e, 0x8a, 0xbe, 0x53, 0xd4, 0xe5, 0x3d, 0x1f, 0xdc, 0x15, 0xbe,
  0x65, 0x9b, 0x8e, 0x3c, 0x63, 0x30, 0xa0, 0x3e, 0x1e, 0xdc, 0x1f, 0x3d,
  0xba, 0xe7, 0xf2, 0xbd, 0x67, 0x65, 0xb9, 0x3e, 0xb6, 0xb8, 0x56, 0x3e,
  0x29, 0x02, 0xd0, 0x3e, 0x03, 0xcf, 0x3b, 0x3e, 0x8b, 0x49, 0x85, 0xbd,
  0x7f, 0x97, 0x1d, 0xbe, 0xf3, 0x64, 0xbe, 0xbd, 0x53, 0x9d, 0x8c, 0x3e,
  0xa4, 0xc9, 0x9b, 0xbd, 0x7c, 0xf9, 0x41, 0xbd, 0x8a, 0xec, 0x5b, 0xbe,
  0x8d, 0x7d, 0x69, 0xbe, 0x60, 0xff, 0xb7, 0xbe, 0x69, 0xd0, 0x7c, 0x3d,
  0xc8, 0xa5, 0x72, 0xbd, 0x71, 0xd8, 0x7e, 0x3e, 0xfb, 0xe9, 0xa2, 0xbe,
  0x79, 0x86, 0x1b, 0x3d, 0x45, 0x0f, 0x53, 0xbe, 0x0c, 0x8b, 0x33, 0x3e,
  0x08, 0x69, 0xa3, 0x3e, 0x8d, 0x69, 0x9c, 0xbd, 0xdc, 0x83, 0x40, 0x3e,
  0xa9, 0x11, 0x63, 0xbe, 0xdc, 0x91, 0xa8, 0xbe, 0x18, 0x03, 0xa6, 0x3d,
  0xae, 0x09, 0xbf, 0x3e, 0x69, 0x4d, 0x5b, 0xbe, 0xa6, 0xea, 0x5f, 0x3e,
  0x85, 0xda, 0x01, 0x3e, 0x1a, 0x0e, 0xf2, 0x3d, 0x8c, 0x04, 0x7d, 0xbd,
  0x24, 0xd9, 0x06, 0xbc, 0xfd, 0x73, 0x43, 0xbd, 0x18, 0xfe, 0x72, 0xbe,
  0x7f, 0x6b, 0x4a, 0xbe, 0x4b, 0x72, 0x24, 0xbe, 0x84, 0x2e, 0xfb, 0xbb,
  0x64, 0x89, 0x54, 0xbe, 0x84, 0x2f, 0x86, 0xbd, 0xbd, 0x84, 0x55, 0xbe,
  0x12, 0xfd, 0x6a, 0x3e, 0x7e, 0xe6, 0xa9, 0xbd, 0x19, 0x34, 0x99, 0xbe,
  0xb5, 0xe9, 0x54, 0x3e, 0x57, 0xf6, 0x47, 0x3e, 0x3b, 0x6c, 0xf3, 0xbd,
  0xdd, 0x9b, 0x81, 0xbd, 0x4a, 0x2c, 0x76, 0xbe, 0x62, 0x37, 0x46, 0xbe,
  0x27, 0xb0, 0x6b, 0xbe, 0x83, 0x43, 0x3f, 0xbe, 0xbe, 0x23, 0xbe, 0xbd,
  0x2f, 0x44, 0x4b, 0x3e, 0xe8, 0x41, 0x96, 0x3e, 0xd1, 0x88, 0x22, 0x3e,
  0x85, 0xc0, 0xf3, 0x3d, 0xaf, 0xdb, 0x87, 0x3d, 0x56, 0x7c, 0xf9, 0xbd,
  0xaa, 0x26, 0x9b, 0xbd, 0xa6, 0x0c, 0xc8, 0x3d, 0x98, 0xe3, 0xf4, 0x3d,
  0xc9, 0xff, 0xb8, 0x3e, 0xa7, 0xe7, 0x81, 0x3d, 0xe0, 0x8d, 0x97, 0xbe,
  0x22, 0xca, 0xbd, 0xba, 0x32, 0xf9, 0xb3, 0x3a, 0x77, 0x5d, 0x87, 0x3e,
  0xc3, 0x2c, 0xcc, 0xbd, 0xf7, 0x06, 0xfe, 0xbb, 0x6c, 0x2c, 0x20, 0xbe,
  0xcf, 0xd7, 0x26, 0x3d, 0xa6, 0xde, 0x8b, 0x3c, 0xf7, 0xa9, 0xb0, 0x3e,
  0x14, 0xb6, 0x52, 0x3e, 0x03, 0x92, 0x4a, 0xbe, 0x91, 0x9b, 0xa3, 0x3d,
  0x95, 0x66, 0xa1, 0x3e, 0x28, 0xfb, 0x57, 0x3e, 0x8c, 0x3a, 0x3e, 0x3e,
  0x80, 0x91, 0xbc, 0x3e, 0x5f, 0x42, 0x61, 0xbe, 0x42, 0x40, 0x95, 0xbd,
  0xf1, 0xab, 0x50, 0xbd, 0xad, 0x58, 0x60, 0xbe, 0x2d, 0xef, 0x50, 0x3d,
  0x3c, 0x3f, 0xc5, 0x3d, 0x39, 0x43, 0xa8, 0xbe, 0xf2, 0xac, 0x72, 0xbe,
  0xb6, 0xc7, 0x7b, 0xbe, 0xc0, 0x47, 0xb5, 0x3d, 0xc2, 0x46, 0x1b, 0xbe,
  0x8d, 0x14, 0x8c, 0xbe, 0xf4, 0x6b, 0xcb, 0x3e, 0x6f, 0x37, 0x99, 0x3e,
  0x72, 0x4f, 0xc2, 0x3c, 0x97, 0x36, 0x57, 0xbe, 0x92, 0x0c, 0x6d, 0xbd,
  0x1e, 0x79, 0x94, 0xbd, 0x16, 0x51, 0x8e, 0x3e, 0x74, 0xc4, 0x7a, 0x3e,
  0xee, 0xd5, 0xde, 0xbd, 0x47, 0xb8, 0x21, 0x3e, 0x06, 0xde, 0x62, 0x3e,
  0x10, 0x21, 0x15, 0xbe, 0xca, 0x74, 0x84, 0xbe, 0x51, 0xdb, 0xa0, 0x3e,
  0x15, 0xbb, 0x18, 0xbe, 0xfb, 0x32, 0x02, 0xbe, 0x40, 0xac, 0x20, 0xbe,
  0x83, 0x55, 0x9e, 0x3d, 0xdf, 0xc7, 0xd7, 0x3d, 0x9f, 0x49, 0x5f, 0x3e,
  0x2d, 0x94, 0xa8, 0x3e, 0x2d, 0xc6, 0xb5, 0x3e, 0x9c, 0x83, 0x68, 0x3e,
  0xcc, 0x27, 0x96, 0xbc, 0x27, 0xcc, 0x18, 0x3e, 0xa6, 0xf4, 0x6a, 0x3e,
  0xd9, 0x19, 0xc7, 0xbd, 0x08, 0xd9, 0x9d, 0x3e, 0x2d, 0x81, 0x13, 0xbd,
  0x82, 0xad, 0x9c, 0x3e, 0xc9, 0xdc, 0xdc, 0x3e, 0xa6, 0x34, 0x86, 0xbe,
  0x0d, 0x4d, 0x9e, 0x3d, 0x9a, 0xc5, 0x92, 0xbe, 0xa9, 0xe8, 0xb2, 0x3e,
  0x42, 0x97, 0xbd, 0xbd, 0xe3, 0x7f, 0xaa, 0xbd, 0xba, 0xb5, 0x02, 0x3f,
  0x6c, 0x0d, 0xbc, 0x3c, 0x1d, 0x13, 0x29, 0xbd, 0xf6, 0x63, 0xde, 0x3e,
  0x19, 0xc7, 0x9c, 0x3e, 0xa9, 0x2e, 0xed, 0xbd, 0x88, 0x2e, 0xcf, 0xbe,
  0x99, 0x32, 0x9d, 0xbc, 0x03, 0x86, 0xa8, 0x3d, 0x47, 0x2b, 0xc3, 0xbc,
  0x0e, 0x70, 0xda, 0x3e, 0x40, 0xa9, 0xc4, 0xbd, 0x52, 0xd0, 0x8e, 0x3e,
  0x3b, 0xe2, 0xb6, 0xbd, 0x58, 0xff, 0x53, 0x3e, 0x23, 0xf4, 0x04, 0x3f,
  0xfa, 0x7e, 0x2c, 0xbe, 0xa1, 0x44, 0x63, 0xbe, 0xaf, 0xdf, 0x58, 0xbe,
  0xe4, 0x00, 0x8c, 0x3d, 0x97, 0x7f, 0xf6, 0xbd, 0x15, 0x4a, 0xe3, 0x3e,
  0xbe, 0xe1, 0x5c, 0x3d, 0x61, 0x1d, 0xf9, 0xbe, 0x8b, 0x95, 0x63, 0x3e,
  0x29, 0xf5, 0x9d, 0x3e, 0xe9, 0x15, 0xf6, 0x3d, 0x1c, 0x1a, 0xab, 0x3d,
  0x5e, 0x81, 0x67, 0x3e, 0x00, 0x44, 0x5e, 0x3e, 0xb7, 0x69, 0x91, 0xbd,
  0x2c, 0xbb, 0xf6, 0x3c, 0x9a, 0x90, 0x2e, 0xbe, 0xb2, 0xf9, 0xcc, 0xbe,
  0x8b, 0x60, 0x9c, 0xbe, 0x79, 0xda, 0xb6, 0xbd, 0x17, 0xbb, 0x50, 0xbe,
  0x95, 0xe1, 0x36, 0xbd, 0xa0, 0x7d, 0xa7, 0xbe, 0x52, 0xd4, 0x0c, 0x3e,
  0x45, 0x55, 0x0a, 0xbe, 0x83, 0xdb, 0x2e, 0x3f, 0x79, 0xd4, 0xc1, 0xbd,
  0x2e, 0x42, 0xcf, 0x3d, 0x5a, 0xd6, 0x4d, 0x3e, 0x09, 0xaa, 0x0f, 0x3e,
  0x7e, 0x12, 0x22, 0x3c, 0xfe, 0xf5, 0x91, 0x3e, 0x7f, 0xa7, 0x9a, 0xbe,
  0x8f, 0xca, 0x9e, 0xbe, 0x9d, 0x1d, 0xdf, 0x3e, 0xcc, 0xf1, 0x6a, 0x3d,
  0x17, 0xb9, 0x82, 0x3e, 0xd7, 0xa2, 0xcf, 0x3e, 0x47, 0x3b, 0x91, 0xbd,
  0x8f, 0x58, 0x64, 0x3e, 0xa1, 0x08, 0x66, 0xbe, 0xbb, 0x47, 0x48, 0x3e,
  0xf7, 0x30, 0x80, 0xbe, 0xf8, 0x7d, 0x8f, 0x3e, 0x4d, 0xab, 0x9c, 0x3e,
  0xc2, 0x69, 0x05, 0xbe, 0xce, 0x20, 0x90, 0x3e, 0x81, 0x8e, 0x8d, 0x3e,
  0xac, 0xc8, 0x85, 0x3e, 0x31, 0xc4, 0x0e, 0xbe, 0x12, 0x26, 0x2c, 0xbd,
  0x17, 0xcc, 0x28, 0x3d, 0x24, 0x85, 0x9a, 0x3d, 0x5c, 0xf4, 0x93, 0xbe,
  0xde, 0x44, 0x63, 0x3e, 0x51, 0x97, 0x12, 0xbd, 0x12, 0xed, 0xf2, 0xbd,
  0x29, 0x73, 0x71, 0x3e, 0xef, 0xc7, 0x7c, 0xbe, 0x35, 0xca, 0xbb, 0x3e,
  0xba, 0xe9, 0x45, 0x3e, 0x90, 0xb0, 0xb8, 0xbd, 0x8d, 0xf8, 0x32, 0x3e,
  0xde, 0xd6, 0x87, 0xbd, 0x94, 0x31, 0x6c, 0xbd, 0x4d, 0x2d, 0xa5, 0xbe,
  0x5e, 0x8b, 0x65, 0xbc, 0x38, 0x4a, 0x8c, 0xbe, 0x99, 0xdf, 0xeb, 0x3e,
  0xdf, 0xe2, 0xaa, 0x3c, 0x02, 0x40, 0x2d, 0x3d, 0x5a, 0x1f, 0x9c, 0xbe,
  0xc2, 0xc9, 0x4c, 0x3e, 0x1a, 0x3a, 0xb3, 0xbd, 0x01, 0xd1, 0x03, 0x3d,
  0x08, 0x23, 0x81, 0xbe, 0x6f, 0x6c, 0xf9, 0xbd, 0xba, 0xbd, 0xbf, 0xbd,
  0x18, 0xd2, 0x5a, 0xbe, 0xb0, 0xd7, 0x2d, 0x3e, 0x62, 0xcc, 0x63, 0xbe,
  0x59, 0xbf, 0x76, 0xbd, 0x98, 0x4c, 0x7d, 0xbe, 0x85, 0x75, 0x78, 0x3e,
  0x36, 0x0d, 0xb0, 0xbe, 0xbf, 0x65, 0xa0, 0x3e, 0x2b, 0x37, 0xc8, 0x3e,
  0xc2, 0xcc, 0x06, 0x3e, 0x40, 0x73, 0xeb, 0x3e, 0xac, 0x3c, 0x4a, 0x3e,
  0x5d, 0x52, 0x37, 0xbe, 0x56, 0x44, 0x3b, 0xbe, 0x7d, 0xd5, 0xe5, 0x3d,
  0xa4, 0x92, 0x84, 0x3c, 0x5d, 0xd1, 0x96, 0x3e, 0x42, 0xd7, 0xff, 0xff,
  0x10, 0x00, 0x00, 0x00, 0x0c, 0x00, 0x00, 0x00, 0x14, 0x00, 0x00, 0x00,
  0x34, 0x00, 0x00, 0x00, 0x02, 0x00, 0x00, 0x00, 0x1e, 0x00, 0x00, 0x00,
  0x1e, 0x00, 0x00, 0x00, 0x1d, 0x00, 0x00, 0x00, 0x73, 0x65, 0x71, 0x75,
  0x65, 0x6e, 0x74, 0x69, 0x61, 0x6c, 0x5f, 0x31, 0x30, 0x2f, 0x64, 0x65,
  0x6e, 0x73, 0x65, 0x5f, 0x35, 0x33, 0x2f, 0x4d, 0x61, 0x74, 0x4d, 0x75,
  0x6c, 0x00, 0x00, 0x00, 0xd0, 0xd6, 0xff, 0xff, 0xc2, 0xd7, 0xff, 0xff,
  0x04, 0x00, 0x00, 0x00, 0x10, 0x0e, 0x00, 0x00, 0x2f, 0x6d, 0x00, 0xbd,
  0xbc, 0xe5, 0xaf, 0x3d, 0x5d, 0xe2, 0x88, 0xbe, 0x93, 0x2d, 0x8f, 0x3d,
  0x27, 0xf4, 0x3a, 0xbb, 0x09, 0xa1, 0xc1, 0x3e, 0x9a, 0xf2, 0x67, 0x3e,
  0xb7, 0x3c, 0x90, 0xbe, 0x6b, 0xea, 0xc0, 0x3d, 0x6f, 0x23, 0x6e, 0xbd,
  0x54, 0xe6, 0xa1, 0xbe, 0xd7, 0x82, 0x6c, 0x3e, 0x9b, 0xba, 0x82, 0xbc,
  0xdf, 0x7d, 0x20, 0xbe, 0x2d, 0xfd, 0x3f, 0xbd, 0xc2, 0x93, 0xc3, 0xbe,
  0x49, 0x5b, 0x80, 0x3d, 0xf0, 0xdc, 0x1e, 0xbd, 0xc0, 0xf8, 0x89, 0x3e,
  0x4c, 0x36, 0x49, 0x3e, 0x06, 0x88, 0x82, 0x3e, 0x08, 0xa2, 0xaa, 0x3e,
  0xb8, 0x7a, 0x53, 0xbe, 0x01, 0x24, 0xff, 0xbd, 0xf5, 0x56, 0xfb, 0xbe,
  0x9d, 0xd3, 0xa6, 0x3e, 0xa4, 0x3e, 0x0f, 0xbe, 0x30, 0x88, 0xb5, 0xbc,
  0xf8, 0x0a, 0x7f, 0xbd, 0x97, 0x55, 0xac, 0xbe, 0x3c, 0x8b, 0x1b, 0xbd,
  0x46, 0x19, 0xbe, 0xbe, 0xd0, 0x1f, 0x11, 0xbd, 0x41, 0xf2, 0xde, 0xbe,
  0xd4, 0x5e, 0x3c, 0x3e, 0x79, 0x63, 0xaf, 0xbe, 0x88, 0x17, 0xa7, 0x3e,
  0x89, 0xb8, 0x46, 0xbe, 0x7b, 0xfe, 0xf7, 0x3e, 0xef, 0x9b, 0x0f, 0x3e,
  0x3e, 0xc5, 0x00, 0xbd, 0xdd, 0x85, 0xe8, 0x3e, 0xf7, 0x13, 0x93, 0x3e,
  0xf0, 0x34, 0x21, 0x3e, 0xd3, 0xaf, 0x86, 0x3e, 0x5f, 0x50, 0xc1, 0x3e,
  0x24, 0xb2, 0x6e, 0xbe, 0x21, 0xf4, 0x85, 0x3e, 0xd2, 0x0a, 0x5e, 0x3e,
  0x69, 0x92, 0x85, 0x3e, 0xac, 0x8d, 0x2c, 0xbe, 0x71, 0x8f, 0x47, 0xbd,
  0x28, 0x95, 0x95, 0x3d, 0x68, 0x8d, 0xcd, 0xbe, 0x05, 0x47, 0x9f, 0x3e,
  0xaf, 0xe0, 0x89, 0x3e, 0xb8, 0x17, 0xc5, 0x3d, 0x96, 0x76, 0xc5, 0x3e,
  0x26, 0x26, 0xd1, 0xbd, 0x45, 0x9c, 0xad, 0xbe, 0x78, 0x89, 0x09, 0x3e,
  0xb8, 0x55, 0x3f, 0xbd, 0x68, 0xd9, 0x9a, 0xbe, 0x70, 0x8e, 0xbe, 0x3e,
  0x75, 0x82, 0x99, 0x3e, 0x57, 0x67, 0xa7, 0x3d, 0x17, 0x91, 0x93, 0x3d,
  0x40, 0x3f, 0xf4, 0xbe, 0x52, 0x34, 0x03, 0xbc, 0x16, 0x54, 0x16, 0x3d,
  0x80, 0xed, 0xaa, 0x3e, 0x58, 0xc8, 0xe6, 0x3e, 0x26, 0xc4, 0xc2, 0xbe,
  0xa0, 0x1a, 0xac, 0x3e, 0xe7, 0x6f, 0x2c, 0xbe, 0x35, 0x88, 0xe4, 0xbe,
  0xb7, 0x9d, 0xb3, 0xbe, 0xce, 0x79, 0x72, 0x3e, 0x13, 0x4c, 0xcb, 0xbe,
  0x21, 0x1c, 0xf2, 0xbd, 0x42, 0x34, 0xa5, 0xbe, 0x87, 0x7f, 0x85, 0x3e,
  0xd2, 0x41, 0xb7, 0xbd, 0xd8, 0xa0, 0x04, 0x3e, 0x8b, 0x7e, 0x28, 0xbe,
  0x09, 0x04, 0xf5, 0x3a, 0x86, 0x5b, 0x9f, 0xbe, 0x4a, 0x9b, 0x84, 0xbd,
  0x58, 0xa0, 0x6e, 0x3d, 0x3e, 0x2f, 0xfa, 0x3d, 0x94, 0xb3, 0xd0, 0xbc,
  0xda, 0xda, 0x90, 0x3e, 0xc4, 0x44, 0xa2, 0x3e, 0x20, 0x93, 0x71, 0xbe,
  0x7b, 0x08, 0xb2, 0x3d, 0xe5, 0xc3, 0x7d, 0xbd, 0x81, 0xb8, 0xb3, 0x3e,
  0x9f, 0x70, 0xe5, 0x3e, 0x68, 0x47, 0x97, 0x3e, 0x44, 0x57, 0x2e, 0x3e,
  0x30, 0x54, 0x88, 0xbe, 0xa1, 0x1f, 0xa6, 0xbd, 0x39, 0x25, 0x8d, 0x3e,
  0xdf, 0xe3, 0x95, 0xbe, 0xab, 0x36, 0x90, 0xbe, 0x19, 0x66, 0x9b, 0xbe,
  0x3c, 0xca, 0xf1, 0x3d, 0x74, 0x98, 0xa0, 0xbd, 0x67, 0xd6, 0x89, 0xbe,
  0x1d, 0x5a, 0xe0, 0x3d, 0x7c, 0x95, 0xe6, 0x3d, 0x7c, 0x16, 0x4c, 0x3e,
  0x4d, 0x32, 0x27, 0x3d, 0x15, 0xa9, 0x96, 0x3e, 0xf3, 0xc2, 0xea, 0x3e,
  0x5b, 0x56, 0xe3, 0x3e, 0x0a, 0x2d, 0x58, 0xbe, 0xbc, 0xb9, 0x1d, 0xbe,
  0x8f, 0x91, 0x1d, 0x3d, 0x97, 0x0d, 0x92, 0xbd, 0xb6, 0x3c, 0x64, 0xbe,
  0x11, 0x84, 0x8a, 0x3e, 0x05, 0x03, 0xe4, 0x3d, 0xba, 0x5c, 0x98, 0xbc,
  0x08, 0xc5, 0x91, 0x3e, 0xbc, 0x90, 0x98, 0xbd, 0x83, 0x6f, 0x86, 0x3e,
  0x29, 0x7b, 0x69, 0xbe, 0x04, 0xe9, 0x92, 0xbe, 0x88, 0x67, 0x7c, 0x3e,
  0x0e, 0x69, 0xee, 0xbb, 0xdb, 0x60, 0x67, 0xbe, 0xc2, 0x2e, 0x71, 0xbe,
  0xab, 0xf2, 0x5d, 0xbe, 0xa1, 0x1c, 0x93, 0x3e, 0x75, 0x6d, 0x6d, 0x3e,
  0x25, 0x40, 0x8d, 0xbe, 0x84, 0xaa, 0x92, 0x3e, 0x52, 0x74, 0x82, 0xbe,
  0x4c, 0x7c, 0x1b, 0x3e, 0xe6, 0x97, 0x8a, 0xbe, 0x55, 0x8c, 0x91, 0xbb,
  0x4c, 0x80, 0x7a, 0x3e, 0x64, 0x7a, 0x1e, 0xbe, 0x5d, 0x17, 0x10, 0x3e,
  0xb2, 0xed, 0x60, 0xbe, 0x41, 0x95, 0x80, 0x3e, 0x0b, 0x64, 0x45, 0x3e,
  0xfa, 0xe4, 0x8c, 0x3e, 0x4a, 0x82, 0xb2, 0x3c, 0x67, 0xb1, 0x73, 0x3e,
  0xca, 0x1a, 0x79, 0x3e, 0x91, 0x5a, 0x03, 0x3b, 0xfa, 0x59, 0x38, 0x3e,
  0x57, 0x08, 0x06, 0xbe, 0xa2, 0x0f, 0x75, 0x3e, 0x00, 0x3b, 0x92, 0xbb,
  0x89, 0x61, 0x90, 0x3e, 0x35, 0xd6, 0x7d, 0xbe, 0x13, 0x9e, 0x3d, 0x3e,
  0x34, 0x2a, 0x41, 0x3e, 0xbb, 0x5b, 0x02, 0x3e, 0xf4, 0xae, 0x81, 0xbe,
  0xc1, 0x59, 0x82, 0xbd, 0x85, 0xdd, 0x94, 0xbe, 0xd8, 0x5a, 0x51, 0x3d,
  0x30, 0x4c, 0x81, 0x3e, 0xf8, 0x6d, 0x7e, 0x3e, 0x43, 0x98, 0xa9, 0xbe,
  0xef, 0xd9, 0x01, 0x3e, 0xf9, 0x8d, 0x7c, 0xbe, 0x84, 0xa5, 0x04, 0xbe,
  0x54, 0x89, 0xa2, 0xbe, 0xdf, 0xd7, 0x8f, 0x3e, 0x60, 0xd5, 0xbc, 0xbe,
  0xc1, 0xb6, 0xa0, 0x3e, 0xdb, 0xbf, 0xc8, 0x3b, 0xe4, 0xa2, 0xb0, 0x3d,
  0x80, 0x9a, 0x80, 0x3e, 0x59, 0xde, 0x27, 0x3e, 0x61, 0xe6, 0x57, 0x3d,
  0xf9, 0x96, 0x26, 0xbe, 0x6e, 0x6e, 0x99, 0xbe, 0xc2, 0xe9, 0x66, 0xbe,
  0xaf, 0xe0, 0x0b, 0xbe, 0x78, 0x42, 0x22, 0x3c, 0x1b, 0x66, 0xca, 0x3c,
  0x64, 0x85, 0xef, 0xbc, 0xb0, 0x5a, 0xb3, 0xbe, 0xa5, 0xc1, 0xa0, 0x3e,
  0x90, 0x47, 0x77, 0xbd, 0x3e, 0x07, 0x08, 0xbd, 0xc3, 0x1c, 0x2c, 0x3e,
  0x77, 0x7d, 0x2b, 0xbd, 0x6d, 0xd9, 0x8b, 0xbe, 0x3b, 0xc2, 0x8a, 0x3e,
  0xad, 0x8e, 0x06, 0xbc, 0x88, 0x72, 0x91, 0xbe, 0x98, 0xad, 0xd4, 0x3d,
  0x39, 0x4d, 0xff, 0x3d, 0xaf, 0xf2, 0xf8, 0xbd, 0x26, 0x87, 0xde, 0xba,
  0x91, 0x61, 0xc4, 0xbd, 0xf4, 0x3c, 0x7e, 0xbe, 0x77, 0x2b, 0x39, 0x3d,
  0xa3, 0x1d, 0x58, 0x3d, 0xf3, 0x2f, 0xc0, 0x3d, 0x55, 0x27, 0x1b, 0x3e,
  0x8c, 0xbb, 0xde, 0x3d, 0x94, 0x9e, 0x1b, 0xbb, 0x56, 0x95, 0x4a, 0x3e,
  0xaf, 0x09, 0x7c, 0xbe, 0x61, 0xbd, 0x06, 0xbe, 0x92, 0x74, 0xc9, 0x3b,
  0xfa, 0x4a, 0x9a, 0x3e, 0x89, 0x80, 0x32, 0x3e, 0x55, 0x10, 0x6b, 0x3d,
  0x8f, 0x90, 0x60, 0xbd, 0x05, 0x59, 0xa2, 0x3e, 0x7f, 0x53, 0xb1, 0xbd,
  0x94, 0x25, 0x9b, 0xbe, 0x99, 0x61, 0xda, 0xbc, 0x43, 0x56, 0x8b, 0xbe,
  0x19, 0x20, 0xb1, 0xbe, 0x31, 0xc8, 0x5a, 0x3e, 0xc8, 0xae, 0x65, 0xbc,
  0x51, 0x59, 0x12, 0xbe, 0x3c, 0x77, 0xc1, 0xbd, 0xfb, 0x50, 0xb3, 0x3e,
  0x65, 0x40, 0x58, 0x3e, 0x5d, 0x5a, 0x8f, 0xbe, 0xc9, 0x9f, 0xf8, 0xbd,
  0xfe, 0x21, 0x43, 0xbe, 0x85, 0x3c, 0x20, 0xbe, 0x45, 0xa1, 0xa5, 0xbd,
  0x86, 0x34, 0xc0, 0x3e, 0xa3, 0x68, 0xc8, 0xbd, 0x08, 0x3b, 0xb5, 0x3d,
  0x05, 0x9c, 0x92, 0xbe, 0xc0, 0x16, 0xa1, 0xbd, 0x7d, 0xe6, 0x8f, 0xbe,
  0xe5, 0x8d, 0xc5, 0x3d, 0x56, 0xd1, 0xb5, 0x3d, 0x61, 0xd0, 0xac, 0x3e,
  0xb6, 0x10, 0x30, 0x3d, 0xa7, 0x21, 0x32, 0xbe, 0x9f, 0x19, 0x50, 0x3e,
  0x23, 0xac, 0x71, 0xbd, 0x2d, 0x1b, 0x95, 0xbe, 0x0d, 0xca, 0x74, 0xbd,
  0x34, 0x6e, 0x41, 0x3e, 0x97, 0x03, 0x7f, 0x3c, 0x0e, 0x76, 0x22, 0x3e,
  0xde, 0xdd, 0x17, 0xbe, 0xa0, 0xd4, 0xb8, 0x3e, 0xb1, 0x43, 0x81, 0x3d,
  0x61, 0xe0, 0x09, 0xbe, 0x3a, 0xbc, 0x99, 0xbe, 0xa6, 0x3c, 0xa1, 0xbe,
  0x06, 0x55, 0x1e, 0x3e, 0x24, 0x95, 0x66, 0xbd, 0x69, 0x14, 0x2c, 0x3d,
  0x11, 0x19, 0x47, 0xbe, 0x04, 0x45, 0xb0, 0xbd, 0x2a, 0xec, 0x50, 0x3e,
  0xdb, 0x92, 0x94, 0xbe, 0xaa, 0xf8, 0x90, 0x3e, 0x79, 0x05, 0x9a, 0xbe,
  0xee, 0x53, 0x94, 0x3e, 0x6a, 0x5f, 0x8a, 0x3d, 0x3a, 0x4d, 0xaa, 0x3d,
  0x8f, 0x77, 0xd1, 0x3d, 0x1f, 0x7d, 0x87, 0x3d, 0xa0, 0x1b, 0x1b, 0x3f,
  0x9a, 0x70, 0x4b, 0x3e, 0xc6, 0xd5, 0x93, 0x3e, 0x44, 0x3f, 0x4a, 0x3d,
  0xc8, 0xce, 0x80, 0xbe, 0x9d, 0x0a, 0x8f, 0xbe, 0xb9, 0xd4, 0xd3, 0x3c,
  0xec, 0x79, 0xa1, 0x3e, 0xa3, 0xff, 0x94, 0x3d, 0xa3, 0x4a, 0x7d, 0x3e,
  0x44, 0x88, 0x8c, 0x3e, 0xc0, 0x43, 0xa7, 0x3e, 0x23, 0x7d, 0x87, 0xbe,
  0xf2, 0x21, 0xb8, 0xbe, 0x25, 0xd9, 0x8b, 0xbe, 0x81, 0xb0, 0xdf, 0xbe,
  0x5d, 0xe1, 0x73, 0xbe, 0x36, 0x33, 0x0f, 0xbe, 0xe9, 0x44, 0xa7, 0x3d,
  0xc2, 0xf3, 0x22, 0xbd, 0xe6, 0xc5, 0x88, 0xbe, 0xb3, 0xd1, 0x34, 0xbc,
  0xae, 0xcb, 0xbe, 0x3e, 0x62, 0x92, 0x1e, 0x3e, 0x34, 0x9f, 0x74, 0x3d,
  0x0d, 0xce, 0x11, 0xbe, 0x5e, 0xfc, 0xc3, 0xbd, 0xf6, 0x31, 0x3d, 0x3e,
  0x85, 0xbf, 0x29, 0x3e, 0x86, 0xe8, 0x59, 0x3e, 0x47, 0xd1, 0x20, 0x3e,
  0x88, 0xa3, 0x70, 0x3e, 0x27, 0xbc, 0xc8, 0x3d, 0xf9, 0xf4, 0x08, 0xbe,
  0xf8, 0xd4, 0x53, 0xbe, 0xbd, 0x27, 0x7a, 0xbd, 0xf9, 0xc5, 0x86, 0xbe,
  0xa6, 0xc2, 0xac, 0xbd, 0x9a, 0x41, 0x35, 0xbe, 0x57, 0x8f, 0xfe, 0x3d,
  0xc1, 0x97, 0x59, 0xbe, 0x3c, 0xd4, 0x60, 0xbe, 0x69, 0xdb, 0xdf, 0x3c,
  0x86, 0x14, 0x84, 0x3d, 0x7d, 0x23, 0xe5, 0x3d, 0xd4, 0x82, 0x80, 0x3e,
  0xa7, 0xef, 0x95, 0x3e, 0x9b, 0xab, 0x46, 0xbe, 0x87, 0x14, 0x4b, 0x3e,
  0xc5, 0x2b, 0x78, 0xbe, 0x1a, 0x38, 0xc7, 0xbd, 0x01, 0x9b, 0xb1, 0x3d,
  0x3d, 0xf3, 0x8c, 0xbe, 0x7a, 0xe6, 0x8b, 0xbd, 0x88, 0xcf, 0xeb, 0xbd,
  0x30, 0xa7, 0xe9, 0x3b, 0x13, 0x4c, 0x66, 0x3e, 0x97, 0x98, 0x80, 0x3c,
  0x58, 0xa2, 0x0d, 0x3e, 0x7d, 0x58, 0x8f, 0xbd, 0xcb, 0xfa, 0xa8, 0x3e,
  0x71, 0x43, 0x94, 0xbe, 0xad, 0xa9, 0x80, 0x3e, 0x12, 0x22, 0x71, 0xbd,
  0x58, 0xfb, 0x38, 0x3e, 0xe2, 0x2e, 0x42, 0xbe, 0xcc, 0xb8, 0xc2, 0x3e,
  0x07, 0x2f, 0x97, 0x3e, 0xe0, 0x6b, 0x41, 0xbd, 0x00, 0xde, 0xa6, 0xbe,
  0x92, 0x07, 0x6a, 0xbe, 0x92, 0xcc, 0x5d, 0xbe, 0x10, 0x38, 0xa4, 0xbe,
  0xd7, 0xc4, 0xb3, 0xbd, 0xf8, 0x03, 0xee, 0xbd, 0x8e, 0xb6, 0xc1, 0xbe,
  0x65, 0x5f, 0x4b, 0x3e, 0x54, 0x1e, 0x20, 0xbe, 0x75, 0xa0, 0xa8, 0x3d,
  0x56, 0xf7, 0xd3, 0x3d, 0x05, 0x5d, 0x71, 0x3c, 0x87, 0x0e, 0xb1, 0x3d,
  0xbe, 0x86, 0x82, 0x3e, 0x97, 0xd3, 0x49, 0x3e, 0xe7, 0x6c, 0x94, 0x3e,
  0x48, 0x99, 0xb8, 0xbd, 0x01, 0xfb, 0x22, 0x3e, 0xa9, 0xef, 0xe9, 0xbc,
  0xcf, 0x45, 0x41, 0xbc, 0xba, 0x07, 0x81, 0x3e, 0x0d, 0xbf, 0x53, 0x3d,
  0xea, 0x87, 0x94, 0xbe, 0x90, 0x58, 0x9e, 0xbd, 0x10, 0xbd, 0x12, 0xbe,
  0x9a, 0xf0, 0x3c, 0xbe, 0x76, 0x22, 0x24, 0x3d, 0x86, 0x4b, 0xb8, 0xbe,
  0xa9, 0x60, 0xed, 0x3e, 0xf8, 0x99, 0xeb, 0x3e, 0x2c, 0x16, 0xa1, 0x3e,
  0x35, 0xe8, 0x3b, 0xbd, 0x9b, 0xc0, 0x1d, 0xbe, 0x3d, 0x3f, 0x6d, 0xbe,
  0xee, 0x35, 0x49, 0xbe, 0xb7, 0x41, 0x3f, 0xbd, 0x78, 0x77, 0x22, 0x3e,
  0xda, 0x19, 0x90, 0x3e, 0x76, 0xc7, 0xa1, 0x3e, 0xe9, 0xd9, 0xa1, 0xbe,
  0x4e, 0x7d, 0xbf, 0xbd, 0x51, 0xe7, 0x3b, 0x3e, 0xe1, 0xb7, 0xbd, 0x3e,
  0xc4, 0x06, 0x33, 0x3b, 0x6b, 0xfc, 0xd4, 0x3d, 0xe4, 0x3c, 0x99, 0x3e,
  0xf4, 0xf3, 0x81, 0xbe, 0x47, 0x8b, 0xf6, 0xbd, 0xfc, 0xca, 0xb5, 0x3d,
  0xf6, 0xc0, 0x96, 0xbe, 0x88, 0xfb, 0x4a, 0x3e, 0x62, 0xc8, 0x34, 0x3e,
  0x5e, 0x5f, 0x3a, 0xbe, 0x7f, 0x2e, 0x87, 0x3e, 0xf1, 0xe4, 0x91, 0x3d,
  0x2c, 0x75, 0xb6, 0xbb, 0x04, 0x2b, 0x89, 0xbd, 0xa7, 0x6c, 0xdc, 0xbd,
  0xfd, 0xd3, 0x76, 0x3e, 0xf9, 0xe1, 0xcf, 0x3d, 0x5c, 0x48, 0xfb, 0xbd,
  0xcc, 0x20, 0xc1, 0x3d, 0xfe, 0xb0, 0x9c, 0x3e, 0x48, 0xfe, 0xd1, 0xbd,
  0x38, 0xe6, 0x11, 0x3e, 0x68, 0xec, 0x90, 0x3c, 0xe4, 0xa8, 0xbb, 0xbd,
  0xd0, 0x5f, 0x0a, 0x3d, 0xf5, 0xd3, 0x43, 0xbe, 0x48, 0x98, 0x08, 0xbd,
  0x8f, 0x43, 0x6b, 0xbe, 0xcd, 0xef, 0xa7, 0x3e, 0x52, 0x03, 0x51, 0xbe,
  0x73, 0x52, 0xa9, 0xbe, 0x66, 0x6e, 0x40, 0xbe, 0x20, 0x32, 0x99, 0x3e,
  0x58, 0xa0, 0x60, 0xbe, 0x81, 0xa3, 0x90, 0x3e, 0x1b, 0x49, 0x89, 0x3e,
  0x78, 0xf5, 0xc6, 0x3c, 0xd1, 0xf6, 0x03, 0x3e, 0x24, 0x27, 0xdb, 0x3d,
  0x39, 0x87, 0x1b, 0xbe, 0xca, 0xbe, 0x32, 0xbe, 0xde, 0x5c, 0x78, 0xbe,
  0xa2, 0xda, 0xe2, 0xbc, 0xb2, 0x45, 0xac, 0xbe, 0x85, 0x21, 0x0f, 0x3b,
  0xe6, 0x46, 0x96, 0xbe, 0x40, 0xf5, 0xd8, 0xbc, 0xd3, 0xeb, 0x08, 0xbd,
  0x38, 0x43, 0xc1, 0x3e, 0xd6, 0x64, 0x3a, 0x3d, 0x33, 0x4f, 0xdd, 0x3e,
  0x3a, 0xb7, 0x96, 0x3e, 0xaa, 0x44, 0x96, 0xbd, 0x5e, 0x3e, 0x90, 0xbd,
  0x2a, 0x55, 0x51, 0xbe, 0x98, 0x05, 0x87, 0x3e, 0xac, 0x74, 0x3a, 0xbe,
  0x88, 0x9e, 0x0b, 0xbe, 0x10, 0xde, 0x55, 0xbe, 0xfd, 0xee, 0x3a, 0xbd,
  0x7c, 0x68, 0xeb, 0xbd, 0x92, 0x4e, 0x58, 0xbe, 0xa4, 0x40, 0xd8, 0xbd,
  0x42, 0xd8, 0x86, 0x3e, 0x09, 0x5e, 0xaf, 0xbc, 0xa1, 0x13, 0x3c, 0x3e,
  0xe2, 0x26, 0x8b, 0xbe, 0x67, 0xfe, 0x2a, 0xbd, 0x9d, 0x20, 0x4b, 0x3e,
  0xcb, 0x02, 0x9d, 0xbe, 0x00, 0x04, 0x9d, 0xbe, 0x6d, 0xea, 0xba, 0x3e,
  0x66, 0xeb, 0xb7, 0xbd, 0x2f, 0xfd, 0x49, 0x3e, 0x12, 0x2b, 0x48, 0x3e,
  0x4a, 0xce, 0xd2, 0xbb, 0xdc, 0x8e, 0x95, 0xbe, 0x86, 0x06, 0x4b, 0xbe,
  0x87, 0xee, 0xd0, 0x3d, 0xe7, 0x25, 0x85, 0xbd, 0x97, 0xd5, 0xba, 0xbe,
  0x23, 0x67, 0x6d, 0x3b, 0xb7, 0x96, 0xba, 0x3c, 0x3f, 0x46, 0xa5, 0x3e,
  0xd0, 0xd8, 0x08, 0xbe, 0xed, 0xfe, 0xc4, 0xbd, 0xb9, 0xfc, 0x79, 0x3e,
  0x1a, 0x06, 0x63, 0x3e, 0x20, 0xa6, 0x6d, 0x3e, 0x07, 0x2c, 0xfd, 0x3e,
  0x27, 0xc3, 0x11, 0x3c, 0xb2, 0xe2, 0x36, 0x3e, 0xfd, 0x37, 0xbe, 0x3d,
  0xd7, 0x53, 0x82, 0xbe, 0x94, 0xe2, 0x99, 0x3e, 0x76, 0x6d, 0x41, 0x3e,
  0x8d, 0x6c, 0x5c, 0x3e, 0x40, 0xfe, 0xb5, 0x3d, 0x93, 0xd4, 0xfd, 0x3c,
  0x74, 0xbc, 0xbc, 0x3c, 0x9a, 0x39, 0x3f, 0xbe, 0xf5, 0x42, 0x18, 0xbe,
  0x5b, 0x99, 0xf5, 0xbd, 0x90, 0x3d, 0x6f, 0xbe, 0xd1, 0x04, 0x2a, 0x3e,
  0xe3, 0x8e, 0x86, 0xbe, 0x59, 0xd9, 0xd5, 0xbd, 0xb8, 0x63, 0x7f, 0x3e,
  0xdb, 0xa9, 0x07, 0xbe, 0x9f, 0x99, 0xe9, 0x3d, 0x07, 0x5a, 0x9e, 0xbe,
  0xeb, 0x4e, 0x85, 0xbe, 0xe9, 0x43, 0x90, 0xbe, 0x7e, 0xd8, 0x35, 0xbd,
  0x5e, 0x7f, 0xa2, 0x3e, 0xed, 0xb9, 0x5e, 0x3e, 0x97, 0xc2, 0x2a, 0xbe,
  0xd4, 0x8d, 0x35, 0xbe, 0xa8, 0xe5, 0x35, 0xbe, 0x2b, 0x31, 0x0a, 0xbe,
  0x63, 0xa4, 0x89, 0x3e, 0x65, 0xe0, 0xd5, 0xbd, 0x78, 0x35, 0x67, 0x3d,
  0x13, 0xf5, 0x92, 0x3e, 0x63, 0x7f, 0x2a, 0xbe, 0xb1, 0x58, 0x9e, 0x3e,
  0xb0, 0x8a, 0x4c, 0x3d, 0xc3, 0xe3, 0xe9, 0x3d, 0x67, 0xcd, 0x9c, 0xbd,
  0x43, 0x2b, 0x4c, 0xbe, 0xe1, 0xae, 0xc4, 0x3d, 0x5b, 0xa0, 0xc7, 0x3d,
  0x42, 0x7f, 0xb1, 0xbe, 0x3d, 0x28, 0xb6, 0x3d, 0x84, 0x3a, 0xa1, 0xbe,
  0xe7, 0x55, 0x8e, 0x39, 0x2f, 0x28, 0x5a, 0x3e, 0x13, 0x17, 0x84, 0x3e,
  0x12, 0xc0, 0x42, 0x3e, 0xa9, 0x4c, 0xb7, 0x3e, 0xb6, 0x82, 0x48, 0xbe,
  0x22, 0xc6, 0x96, 0xbd, 0x13, 0x5f, 0x2d, 0x3e, 0x8e, 0xbf, 0xff, 0xbd,
  0x8e, 0x5e, 0x18, 0xbe, 0x9d, 0x32, 0x24, 0x3e, 0xfc, 0x2a, 0x39, 0x3e,
  0xf2, 0xf3, 0xbb, 0x3d, 0x9d, 0xe6, 0x6e, 0xbe, 0xa1, 0xe4, 0x60, 0xbe,
  0x38, 0x9b, 0x1b, 0xbe, 0xb2, 0xd0, 0x63, 0x3e, 0x74, 0xae, 0x8e, 0x3e,
  0x8d, 0x15, 0xd7, 0xbc, 0x97, 0x19, 0x82, 0xbe, 0x62, 0x19, 0x4c, 0x3e,
  0x56, 0xc5, 0xd2, 0xbd, 0xd8, 0xae, 0x7b, 0x3e, 0x56, 0x26, 0xb3, 0xbd,
  0xf0, 0x3d, 0x1c, 0xbe, 0x4e, 0x7c, 0x4e, 0x3e, 0xe6, 0x34, 0xaf, 0xbd,
  0x53, 0x88, 0x18, 0xbd, 0x57, 0xec, 0xaa, 0x3c, 0xca, 0xa3, 0x99, 0xbe,
  0x94, 0x68, 0x34, 0xbe, 0x24, 0xef, 0xa0, 0x3e, 0x76, 0x61, 0x7f, 0xbd,
  0x71, 0x32, 0x58, 0xbe, 0xc7, 0x08, 0x57, 0xbe, 0x66, 0xd1, 0x48, 0xbe,
  0x95, 0xbc, 0xc6, 0xbd, 0x84, 0x72, 0xde, 0x3d, 0x1f, 0x40, 0xf2, 0xbd,
  0x0e, 0x17, 0x0b, 0x3e, 0x4c, 0xd9, 0x23, 0xbe, 0xda, 0x00, 0x3a, 0xbd,
  0xff, 0x1e, 0x0f, 0x3e, 0x4a, 0x4a, 0x66, 0xbe, 0xbe, 0x2a, 0x04, 0xbe,
  0xad, 0x6a, 0xf9, 0xbd, 0x06, 0xc5, 0x6a, 0x3e, 0x7f, 0x10, 0x69, 0x3d,
  0x6c, 0x27, 0x4f, 0x3e, 0x40, 0xb5, 0x4a, 0x3e, 0x34, 0x84, 0xa9, 0x3e,
  0xfe, 0xa8, 0x25, 0xbe, 0x53, 0xf2, 0xd7, 0xbc, 0xff, 0x3a, 0xf1, 0x3e,
  0xed, 0x32, 0x97, 0x3d, 0xbd, 0xb2, 0xbb, 0x3e, 0x92, 0x1f, 0x15, 0xbe,
  0xc7, 0x4b, 0x38, 0x3e, 0x79, 0xc3, 0x59, 0x3e, 0x34, 0xfb, 0x8d, 0xbe,
  0x43, 0xc3, 0x80, 0xbe, 0x65, 0x99, 0xc1, 0x3e, 0xb9, 0xd2, 0xc2, 0xbe,
  0xd8, 0xca, 0x21, 0xbd, 0xf8, 0xd9, 0xc7, 0x3e, 0xb4, 0x1e, 0xc1, 0x3e,
  0x51, 0x91, 0x98, 0xbe, 0xe4, 0x06, 0x19, 0x3e, 0xce, 0x38, 0x95, 0xbe,
  0x95, 0xc2, 0x19, 0xbe, 0xe9, 0xa5, 0x91, 0x3e, 0xb7, 0x53, 0x8a, 0xbe,
  0x53, 0x9d, 0x91, 0xbe, 0xed, 0x59, 0xa9, 0x3a, 0x8f, 0xfd, 0xdd, 0xbe,
  0xb7, 0xb6, 0xb9, 0x3d, 0xbe, 0x0b, 0x9e, 0xbe, 0x7c, 0x7f, 0xb0, 0x3e,
  0xd7, 0xdf, 0x86, 0x3d, 0x6b, 0x85, 0xab, 0xbe, 0x7a, 0x17, 0x43, 0x3e,
  0x4c, 0x84, 0xb7, 0x3c, 0x71, 0x54, 0xae, 0x3d, 0x91, 0xbe, 0xd5, 0xbe,
  0x16, 0x58, 0x21, 0xbe, 0x28, 0x2b, 0x01, 0x3e, 0xfe, 0x0c, 0xeb, 0x3d,
  0x10, 0x0e, 0x01, 0x3f, 0xea, 0x4e, 0x9b, 0x3e, 0xd0, 0xad, 0x31, 0xbe,
  0x09, 0xde, 0x9b, 0xbe, 0xcf, 0xc3, 0x12, 0xbe, 0xb1, 0x5f, 0x83, 0x3e,
  0x23, 0x1b, 0xfe, 0x3d, 0x60, 0xc0, 0x98, 0xbe, 0xe2, 0x45, 0x45, 0x3e,
  0xce, 0x78, 0x89, 0x3e, 0xcc, 0xee, 0x73, 0x3e, 0xf6, 0xf0, 0xb8, 0x3e,
  0x69, 0xe3, 0x89, 0xbe, 0xe9, 0xef, 0x5a, 0xbe, 0x88, 0x78, 0x3d, 0x3e,
  0x4e, 0x82, 0xbc, 0xbd, 0xbf, 0x88, 0x53, 0xbe, 0x68, 0xff, 0xd3, 0x3e,
  0x46, 0xa5, 0x8c, 0x3e, 0xcc, 0x44, 0xa0, 0xbe, 0x5d, 0xa5, 0x9a, 0xbe,
  0x38, 0xc3, 0x0a, 0x3e, 0x55, 0x2f, 0x09, 0xbd, 0xef, 0xb2, 0x30, 0xbe,
  0xbf, 0x05, 0x60, 0x3d, 0x8a, 0xac, 0xd9, 0x3d, 0x6c, 0x4f, 0x82, 0x3e,
  0xbe, 0x9d, 0x21, 0x3e, 0xa2, 0x46, 0x13, 0x3e, 0xa7, 0x04, 0xa9, 0xbe,
  0xef, 0x8c, 0x3b, 0xbe, 0x29, 0x80, 0xf1, 0xbd, 0xee, 0x20, 0x4f, 0xbe,
  0xce, 0xd3, 0x35, 0xbb, 0xad, 0xbe, 0x80, 0xbe, 0x9f, 0x7d, 0xf5, 0xbd,
  0xa4, 0x63, 0xd4, 0x3e, 0x57, 0x9b, 0x95, 0x3e, 0xd7, 0x4b, 0xa6, 0x3c,
  0xcf, 0xe2, 0xf9, 0x3d, 0x14, 0xf4, 0xa6, 0xbd, 0x45, 0xbd, 0x38, 0x3e,
  0x33, 0xf1, 0xf6, 0x3d, 0x17, 0x8f, 0x53, 0x3e, 0xa1, 0xac, 0x9a, 0xbe,
  0x71, 0x5f, 0x9c, 0x3e, 0xf9, 0x6b, 0x52, 0x3e, 0x27, 0x3a, 0x66, 0xbd,
  0x61, 0xd8, 0x86, 0xbe, 0x19, 0x07, 0x69, 0x3e, 0x8f, 0x40, 0x80, 0x3c,
  0xe4, 0xdb, 0x45, 0x3e, 0x03, 0xb9, 0xac, 0x3e, 0x5b, 0x15, 0x59, 0x3e,
  0xda, 0xba, 0x67, 0xbe, 0x7a, 0x6e, 0xf0, 0xbd, 0xad, 0x30, 0x24, 0xbe,
  0x96, 0xfc, 0x70, 0xbe, 0xb2, 0x96, 0x9a, 0xbe, 0x12, 0xb4, 0x25, 0xbd,
  0x50, 0xfe, 0x7e, 0xbe, 0xb8, 0x4c, 0xaf, 0x3d, 0x6f, 0x36, 0x87, 0xbe,
  0x53, 0xbd, 0x9c, 0x3d, 0x87, 0x45, 0x73, 0xbe, 0x9c, 0x06, 0x97, 0xbe,
  0xd5, 0xf2, 0x16, 0x3e, 0xf6, 0x2c, 0x87, 0x3c, 0x69, 0xb8, 0x8e, 0xbe,
  0x8c, 0x12, 0x0f, 0xbe, 0x7e, 0x10, 0xbb, 0x3d, 0x03, 0x5c, 0xa8, 0x3c,
  0x06, 0x76, 0x39, 0xbe, 0x4e, 0x7a, 0x45, 0x3e, 0xf5, 0x15, 0x93, 0xbe,
  0x8a, 0x6d, 0x0e, 0x3e, 0x33, 0xa8, 0x39, 0xbd, 0x67, 0x02, 0xb3, 0x3e,
  0x33, 0xc5, 0xea, 0xbd, 0x9c, 0x0f, 0x3a, 0x3e, 0xae, 0xca, 0xa8, 0x3d,
  0xc7, 0x9d, 0xaf, 0xbd, 0x49, 0x0d, 0x5b, 0x3e, 0x52, 0x18, 0x79, 0x3e,
  0xb7, 0x34, 0x28, 0x3e, 0xe6, 0x42, 0x28, 0x3e, 0x0b, 0x91, 0xdb, 0xbd,
  0x61, 0x27, 0x23, 0xbe, 0xeb, 0xed, 0x8b, 0x3d, 0xe5, 0x86, 0x1a, 0xbe,
  0xc8, 0x92, 0x55, 0x3d, 0xea, 0x0e, 0xc5, 0x3d, 0xf6, 0x8d, 0x95, 0x3e,
  0x6c, 0xad, 0x1e, 0x3e, 0xd8, 0x59, 0xbe, 0xbe, 0x10, 0x62, 0x2c, 0xbd,
  0xb2, 0x00, 0x37, 0xbe, 0xac, 0xa6, 0xb3, 0x3d, 0x1a, 0x39, 0x47, 0xbd,
  0x8f, 0xb3, 0x9c, 0x3c, 0x47, 0x06, 0x97, 0x3d, 0x9d, 0xba, 0xa2, 0xbe,
  0x4e, 0xae, 0x58, 0xbd, 0xd2, 0xbd, 0xa7, 0xbe, 0xec, 0xa4, 0x63, 0xbe,
  0x16, 0x19, 0xa4, 0x3e, 0xc5, 0x70, 0xf5, 0xbd, 0xe3, 0xee, 0xf9, 0x3e,
  0x8f, 0xce, 0x9c, 0x3e, 0xeb, 0x14, 0x82, 0xbd, 0x23, 0xc8, 0x3d, 0xbe,
  0xf5, 0x86, 0x51, 0x3e, 0x6b, 0x56, 0x8c, 0x3e, 0x7c, 0xf9, 0xad, 0x3e,
  0xa0, 0x4e, 0xcb, 0x3d, 0x0d, 0x56, 0xa6, 0x3e, 0xaf, 0x34, 0x0f, 0x3f,
  0xea, 0xf7, 0x82, 0xbe, 0x25, 0x76, 0xa5, 0x3e, 0xfd, 0x70, 0x92, 0xbd,
  0xdf, 0xee, 0x4d, 0xbe, 0xed, 0xb4, 0x8d, 0xbe, 0x84, 0xe7, 0xf2, 0xbc,
  0x1f, 0x83, 0x84, 0xbe, 0x76, 0x3a, 0xe8, 0x3e, 0xe5, 0x48, 0x07, 0x3e,
  0xda, 0x6e, 0xf7, 0x3d, 0x41, 0xa3, 0x87, 0x3c, 0x7b, 0x89, 0x1f, 0xbd,
  0xb2, 0x94, 0x63, 0xbe, 0x88, 0xbd, 0x72, 0x3d, 0x04, 0x82, 0x8d, 0xbe,
  0x48, 0x07, 0x6d, 0x3e, 0x8d, 0xaa, 0x4d, 0x3d, 0x59, 0xf6, 0xfa, 0xbd,
  0xc2, 0x83, 0x89, 0xbe, 0xa0, 0x57, 0x18, 0xbe, 0x19, 0x19, 0x8b, 0xbe,
  0x71, 0xba, 0xa6, 0x3e, 0xfd, 0xaf, 0x20, 0xbe, 0x79, 0xe9, 0x7a, 0x3d,
  0xfe, 0x3a, 0x9a, 0xbe, 0xbe, 0xe9, 0x80, 0x3e, 0x5e, 0xb9, 0x71, 0xbd,
  0xab, 0x46, 0x6a, 0xbe, 0xa0, 0x4a, 0x74, 0xbd, 0x98, 0x75, 0x6a, 0x3d,
  0x0d, 0x4f, 0x01, 0x3d, 0x25, 0x7f, 0xa0, 0xbe, 0x21, 0x13, 0x52, 0xbe,
  0xae, 0xac, 0x3a, 0xbd, 0x7b, 0xb4, 0x64, 0x3e, 0x8f, 0xf9, 0x59, 0xbe,
  0xda, 0x03, 0x1e, 0x3e, 0xd9, 0xaf, 0x9a, 0xbd, 0x6e, 0x71, 0x89, 0xbe,
  0xb7, 0x32, 0x35, 0x3e, 0x09, 0x94, 0xb7, 0x3d, 0xab, 0x8b, 0x6b, 0x3e,
  0x31, 0xf4, 0x4d, 0xbe, 0x10, 0xc3, 0xf2, 0xbd, 0xcb, 0x68, 0x76, 0x3e,
  0xc6, 0xc6, 0x2e, 0xbd, 0x29, 0xce, 0x8f, 0xbe, 0xbf, 0x32, 0x6d, 0xbd,
  0x70, 0xae, 0x55, 0x3e, 0x89, 0x93, 0x78, 0xbe, 0x88, 0x7e, 0x5f, 0x3e,
  0xb0, 0xc7, 0xfd, 0xbd, 0x99, 0x4d, 0xdc, 0xbd, 0x72, 0x4f, 0x6f, 0xbe,
  0x99, 0xc3, 0x4d, 0x3e, 0xaf, 0xb9, 0x2c, 0xbe, 0x93, 0x30, 0x12, 0xbd,
  0xf3, 0xed, 0x96, 0xbd, 0x63, 0x86, 0xbd, 0xbd, 0xb2, 0x8a, 0x6b, 0x3e,
  0xc4, 0xb6, 0x24, 0x3e, 0x1d, 0x97, 0x27, 0xbe, 0x4b, 0x50, 0x1a, 0xbd,
  0xff, 0x94, 0x82, 0xbe, 0xb9, 0xb4, 0x61, 0x3e, 0x07, 0xa8, 0x7d, 0x3e,
  0xf4, 0x44, 0xac, 0xbd, 0xe1, 0x3e, 0x77, 0xbe, 0xa4, 0x28, 0x63, 0xbd,
  0x49, 0x2c, 0x10, 0xbd, 0x98, 0x33, 0xa7, 0xbe, 0x74, 0xbd, 0xb0, 0x3e,
  0x18, 0x7c, 0x53, 0xbe, 0xfe, 0x94, 0x4b, 0x3e, 0x94, 0x63, 0x99, 0xbd,
  0x2a, 0xf7, 0xff, 0x3d, 0x4c, 0xcb, 0x47, 0xbe, 0xbe, 0x80, 0x70, 0xbe,
  0x78, 0x49, 0x84, 0xbe, 0x01, 0xce, 0xcb, 0xbd, 0x07, 0xa3, 0x88, 0xbc,
  0x0d, 0xb1, 0x40, 0x3c, 0x97, 0x6f, 0x49, 0x3e, 0xd1, 0xc7, 0x62, 0xbe,
  0x93, 0xc9, 0x9f, 0x3e, 0x11, 0x89, 0x88, 0xbe, 0x89, 0xcb, 0x50, 0x3e,
  0x0c, 0x6c, 0x24, 0xbe, 0x48, 0x98, 0xbd, 0xbd, 0x58, 0x60, 0xa8, 0x3e,
  0x15, 0x2e, 0x61, 0xbe, 0xd1, 0x55, 0x88, 0x3e, 0x02, 0xfa, 0xdb, 0x3b,
  0xcb, 0xe9, 0x2a, 0xbe, 0xf4, 0xad, 0x09, 0xbe, 0xc9, 0x79, 0x99, 0xbe,
  0x58, 0x21, 0xae, 0xbd, 0xd6, 0x58, 0xb4, 0xbd, 0x9c, 0xf9, 0xf0, 0xbd,
  0xde, 0xa2, 0x5f, 0xbe, 0xb6, 0xbe, 0x99, 0x3e, 0xb1, 0x27, 0xc6, 0xbe,
  0x11, 0x85, 0x80, 0x3e, 0x16, 0x6c, 0x8c, 0x3e, 0xcb, 0xa9, 0x32, 0x3e,
  0x12, 0x1e, 0x50, 0x3e, 0x8e, 0x1e, 0x18, 0xbe, 0xa0, 0x1d, 0x5a, 0x3e,
  0x1e, 0x15, 0x3b, 0xbe, 0xcd, 0xcb, 0x53, 0xbe, 0x04, 0x93, 0x8b, 0xbe,
  0xda, 0x23, 0x49, 0x3d, 0xaa, 0xb5, 0xa9, 0x3d, 0x2f, 0x52, 0x42, 0xbe,
  0x16, 0xc5, 0xc7, 0xbd, 0x32, 0x72, 0xe8, 0xbd, 0x85, 0x11, 0xcc, 0xbd,
  0xa6, 0xce, 0x47, 0x3d, 0xe9, 0x91, 0x56, 0xbe, 0x05, 0x0e, 0x06, 0x3e,
  0xd8, 0xfb, 0xd1, 0x3d, 0x83, 0x92, 0x36, 0xbd, 0xa5, 0x21, 0x69, 0xbe,
  0x95, 0x80, 0x66, 0x3e, 0x77, 0xdd, 0x0c, 0xbe, 0xe9, 0x0e, 0x50, 0x3e,
  0xc8, 0xa3, 0x9b, 0x3d, 0xd6, 0x25, 0x4b, 0x3e, 0xa1, 0x0f, 0x9d, 0xbd,
  0x06, 0xf8, 0x8b, 0x3e, 0x21, 0xff, 0xef, 0xbd, 0x3d, 0x8f, 0x89, 0xbe,
  0x46, 0xcf, 0x87, 0x3e, 0xf1, 0x70, 0x7d, 0xbe, 0xaa, 0xab, 0xa0, 0xbd,
  0x8e, 0x76, 0x1e, 0x3e, 0xdb, 0x12, 0x3e, 0x3e, 0x49, 0x7f, 0x2d, 0xbe,
  0x78, 0xee, 0x3a, 0x3e, 0xb4, 0x68, 0x75, 0x3e, 0x96, 0x50, 0x52, 0xbd,
  0xc5, 0xaa, 0x27, 0x3e, 0x82, 0x43, 0x9d, 0xbe, 0x56, 0x6e, 0x7f, 0xbe,
  0x3e, 0x33, 0x62, 0xbe, 0x77, 0xfe, 0xc0, 0x3e, 0x42, 0x71, 0x6b, 0xbe,
  0x63, 0x72, 0xc4, 0x3d, 0xff, 0x8a, 0x93, 0xbe, 0xa0, 0x97, 0x0b, 0xbe,
  0xf1, 0x73, 0xd5, 0xbd, 0xb8, 0x09, 0x90, 0x3e, 0x20, 0xf1, 0x36, 0xbe,
  0xfe, 0x72, 0xb5, 0x3c, 0x68, 0x5c, 0xee, 0x3e, 0x75, 0x89, 0x52, 0x3d,
  0x0b, 0x56, 0x99, 0xbd, 0x30, 0x43, 0xb0, 0x3d, 0x71, 0x22, 0xe2, 0xbd,
  0xd5, 0x06, 0x5a, 0xbd, 0x4e, 0xf4, 0x71, 0x3c, 0xc8, 0xc1, 0x42, 0xbd,
  0xfe, 0x56, 0x97, 0x3e, 0xd8, 0x7e, 0x7d, 0xbe, 0x18, 0xcd, 0x55, 0x3e,
  0x2d, 0xa1, 0x42, 0xbe, 0xd5, 0xae, 0x50, 0xbe, 0x0d, 0x6a, 0x2f, 0x3e,
  0x1f, 0x52, 0x1f, 0xbe, 0x22, 0x02, 0x3f, 0x3e, 0xf3, 0xd0, 0x90, 0xbd,
  0xca, 0x1e, 0xc2, 0x3e, 0x0f, 0x52, 0xce, 0xbd, 0xab, 0xe0, 0x5e, 0x3e,
  0x1b, 0x11, 0x8e, 0xbc, 0xf3, 0x90, 0x10, 0xbc, 0xa6, 0xe5, 0xff, 0xff,
  0x10, 0x00, 0x00, 0x00, 0x0b, 0x00, 0x00, 0x00, 0x14, 0x00, 0x00, 0x00,
  0x34, 0x00, 0x00, 0x00, 0x02, 0x00, 0x00, 0x00, 0x1e, 0x00, 0x00, 0x00,
  0x1e, 0x00, 0x00, 0x00, 0x1d, 0x00, 0x00, 0x00, 0x73, 0x65, 0x71, 0x75,
  0x65, 0x6e, 0x74, 0x69, 0x61, 0x6c, 0x5f, 0x31, 0x30, 0x2f, 0x64, 0x65,
  0x6e, 0x73, 0x65, 0x5f, 0x35, 0x32, 0x2f, 0x4d, 0x61, 0x74, 0x4d, 0x75,
  0x6c, 0x00, 0x00, 0x00, 0x34, 0xe5, 0xff, 0xff, 0x26, 0xe6, 0xff, 0xff,
  0x04, 0x00, 0x00, 0x00, 0x10, 0x0e, 0x00, 0x00, 0x7d, 0x2f, 0x76, 0x3e,
  0x3b, 0xc6, 0x9e, 0xbe, 0x0d, 0x5f, 0x65, 0xbe, 0x6a, 0x2c, 0x1c, 0xbe,
  0x15, 0x89, 0x93, 0xbd, 0x6d, 0xe4, 0x94, 0x3e, 0xf8, 0xb2, 0x51, 0x3e,
  0xa9, 0x12, 0x69, 0xbe, 0xea, 0x1f, 0xac, 0xbe, 0xcd, 0x0e, 0x58, 0x3e,
  0x1b, 0x61, 0x6f, 0xbe, 0x07, 0x8b, 0xa7, 0x3d, 0xd8, 0xb3, 0x26, 0x3e,
  0x81, 0xb3, 0x97, 0xbc, 0xb0, 0x4a, 0xe6, 0xbd, 0x29, 0xaa, 0x0a, 0x3e,
  0x83, 0x80, 0xba, 0xbe, 0x6e, 0x7e, 0xf4, 0xbc, 0x90, 0x5e, 0xab, 0xbd,
  0xd8, 0xd2, 0xec, 0x3d, 0x27, 0x8d, 0xc3, 0xbd, 0x17, 0x71, 0x4c, 0xbe,
  0xca, 0x34, 0x4f, 0x3e, 0x76, 0xd2, 0x19, 0x3e, 0x54, 0x31, 0x94, 0xbc,
  0xa3, 0x13, 0xb0, 0x3d, 0x69, 0xba, 0x91, 0xbd, 0x37, 0x14, 0x14, 0xbe,
  0x7f, 0x14, 0x8a, 0x3e, 0xf8, 0x22, 0x37, 0x3e, 0x1b, 0xc0, 0x8d, 0xbd,
  0x75, 0x77, 0x5f, 0x3e, 0xa5, 0xee, 0x71, 0xbe, 0xc8, 0xaf, 0x70, 0x3e,
  0x69, 0xf4, 0x8b, 0x3d, 0x78, 0xef, 0x9a, 0xbd, 0x7b, 0x6a, 0xd2, 0x3d,
  0x8f, 0x02, 0xa0, 0x3e, 0x3a, 0xa1, 0x8a, 0xbe, 0xfe, 0x0e, 0xb9, 0x3d,
  0xc0, 0x70, 0x8d, 0x3e, 0x93, 0xbd, 0x8f, 0x3d, 0x73, 0x25, 0x5c, 0xbd,
  0x52, 0xbd, 0x95, 0xbd, 0xdf, 0x8d, 0x87, 0xbe, 0x39, 0x4d, 0x22, 0xbe,
  0x69, 0xb1, 0x94, 0xbd, 0x19, 0x04, 0x78, 0x3d, 0x0c, 0x66, 0xb1, 0xbe,
  0x0e, 0x5d, 0x98, 0x3b, 0xfb, 0xb4, 0x0b, 0xbe, 0x01, 0x52, 0xa6, 0x3e,
  0x79, 0x1f, 0x47, 0x3d, 0xf5, 0x9e, 0x0d, 0x3e, 0x91, 0x56, 0x2b, 0xbe,
  0x7b, 0x0a, 0xb2, 0x3e, 0x92, 0xa1, 0x1c, 0x3e, 0x3a, 0xa2, 0x07, 0xbe,
  0x00, 0x77, 0x13, 0xbe, 0xb1, 0xc5, 0x62, 0x3c, 0x98, 0x4f, 0x52, 0xbe,
  0xb4, 0xfa, 0xe4, 0x3d, 0x1f, 0x69, 0x85, 0x3c, 0x8d, 0xa8, 0x9f, 0xbd,
  0x60, 0x3e, 0x6b, 0xbe, 0xc6, 0xfe, 0xc2, 0x3e, 0x1e, 0xfe, 0x36, 0x3e,
  0xf8, 0x99, 0x7e, 0xbe, 0x24, 0x1d, 0xe5, 0xbd, 0x30, 0xcb, 0x3a, 0xbe,
  0xff, 0xac, 0x31, 0xbe, 0x7a, 0xeb, 0x10, 0x3e, 0x6b, 0x7d, 0xf8, 0xbd,
  0x88, 0xd7, 0x64, 0x3e, 0x73, 0x2f, 0x6b, 0xbe, 0x03, 0x9c, 0xc5, 0x3c,
  0x89, 0x5c, 0x68, 0xbe, 0x9c, 0xd8, 0x02, 0x3e, 0xb1, 0x3f, 0x14, 0x3e,
  0x4f, 0x28, 0x44, 0xbe, 0x3e, 0xdb, 0xac, 0xbd, 0x9c, 0x2a, 0x3a, 0xbe,
  0x07, 0x52, 0x87, 0xbe, 0xd9, 0xf8, 0xb0, 0xbe, 0x5b, 0x8b, 0x41, 0x3e,
  0xb8, 0x73, 0x44, 0x3b, 0x5a, 0xfa, 0x90, 0xbe, 0x93, 0x0c, 0xfe, 0xbd,
  0x7b, 0x04, 0x0f, 0x3e, 0x74, 0x1f, 0xb0, 0x3e, 0x5f, 0xff, 0x31, 0x3e,
  0x5d, 0x99, 0x9a, 0xbd, 0x0b, 0x86, 0x80, 0x3e, 0xb9, 0xde, 0xce, 0x3e,
  0x74, 0xb6, 0x84, 0xbe, 0x2d, 0xab, 0xfd, 0x3b, 0xc1, 0xf4, 0x12, 0xbe,
  0xb4, 0xe3, 0x6d, 0xbe, 0xb9, 0x5b, 0x75, 0xbe, 0x3e, 0x52, 0x8b, 0x3e,
  0x45, 0x5d, 0x9f, 0x3c, 0xff, 0x19, 0x9c, 0x3e, 0xa3, 0x40, 0x86, 0x3e,
  0x47, 0x35, 0xb7, 0xbe, 0xda, 0x2f, 0xd0, 0xbe, 0xa6, 0x6e, 0x32, 0xbd,
  0x66, 0xa3, 0xcc, 0xbe, 0xef, 0xe3, 0x99, 0x3d, 0xac, 0x41, 0x8d, 0xbe,
  0xb0, 0xed, 0xdf, 0xbe, 0x16, 0x7a, 0xd2, 0x3e, 0x0b, 0x3d, 0xca, 0xbe,
  0x75, 0xa6, 0xe3, 0x3d, 0x43, 0xd5, 0xc7, 0xbd, 0x6b, 0x34, 0xb9, 0x3d,
  0x52, 0x73, 0x52, 0x3e, 0x52, 0x9a, 0xa0, 0xbe, 0x2d, 0xdf, 0x97, 0xbe,
  0xa1, 0x37, 0xaa, 0xbe, 0xf2, 0xb3, 0x37, 0x3e, 0x94, 0x7d, 0x3b, 0xbe,
  0x7e, 0x66, 0x99, 0x3d, 0xe8, 0x1d, 0x52, 0xbb, 0x40, 0x50, 0x5e, 0xbe,
  0xbd, 0x29, 0x41, 0xbe, 0xc0, 0xf0, 0x05, 0x3e, 0x79, 0x4a, 0x50, 0x3e,
  0x02, 0xd0, 0x6a, 0xbe, 0x24, 0x80, 0x86, 0x3d, 0x67, 0x5a, 0x64, 0xbe,
  0xc0, 0x70, 0x27, 0x3e, 0xd7, 0x47, 0x36, 0xbe, 0x5b, 0x69, 0xa6, 0x3d,
  0xfa, 0xd4, 0x23, 0x3e, 0xdb, 0xec, 0x9d, 0x3d, 0x2b, 0x2c, 0x2c, 0x3e,
  0x9c, 0x51, 0x1c, 0xbe, 0xbc, 0x93, 0x68, 0x3b, 0x45, 0xd9, 0x5b, 0xbe,
  0x0b, 0x33, 0xa3, 0xbe, 0xb4, 0xc9, 0x40, 0x3d, 0xc6, 0x69, 0xf2, 0x3d,
  0x0c, 0x4c, 0xd2, 0xbd, 0x7c, 0x89, 0x3a, 0x3e, 0x4b, 0x1f, 0x1e, 0xbe,
  0x04, 0x79, 0x85, 0xbe, 0xde, 0x84, 0xe0, 0x3d, 0x10, 0x21, 0x2f, 0xbe,
  0x03, 0xf7, 0xca, 0xbd, 0x19, 0x2e, 0x88, 0xbd, 0xbc, 0x19, 0x94, 0xbe,
  0x49, 0xb6, 0x63, 0xbe, 0x17, 0xf6, 0x8b, 0xbe, 0x5b, 0x3a, 0x54, 0xbe,
  0xe2, 0xa9, 0x06, 0xbe, 0x01, 0x8d, 0xcb, 0xbd, 0x0e, 0x8a, 0x9c, 0xbe,
  0x1b, 0xc1, 0x92, 0x3e, 0x8d, 0x5f, 0xa3, 0xbe, 0x79, 0xc0, 0x5b, 0x3e,
  0x28, 0x0c, 0x42, 0xbd, 0x88, 0xc8, 0xbc, 0xbd, 0xfd, 0xc3, 0xc9, 0x3d,
  0x7c, 0x3d, 0xc0, 0xbe, 0xeb, 0x26, 0xa7, 0x3d, 0xf3, 0xe8, 0x95, 0xbd,
  0x94, 0x99, 0x5d, 0x3d, 0xae, 0x81, 0x60, 0x3e, 0x2a, 0x80, 0x92, 0xbe,
  0x19, 0x31, 0xbe, 0xbe, 0x10, 0xdb, 0x6c, 0x3e, 0xc8, 0xca, 0x44, 0xbe,
  0x02, 0x7d, 0x22, 0x3d, 0x68, 0x9a, 0x45, 0x3e, 0x22, 0x99, 0xa2, 0x3d,
  0x89, 0x2b, 0x1e, 0xbd, 0xbd, 0x57, 0xe4, 0xbc, 0xc6, 0x68, 0xcd, 0x3d,
  0xe7, 0xda, 0x59, 0x3d, 0xae, 0x2f, 0x61, 0x3e, 0x43, 0x51, 0x15, 0x3d,
  0x0a, 0x5d, 0x41, 0xbb, 0x81, 0x4b, 0xa8, 0x3e, 0x95, 0x55, 0x34, 0x3c,
  0xe6, 0x56, 0x87, 0xbe, 0xb8, 0x77, 0x69, 0x3d, 0x30, 0x81, 0xeb, 0xbd,
  0xdb, 0x5a, 0x20, 0xbd, 0x4a, 0xd8, 0x65, 0x3e, 0x0f, 0x13, 0xca, 0x3c,
  0xc7, 0xfe, 0xde, 0xbd, 0x7f, 0x30, 0xa6, 0x3e, 0x7f, 0x14, 0xd7, 0x3e,
  0x18, 0xbd, 0x4c, 0xbd, 0x2c, 0xde, 0x5f, 0x3d, 0xe5, 0xc2, 0x04, 0xbe,
  0x49, 0x82, 0x42, 0x3e, 0x1c, 0x77, 0xe2, 0xbd, 0x09, 0x8b, 0x2d, 0xbe,
  0x3a, 0x31, 0x87, 0x3d, 0x96, 0x3c, 0x7c, 0xbe, 0x6d, 0x9b, 0xc9, 0xba,
  0x14, 0x9c, 0xba, 0x3e, 0x77, 0x5f, 0x2e, 0xbe, 0x98, 0xa2, 0x31, 0x3e,
  0x81, 0x5c, 0x1a, 0xbe, 0x3f, 0x85, 0x2e, 0xbe, 0xd0, 0xad, 0xb6, 0x3d,
  0x63, 0x84, 0x88, 0x3e, 0xb5, 0x64, 0x2d, 0x3e, 0x4e, 0xa5, 0x0e, 0xbd,
  0x2b, 0xec, 0xf3, 0xbd, 0xa6, 0x89, 0x7e, 0x3d, 0x55, 0x5f, 0xd2, 0x3e,
  0x7d, 0x87, 0xa8, 0x3e, 0x92, 0x8b, 0xc8, 0xbd, 0x4a, 0x51, 0x5b, 0x3e,
  0xcb, 0x2c, 0x5f, 0xbd, 0x6e, 0xcf, 0xad, 0x3e, 0xd2, 0x78, 0x3b, 0xbe,
  0x0e, 0x51, 0x95, 0xbe, 0x97, 0xb2, 0x50, 0x3e, 0xf9, 0xa5, 0x5d, 0xbe,
  0x1d, 0x15, 0x72, 0x3e, 0xb8, 0xcc, 0x16, 0x3e, 0x27, 0xe5, 0x95, 0x3e,
  0x7f, 0x44, 0xa4, 0x3e, 0x32, 0x33, 0x75, 0xbd, 0xd0, 0xee, 0xfd, 0xbd,
  0xbd, 0xe4, 0x91, 0x3d, 0x32, 0xf7, 0x82, 0xbe, 0x1a, 0xf7, 0x64, 0x3e,
  0xac, 0x49, 0x9d, 0xbc, 0x22, 0xd8, 0xda, 0x3d, 0xe7, 0xfb, 0x85, 0xbe,
  0xb7, 0xe0, 0x3d, 0x3c, 0xd2, 0x2f, 0x1e, 0x3d, 0x08, 0x0b, 0x38, 0xbe,
  0x32, 0x4e, 0xd4, 0x3e, 0x4b, 0x13, 0x57, 0xbe, 0x3c, 0xe2, 0xdd, 0xbc,
  0x7e, 0x0d, 0x63, 0xbe, 0x94, 0x36, 0x7c, 0x3e, 0xf6, 0x7c, 0x08, 0xbd,
  0x75, 0x69, 0x5a, 0xbd, 0x42, 0xcc, 0x06, 0x3d, 0x2e, 0x3f, 0x68, 0xbe,
  0x61, 0x97, 0x08, 0x3f, 0x38, 0x05, 0xc5, 0xba, 0x29, 0x84, 0x54, 0x3e,
  0x2b, 0x7d, 0x2d, 0xbe, 0x77, 0x8b, 0xc9, 0xbd, 0xc2, 0x01, 0xa1, 0x3d,
  0x0e, 0xde, 0x85, 0x3d, 0x00, 0x9d, 0x4c, 0x3e, 0xfb, 0xd1, 0x90, 0x3e,
  0x67, 0x96, 0x0d, 0xbe, 0xb4, 0xf9, 0x7c, 0x3d, 0x3e, 0x1c, 0x4a, 0xbd,
  0x2e, 0x99, 0xc3, 0x3e, 0xf8, 0x66, 0x07, 0xbf, 0xc3, 0x3a, 0x45, 0xbe,
  0x6d, 0x92, 0x65, 0x3d, 0x5b, 0xa9, 0x51, 0x3e, 0xc4, 0x98, 0x8d, 0x3e,
  0xea, 0xab, 0x8b, 0x3e, 0x34, 0xd2, 0x2e, 0x3e, 0x94, 0xe8, 0x26, 0x3e,
  0x39, 0x44, 0x03, 0x3e, 0x72, 0x35, 0x98, 0x3e, 0x11, 0x34, 0x80, 0xbe,
  0x04, 0x2f, 0x9d, 0xbd, 0x9e, 0x14, 0x18, 0xbe, 0x32, 0x3d, 0xac, 0x3e,
  0x5d, 0x6b, 0x29, 0xbe, 0x5d, 0x84, 0x8a, 0xbe, 0x63, 0x52, 0x17, 0xbe,
  0x37, 0x8e, 0xa7, 0xbe, 0x1d, 0x72, 0x03, 0x3e, 0xe4, 0x4b, 0xbb, 0x3e,
  0xe4, 0xba, 0xa4, 0x3e, 0xf9, 0xd5, 0x62, 0xbe, 0x6a, 0xea, 0x0b, 0x3d,
  0xca, 0x84, 0x9e, 0xbe, 0x68, 0x67, 0x8f, 0x3d, 0xc1, 0x8a, 0x8a, 0x3e,
  0x5d, 0xe6, 0x71, 0xbe, 0x1c, 0xe0, 0x69, 0xbc, 0xd8, 0xdd, 0x75, 0x3d,
  0xbc, 0xae, 0x24, 0xbd, 0xc3, 0xe1, 0xb5, 0x3c, 0xa1, 0x89, 0x51, 0x3e,
  0xd1, 0xf5, 0xaa, 0x3e, 0x1d, 0xaf, 0x92, 0x3e, 0x37, 0x70, 0x70, 0x3e,
  0x4f, 0xe4, 0xb3, 0xbd, 0xd1, 0xb1, 0x17, 0xbe, 0xd4, 0x20, 0x15, 0xbe,
  0x93, 0x6e, 0x94, 0xbd, 0x44, 0x39, 0x89, 0xbe, 0x83, 0x6a, 0x92, 0xbd,
  0xda, 0x51, 0xb1, 0xbe, 0x8c, 0x30, 0x6e, 0x3d, 0x01, 0x68, 0x96, 0xbd,
  0x09, 0x33, 0x87, 0xbe, 0x3c, 0x95, 0x39, 0xbe, 0x6a, 0x60, 0xe6, 0xbc,
  0xb8, 0xae, 0xd3, 0xbe, 0xab, 0x91, 0x2b, 0x3e, 0xbd, 0xe9, 0xcf, 0xbe,
  0x75, 0xe3, 0x4f, 0x3e, 0x40, 0xf8, 0x1a, 0xbe, 0x47, 0x2c, 0x63, 0xbe,
  0x8d, 0xd3, 0x7f, 0x3e, 0xc6, 0x79, 0x99, 0xbe, 0x22, 0xb8, 0x3b, 0x3e,
  0xf5, 0x1f, 0xfa, 0x3c, 0xff, 0xf2, 0x99, 0xbe, 0x2d, 0xb1, 0x28, 0xbe,
  0x5d, 0x97, 0xd8, 0x3d, 0x77, 0xb8, 0x60, 0xbe, 0x18, 0x12, 0xbc, 0xbd,
  0x8f, 0x42, 0x6e, 0xbd, 0x51, 0x78, 0xc4, 0x3e, 0xbd, 0x69, 0xba, 0x3e,
  0xb8, 0x3a, 0x32, 0x3e, 0xf7, 0x4e, 0x5d, 0xbe, 0x2a, 0xd9, 0x47, 0xbe,
  0x62, 0x3f, 0x0f, 0xbe, 0xec, 0x36, 0x94, 0xbd, 0xb9, 0x32, 0xa3, 0xbe,
  0x28, 0xb3, 0x92, 0xbe, 0x97, 0x2b, 0x86, 0x3e, 0xd9, 0x97, 0xf8, 0xbe,
  0x8d, 0x1f, 0xc4, 0xbe, 0xdb, 0x6c, 0xd8, 0xbc, 0x53, 0xa3, 0x77, 0x3e,
  0x58, 0x76, 0x3f, 0xbe, 0xc4, 0x4c, 0x2e, 0xbe, 0x36, 0x89, 0x0a, 0xbe,
  0x6c, 0x91, 0xbd, 0xbe, 0x84, 0xb1, 0x68, 0xbe, 0xfd, 0x99, 0xc4, 0xbe,
  0xff, 0xb6, 0x3d, 0x3e, 0x84, 0xed, 0x88, 0xbe, 0xf2, 0x48, 0x4b, 0xbe,
  0x58, 0xbd, 0xfe, 0xbd, 0x20, 0x66, 0xe8, 0x3d, 0x53, 0xa9, 0x5a, 0x3c,
  0x24, 0xff, 0xb1, 0x3c, 0xd9, 0xae, 0x03, 0x3f, 0xd9, 0xb8, 0x75, 0xbe,
  0x22, 0x48, 0x9e, 0xbe, 0x37, 0x20, 0xbd, 0x3d, 0x81, 0x4d, 0x7a, 0x3e,
  0x57, 0xff, 0x83, 0x3e, 0x40, 0x64, 0x19, 0x3e, 0xd4, 0x56, 0x72, 0xbd,
  0x3a, 0x46, 0xa1, 0xbe, 0x70, 0x52, 0x95, 0x3e, 0x8f, 0xba, 0xdd, 0xbd,
  0x5f, 0x2a, 0xab, 0x3e, 0x12, 0x4d, 0x5f, 0x3e, 0x4f, 0x47, 0x39, 0xbd,
  0xe6, 0xdb, 0xae, 0x3e, 0xc1, 0xfe, 0x43, 0xbc, 0xe5, 0x21, 0x13, 0xbe,
  0xd5, 0x60, 0x32, 0xbe, 0x33, 0xce, 0x86, 0xbe, 0x61, 0x32, 0x86, 0x3e,
  0xe1, 0x42, 0x4b, 0x3e, 0xaa, 0x47, 0x38, 0xbe, 0x56, 0x2a, 0x79, 0x3e,
  0x33, 0x34, 0xb0, 0x3e, 0x6c, 0xd8, 0xc4, 0x3e, 0x99, 0x67, 0xac, 0xbe,
  0x64, 0x80, 0xf7, 0x3c, 0x51, 0xd0, 0xbc, 0xbd, 0x35, 0xa3, 0xd4, 0x3d,
  0x32, 0x58, 0x1a, 0x3e, 0x87, 0xe3, 0x51, 0x3e, 0xe1, 0x82, 0x58, 0xbe,
  0xc8, 0xbd, 0x48, 0xbc, 0x4b, 0xa3, 0x1b, 0xbe, 0xe4, 0xd2, 0x4a, 0xbd,
  0x22, 0xa0, 0xa4, 0xbd, 0x3f, 0x94, 0x09, 0xbe, 0x67, 0xde, 0xe3, 0xbd,
  0x90, 0x3a, 0x42, 0x3e, 0xc7, 0xbf, 0x2b, 0x3d, 0x4e, 0xd8, 0xaf, 0x3e,
  0x74, 0xc0, 0x2d, 0x3e, 0x4a, 0x16, 0x88, 0x3e, 0x06, 0x0f, 0xc1, 0x3e,
  0x85, 0xc8, 0xa2, 0x3e, 0xf0, 0x8c, 0xd5, 0xbd, 0xb8, 0x9b, 0x76, 0x3e,
  0xe1, 0xf0, 0xbe, 0xbe, 0x63, 0xa0, 0x2c, 0xbc, 0x3e, 0xc0, 0x40, 0x3d,
  0x7d, 0xc1, 0x82, 0x3e, 0xe2, 0x14, 0x95, 0x3d, 0x5d, 0xf0, 0xa4, 0x3e,
  0x2d, 0x1b, 0x08, 0xbe, 0x00, 0x13, 0x5a, 0xbe, 0xa9, 0x2e, 0xa8, 0x3e,
  0x81, 0xea, 0xac, 0xbe, 0x5b, 0xbb, 0x4b, 0x3d, 0xf4, 0x64, 0x33, 0x3d,
  0x30, 0x1d, 0x31, 0xbe, 0xf5, 0xd0, 0x82, 0x3e, 0x19, 0x89, 0xda, 0xbc,
  0x46, 0xcd, 0x89, 0xbe, 0x9f, 0x07, 0x3e, 0xbe, 0xe0, 0xd3, 0xf7, 0xbd,
  0xd9, 0xda, 0x26, 0x3e, 0x41, 0xb2, 0x87, 0xbe, 0x9d, 0xbf, 0x22, 0x3e,
  0x57, 0x26, 0x7a, 0x3e, 0x12, 0x5b, 0xba, 0xbe, 0x24, 0x4c, 0x96, 0x3e,
  0x75, 0xd0, 0x11, 0x3d, 0xf4, 0x69, 0x2d, 0x3d, 0x42, 0x0c, 0xa5, 0xbe,
  0xf8, 0xcc, 0xce, 0xbd, 0x9f, 0xd2, 0xab, 0x3e, 0x3c, 0x41, 0x12, 0xbe,
  0x58, 0xe1, 0x8a, 0xbe, 0xbf, 0x32, 0xe3, 0x3d, 0x5c, 0x7f, 0x5f, 0x3e,
  0xcd, 0xb3, 0x72, 0x3e, 0xdc, 0x7a, 0x6a, 0x3e, 0x71, 0x84, 0x8b, 0x3e,
  0x3e, 0xb9, 0x8e, 0x3d, 0xda, 0x8b, 0x48, 0xbd, 0x3a, 0x6b, 0x8f, 0x3e,
  0xd0, 0x7b, 0xa3, 0xbe, 0x83, 0xf4, 0xcd, 0x3e, 0xd7, 0x29, 0x42, 0xbe,
  0x0b, 0xdd, 0x63, 0x3e, 0x78, 0xfb, 0xa9, 0x3d, 0x78, 0x61, 0xa2, 0xbe,
  0x80, 0x76, 0x6d, 0xbe, 0x41, 0xfa, 0xb9, 0xbe, 0xd6, 0xdf, 0xb9, 0xbe,
  0x68, 0x2a, 0x1d, 0x3e, 0x64, 0x02, 0x89, 0x3e, 0x27, 0x4e, 0x99, 0xbe,
  0x51, 0xd1, 0x86, 0x3d, 0x36, 0xa9, 0xa1, 0xbe, 0x71, 0xc4, 0x36, 0x3e,
  0x6f, 0x61, 0x8d, 0x3e, 0x6e, 0xe7, 0x80, 0xbc, 0x82, 0x3f, 0x15, 0x3f,
  0xce, 0x09, 0xf6, 0x3e, 0x72, 0xf5, 0x9c, 0xbe, 0x42, 0x57, 0x29, 0x3e,
  0xa1, 0xb6, 0x65, 0xbe, 0x49, 0x3b, 0x1f, 0xbe, 0xc9, 0x18, 0x9d, 0x3e,
  0x8d, 0x25, 0x6e, 0xbc, 0xad, 0x46, 0x83, 0xbe, 0x9f, 0x24, 0xdd, 0xbb,
  0x77, 0x45, 0xa6, 0x3e, 0x55, 0xd7, 0x8e, 0xbd, 0xb3, 0x52, 0x57, 0xbe,
  0x99, 0x9f, 0x50, 0xbe, 0x54, 0xb8, 0x20, 0x3e, 0x3d, 0x85, 0x02, 0x3f,
  0x1b, 0x15, 0x33, 0x3e, 0xe3, 0x06, 0xf4, 0xbe, 0x02, 0x69, 0xf5, 0x3d,
  0x70, 0xdd, 0x00, 0x3e, 0x55, 0x7b, 0x7c, 0x3e, 0xc4, 0xda, 0x34, 0xbe,
  0x6c, 0xf0, 0x45, 0xbe, 0xb0, 0xe3, 0xef, 0x3d, 0x1a, 0xd3, 0xb8, 0x3d,
  0xed, 0x87, 0x24, 0x3e, 0x59, 0x42, 0x5b, 0x3e, 0x48, 0x51, 0x02, 0xbe,
  0x29, 0x82, 0xe6, 0xbd, 0x84, 0xa7, 0x9d, 0xbe, 0x06, 0xc9, 0x8f, 0xbd,
  0x53, 0xa0, 0x19, 0x3e, 0xfb, 0x8e, 0x11, 0xbd, 0xf1, 0xcc, 0xa4, 0x3e,
  0x33, 0x23, 0x9a, 0x3c, 0xba, 0x20, 0x11, 0xbd, 0x27, 0x9f, 0x98, 0x3e,
  0x00, 0x03, 0x18, 0x3e, 0xcc, 0xab, 0xb7, 0xbe, 0xfb, 0x87, 0xe3, 0xbc,
  0x80, 0x5e, 0x4f, 0xbe, 0xb7, 0xcc, 0x2d, 0x3d, 0xcf, 0x0e, 0x9c, 0xbe,
  0xf4, 0xc2, 0x26, 0xbd, 0x4a, 0xe9, 0x33, 0x3d, 0xe4, 0x4c, 0x9a, 0xbe,
  0xb7, 0x1b, 0x5d, 0x3e, 0x40, 0x19, 0x32, 0xbd, 0x80, 0xe4, 0xe6, 0xbd,
  0x69, 0x70, 0x82, 0x3e, 0xfe, 0xbb, 0x47, 0x3e, 0xd8, 0x7d, 0x6f, 0xbc,
  0x5b, 0x74, 0x11, 0xbd, 0x3f, 0xa9, 0x70, 0xbe, 0xb5, 0xca, 0xa8, 0x3e,
  0x5f, 0x7d, 0x4e, 0x3e, 0xe5, 0x72, 0x94, 0xbd, 0x07, 0x54, 0x9c, 0xbd,
  0x28, 0x73, 0xa6, 0xbe, 0xca, 0xed, 0xac, 0x3e, 0xbe, 0xba, 0xa1, 0x3d,
  0x0a, 0x10, 0x0a, 0xbe, 0x22, 0x8b, 0x87, 0xbd, 0xf1, 0x17, 0x39, 0xbe,
  0x74, 0x25, 0xd6, 0xbd, 0x2e, 0xeb, 0x09, 0x3e, 0xba, 0x92, 0x71, 0xbe,
  0x32, 0x1d, 0x3c, 0x3e, 0xe8, 0xe2, 0x81, 0x3d, 0xb5, 0xbb, 0x8c, 0x3e,
  0x46, 0x65, 0x1a, 0x3e, 0x9b, 0x0a, 0x1a, 0x3d, 0x79, 0x15, 0x89, 0xbe,
  0xec, 0xa6, 0xfd, 0x3d, 0x1b, 0x56, 0x3c, 0x3e, 0x4c, 0x72, 0x95, 0xbe,
  0xcc, 0xb2, 0x19, 0xbe, 0xcd, 0x5a, 0xa2, 0xbd, 0x67, 0xaf, 0x34, 0xbd,
  0x50, 0x88, 0xff, 0x3d, 0x76, 0x84, 0x40, 0x3e, 0x20, 0x9a, 0x04, 0xbe,
  0xc8, 0x0b, 0xa0, 0xbe, 0x51, 0x2e, 0x9a, 0xbe, 0xd6, 0x53, 0x81, 0xbe,
  0xc7, 0xaa, 0x88, 0x3e, 0x2d, 0x65, 0xb5, 0x3d, 0xcb, 0x4a, 0x8b, 0xbe,
  0x3e, 0x58, 0x31, 0xbe, 0x11, 0xf4, 0x8d, 0x3e, 0x5e, 0xee, 0xef, 0xbd,
  0x82, 0x2c, 0x10, 0xbd, 0x31, 0x50, 0xad, 0x3e, 0x17, 0x4f, 0x85, 0xbe,
  0x1d, 0x78, 0xbc, 0x3e, 0x6a, 0x4b, 0xb5, 0x3e, 0x4f, 0xfe, 0xae, 0x3d,
  0x63, 0xc9, 0x59, 0xbe, 0xc6, 0x1a, 0x45, 0x3e, 0xd0, 0x85, 0x48, 0xbd,
  0x3a, 0x1f, 0x89, 0xbc, 0x9c, 0x19, 0xbc, 0x3e, 0x80, 0xab, 0x85, 0x3d,
  0xaf, 0xf6, 0xf8, 0x3e, 0x0c, 0xea, 0xb1, 0x3e, 0xe4, 0x2b, 0x1d, 0xbe,
  0xb8, 0x7f, 0x04, 0xbe, 0xaa, 0x1a, 0xa0, 0xbe, 0xf0, 0xa7, 0x8f, 0x3e,
  0xde, 0x8b, 0xd4, 0x3c, 0xcb, 0x95, 0x30, 0xbe, 0x67, 0xcb, 0x23, 0x3e,
  0x16, 0xbd, 0x3c, 0xbe, 0x70, 0x7a, 0x44, 0x3d, 0xa3, 0x19, 0x46, 0x3e,
  0x93, 0xba, 0x22, 0x3d, 0x02, 0xed, 0x73, 0x3e, 0x5f, 0xb8, 0xc1, 0xbd,
  0xe4, 0x9a, 0x3a, 0xbd, 0xc7, 0xd7, 0xee, 0x3d, 0x89, 0x36, 0x61, 0xbe,
  0x4e, 0x3f, 0x64, 0xbe, 0x5c, 0x4a, 0x82, 0xbe, 0x97, 0xdb, 0x8b, 0xbe,
  0x2e, 0x81, 0x4f, 0xbe, 0x86, 0x32, 0x3c, 0x3e, 0x6b, 0x81, 0x11, 0xbe,
  0x78, 0xfd, 0x4c, 0xbe, 0x1d, 0x5b, 0x58, 0xbe, 0x7c, 0x77, 0x89, 0x3e,
  0xaf, 0xbc, 0x7e, 0xbd, 0xb0, 0x98, 0x2d, 0x3e, 0x0c, 0x9f, 0x9d, 0x3d,
  0xe4, 0x41, 0x22, 0x3e, 0x99, 0xc1, 0x1b, 0x3d, 0xcc, 0x86, 0x59, 0xbc,
  0x08, 0xbb, 0x91, 0xbe, 0x26, 0x5a, 0x2d, 0xbe, 0x16, 0xf9, 0xae, 0x3d,
  0xe9, 0xda, 0x7a, 0xbe, 0x74, 0x86, 0x5f, 0x3e, 0xdb, 0x92, 0x65, 0x3e,
  0x92, 0xd4, 0x25, 0x3e, 0xa0, 0xad, 0x3e, 0x3e, 0xdb, 0x0a, 0x35, 0xbe,
  0xf0, 0xaf, 0xfd, 0x3d, 0xc7, 0xa0, 0xec, 0xbd, 0x4e, 0xcd, 0xa0, 0xbe,
  0x7f, 0xed, 0xf0, 0x3c, 0xf3, 0x8b, 0x13, 0xbe, 0xb1, 0x9e, 0x7c, 0xbe,
  0xde, 0x07, 0xf1, 0xbd, 0xc9, 0xbe, 0x29, 0x3e, 0x04, 0x33, 0x98, 0x3e,
  0x7f, 0xd0, 0xdc, 0xbd, 0x59, 0x22, 0x85, 0x3e, 0x02, 0x18, 0xfa, 0xbd,
  0x9e, 0x28, 0x92, 0x3e, 0x10, 0xb2, 0x32, 0xbe, 0xf0, 0x8f, 0x2c, 0x3e,
  0xba, 0xb6, 0x86, 0xbe, 0xc8, 0x0d, 0x28, 0x3e, 0x45, 0x48, 0x3e, 0x3e,
  0x4f, 0x43, 0x97, 0xbd, 0x8c, 0xdb, 0x76, 0x3e, 0x03, 0x57, 0xa6, 0xbe,
  0x81, 0x42, 0xff, 0x3d, 0x3f, 0x29, 0x5e, 0xbe, 0xc1, 0x7f, 0x30, 0xbe,
  0xcc, 0x33, 0x97, 0xbe, 0xbb, 0x82, 0x02, 0xbe, 0xce, 0x43, 0x9c, 0xbe,
  0xb7, 0xdd, 0x9e, 0x3e, 0xb6, 0xbf, 0x4f, 0xbe, 0xa2, 0x60, 0x47, 0xbe,
  0x72, 0x7a, 0x87, 0x3e, 0xa2, 0x96, 0x89, 0xbe, 0xfa, 0x1e, 0x66, 0xbe,
  0xec, 0xb6, 0x97, 0x3e, 0x31, 0x84, 0xad, 0xbd, 0xaa, 0xcb, 0x68, 0xbe,
  0xf9, 0xa9, 0x9e, 0x3e, 0x9c, 0x7d, 0x01, 0xbe, 0xcb, 0x9b, 0x9f, 0xbe,
  0xf4, 0x4d, 0x98, 0x3e, 0x5d, 0x8c, 0xb8, 0xbd, 0x35, 0xc8, 0x50, 0x3e,
  0x9a, 0xea, 0xd2, 0x3d, 0x24, 0x89, 0x81, 0x3e, 0xae, 0x9a, 0xb0, 0xbd,
  0x01, 0xe3, 0xaa, 0x3d, 0x30, 0x7b, 0x5b, 0xbe, 0xad, 0xd7, 0x6f, 0x3e,
  0x4e, 0x5f, 0xa7, 0x3e, 0xa1, 0x51, 0xd3, 0xbd, 0xa1, 0x13, 0x61, 0xbe,
  0x27, 0x71, 0x7a, 0xbe, 0x09, 0x83, 0x87, 0x3e, 0x4f, 0x69, 0x2a, 0xbe,
  0x89, 0x29, 0xbd, 0x3d, 0xfd, 0xf9, 0x7d, 0xbe, 0xbc, 0x16, 0x3c, 0x3e,
  0xdc, 0x5a, 0x8c, 0x3b, 0x61, 0x8a, 0x93, 0x3e, 0x7a, 0x79, 0x36, 0x3e,
  0x2e, 0x2d, 0x33, 0x3e, 0x5c, 0xb0, 0x7e, 0xbe, 0xb4, 0xf6, 0xc2, 0x3d,
  0x21, 0x72, 0x88, 0xbe, 0xc1, 0xb5, 0x4e, 0x3e, 0xf7, 0xae, 0xc0, 0xbd,
  0xd5, 0x00, 0x04, 0xbe, 0x8b, 0xcf, 0x3a, 0xbe, 0x15, 0x35, 0xa6, 0x3e,
  0x64, 0x51, 0xaa, 0xbe, 0x3f, 0x2e, 0x85, 0xbe, 0x2f, 0x2b, 0x8b, 0xbd,
  0x68, 0xc3, 0x85, 0xbd, 0x8b, 0x46, 0xa0, 0x3e, 0x3e, 0xbc, 0x05, 0x3d,
  0x3d, 0x95, 0x00, 0xbe, 0x41, 0xdd, 0x7d, 0xbe, 0x5f, 0xfb, 0xbe, 0x3d,
  0xf3, 0x0f, 0xfd, 0x3d, 0x55, 0x5d, 0xff, 0xbc, 0xfa, 0x62, 0xd2, 0x3e,
  0xc6, 0x38, 0xf1, 0xbc, 0x9f, 0x24, 0x05, 0x3d, 0xe4, 0x72, 0x91, 0x3e,
  0xb0, 0x73, 0x08, 0x3e, 0x27, 0x67, 0x64, 0xbe, 0x33, 0x6c, 0xb2, 0x3e,
  0xa6, 0xb6, 0x16, 0x3e, 0x28, 0x58, 0x2c, 0x3e, 0xb5, 0xd5, 0x6f, 0x3e,
  0x48, 0x6f, 0x9a, 0xbd, 0xd4, 0x6f, 0x1a, 0x3b, 0x9b, 0x57, 0x86, 0x3e,
  0xf7, 0x91, 0x8b, 0x3b, 0x73, 0xb4, 0x3b, 0xbe, 0xf0, 0x5b, 0xc3, 0x3d,
  0x5d, 0x2b, 0x1a, 0xbe, 0xc9, 0x71, 0x62, 0xbe, 0xe9, 0xcf, 0x5e, 0x3e,
  0x37, 0xaf, 0x65, 0xbe, 0x38, 0x60, 0x4f, 0x3d, 0x67, 0xf1, 0x2c, 0x3e,
  0x2c, 0x03, 0x1f, 0x3e, 0xc7, 0x2f, 0xd8, 0x3d, 0xb2, 0x5d, 0xae, 0xbd,
  0x45, 0xfe, 0xff, 0x3d, 0x63, 0x7a, 0x87, 0xbe, 0x59, 0x63, 0x3d, 0x3e,
  0xa2, 0xe3, 0x98, 0x3e, 0xfb, 0xed, 0xa9, 0x3d, 0xf2, 0xe1, 0xa9, 0xbe,
  0xac, 0x77, 0x57, 0x3e, 0xb2, 0x5a, 0x3b, 0x3e, 0xa2, 0x27, 0x8c, 0x3e,
  0x1c, 0x31, 0x8c, 0xbe, 0x12, 0x2f, 0xe4, 0xbd, 0xfc, 0x0c, 0xf0, 0xbd,
  0x5e, 0x5c, 0x9f, 0xbe, 0xea, 0x80, 0xdd, 0xbd, 0xa8, 0x27, 0x85, 0x3e,
  0x9c, 0xdb, 0x1f, 0x3e, 0x78, 0xd1, 0x12, 0xbe, 0x58, 0xe9, 0xd1, 0xbd,
  0x9c, 0x8e, 0x2a, 0x3e, 0x3e, 0x20, 0xd2, 0x3d, 0x04, 0xcc, 0x7c, 0x3c,
  0x9e, 0xaf, 0xd1, 0x3e, 0x3c, 0xc0, 0xc7, 0xbe, 0xf3, 0x94, 0xec, 0x3e,
  0xcd, 0xe5, 0x9d, 0xbe, 0x6c, 0x9f, 0x22, 0x3e, 0xac, 0x93, 0x1b, 0xbc,
  0x01, 0xc9, 0x3c, 0xbd, 0x91, 0xe7, 0x80, 0x3e, 0x2d, 0xe3, 0x6c, 0x3e,
  0x69, 0x9b, 0xf6, 0x3e, 0x74, 0x9c, 0xd6, 0x3e, 0x56, 0x81, 0x59, 0x3e,
  0x91, 0xfb, 0xf3, 0x3d, 0xe0, 0xec, 0x47, 0xbe, 0x95, 0xd6, 0xe4, 0x3e,
  0xe0, 0x85, 0x12, 0x3d, 0x23, 0xea, 0x14, 0x3e, 0x89, 0xce, 0x85, 0x3e,
  0xc4, 0x13, 0xea, 0x3d, 0x71, 0x63, 0xc0, 0x3e, 0xdb, 0xa2, 0x0e, 0x3e,
  0xb8, 0x9b, 0xce, 0x3e, 0x19, 0x1d, 0xa6, 0x3c, 0x01, 0x53, 0xbb, 0x3e,
  0xb9, 0xe8, 0x80, 0xbe, 0x3b, 0xfd, 0xa6, 0xbd, 0x76, 0x59, 0x42, 0xbe,
  0x2a, 0x01, 0xb2, 0xbe, 0x36, 0x05, 0x99, 0x3e, 0xbe, 0x48, 0x8c, 0x3e,
  0x5a, 0x56, 0x7e, 0xbe, 0x31, 0xe1, 0xbf, 0x3e, 0x7c, 0xe9, 0xfd, 0xbd,
  0xb5, 0x29, 0xc6, 0x3e, 0x48, 0x6a, 0x92, 0xbe, 0xbb, 0x07, 0xc6, 0x3e,
  0x1b, 0xa9, 0x20, 0x3e, 0xdb, 0x18, 0x8b, 0x3e, 0x1c, 0xaf, 0x5a, 0xbe,
  0xd3, 0xb1, 0x57, 0xbe, 0xf4, 0x9a, 0x4a, 0xbe, 0x88, 0x6e, 0x1c, 0xbe,
  0x23, 0x81, 0x7f, 0xbe, 0x25, 0x86, 0xba, 0xbd, 0x6e, 0xda, 0x66, 0xbe,
  0xa3, 0xf7, 0xa1, 0xbe, 0xf6, 0x96, 0x76, 0x3b, 0x79, 0x7e, 0xf9, 0xbc,
  0x29, 0xce, 0x63, 0x3d, 0xf3, 0xc2, 0x8c, 0x3e, 0x3a, 0x5e, 0xb7, 0x3e,
  0xcb, 0x99, 0x8e, 0x3d, 0xf3, 0x33, 0x2d, 0x3c, 0xdd, 0xd8, 0x55, 0xbe,
  0x0a, 0x83, 0x88, 0x3c, 0xb2, 0x0a, 0xac, 0x3e, 0xa8, 0x6e, 0xd1, 0xbd,
  0xa2, 0x7c, 0x9c, 0x3d, 0xa7, 0xf2, 0x27, 0xbe, 0x54, 0x8b, 0xc3, 0x3d,
  0x9a, 0x49, 0x45, 0xbe, 0x78, 0x63, 0x88, 0xbe, 0xbf, 0xc5, 0x80, 0xbe,
  0xe4, 0x11, 0x52, 0xbe, 0xb3, 0x78, 0x6d, 0xbd, 0xb4, 0x5e, 0xf8, 0xbd,
  0x5c, 0xe0, 0x77, 0xbe, 0x97, 0xc6, 0xf3, 0xbd, 0xd8, 0x60, 0xf4, 0x3d,
  0xf9, 0xb0, 0x10, 0x3d, 0xcc, 0x92, 0xda, 0x3d, 0xa0, 0xf8, 0x0a, 0x3e,
  0x8f, 0xd0, 0x95, 0x3e, 0x3f, 0x18, 0x9d, 0xbe, 0x58, 0x99, 0x08, 0xbc,
  0xe5, 0xcc, 0x54, 0x3e, 0x41, 0x3c, 0xd4, 0x3d, 0x7d, 0x98, 0xb2, 0xbd,
  0x66, 0x66, 0xb9, 0xbd, 0x7d, 0xa8, 0x98, 0xbd, 0x60, 0xd9, 0x86, 0xbe,
  0xd3, 0x22, 0x26, 0xbe, 0x74, 0x10, 0x93, 0xbe, 0x87, 0xb6, 0x59, 0xbe,
  0x92, 0xa0, 0x7e, 0x3e, 0xb8, 0xcd, 0xa0, 0xbe, 0x75, 0xfb, 0x8f, 0xbe,
  0x05, 0x96, 0x37, 0x3e, 0xb5, 0x9e, 0x71, 0x3e, 0xaa, 0x53, 0x6b, 0xbe,
  0xd3, 0x7a, 0xd6, 0x3d, 0xf4, 0xbd, 0x8a, 0xbe, 0xa7, 0x6b, 0x37, 0xbe,
  0xc4, 0x29, 0x6c, 0x3e, 0xf8, 0x81, 0x52, 0x3d, 0xd4, 0x52, 0x40, 0x3e,
  0x61, 0x36, 0x94, 0x3e, 0xc0, 0x89, 0x65, 0xbe, 0x77, 0xc8, 0x3b, 0xbe,
  0x23, 0x15, 0x9a, 0xbe, 0xf6, 0x78, 0x6e, 0x3c, 0x3d, 0xd1, 0x14, 0xbe,
  0xf3, 0xda, 0x95, 0xbe, 0x6b, 0x88, 0x9f, 0x3d, 0xe5, 0x0d, 0x92, 0x3e,
  0x70, 0x3a, 0x2b, 0x3d, 0xbd, 0x76, 0xb0, 0x3d, 0x90, 0xdb, 0x53, 0xbe,
  0xf3, 0x05, 0xc7, 0xbd, 0xeb, 0x45, 0x27, 0xbe, 0xaf, 0x71, 0x19, 0x3d,
  0x9b, 0x24, 0x90, 0xbe, 0x18, 0x1a, 0xf7, 0x3d, 0x95, 0x4a, 0x9d, 0xbe,
  0xf7, 0xb7, 0x7d, 0x3d, 0x12, 0x29, 0x71, 0x3e, 0x8a, 0xc1, 0x41, 0xbe,
  0x5e, 0xb8, 0x06, 0xbe, 0xbc, 0x20, 0x02, 0xbc, 0xf7, 0x2b, 0x5e, 0xbe,
  0xf1, 0xf6, 0x0e, 0x3e, 0x3b, 0x89, 0x6f, 0x3e, 0x27, 0xcd, 0xa3, 0xbe,
  0x1f, 0xd0, 0xa1, 0x3e, 0xaf, 0x20, 0x9a, 0xbe, 0xb9, 0x6d, 0xe9, 0xbc,
  0x29, 0xca, 0x22, 0xbe, 0xef, 0x34, 0x13, 0x3e, 0x75, 0x4b, 0x7a, 0x3d,
  0xbf, 0x37, 0x23, 0xbe, 0x17, 0x4d, 0x8a, 0x3e, 0xd0, 0xc6, 0xfc, 0x3d,
  0x78, 0x9f, 0x55, 0xbd, 0xf8, 0x5e, 0x9b, 0xbe, 0x7b, 0x72, 0xf5, 0x3d,
  0x06, 0x11, 0x4b, 0xbd, 0x39, 0x0e, 0x37, 0x3e, 0xfd, 0xbc, 0x9b, 0xbe,
  0x89, 0x58, 0x77, 0x3e, 0x02, 0xed, 0x25, 0xbe, 0x78, 0x76, 0x89, 0xbe,
  0x7a, 0x61, 0x5f, 0xbd, 0xc7, 0x76, 0x10, 0xbe, 0xaa, 0x8c, 0x31, 0x3e,
  0xdf, 0x9c, 0x8b, 0xbe, 0x9f, 0xc0, 0x69, 0xbe, 0xee, 0x6d, 0x94, 0x3e,
  0x83, 0xfc, 0xa2, 0xbe, 0x7b, 0x41, 0x93, 0xbe, 0xf0, 0x15, 0x85, 0xbd,
  0xce, 0xc0, 0x48, 0x3d, 0x3f, 0x71, 0x7d, 0x3e, 0x35, 0x5d, 0xd3, 0x3d,
  0x17, 0xa8, 0xab, 0xbe, 0xa6, 0x84, 0xba, 0xbd, 0xb9, 0x5f, 0xc7, 0x3d,
  0x19, 0x78, 0x93, 0x3e, 0xe3, 0x3f, 0x14, 0xbe, 0x0e, 0x2d, 0x86, 0x3e,
  0x89, 0xde, 0xcc, 0x3c, 0x58, 0x60, 0xa9, 0xbc, 0xf2, 0x65, 0x08, 0xbe,
  0x92, 0x96, 0xe7, 0x3c, 0x11, 0x86, 0x9b, 0x3e, 0x98, 0x63, 0x95, 0xbd,
  0x84, 0xe9, 0x8e, 0x3e, 0x09, 0xa5, 0x80, 0x3e, 0xe5, 0xaf, 0x56, 0xbd,
  0xc5, 0x02, 0xad, 0x3e, 0xe4, 0x74, 0x59, 0xbd, 0x85, 0x13, 0xca, 0x3e,
  0x76, 0x51, 0x2b, 0x3e, 0x01, 0x35, 0x8a, 0x3e, 0x7a, 0xac, 0xa6, 0xbe,
  0xb2, 0x6b, 0x9e, 0xbe, 0xb5, 0x90, 0x76, 0x3d, 0x0a, 0xf4, 0xff, 0xff,
  0x10, 0x00, 0x00, 0x00, 0x0a, 0x00, 0x00, 0x00, 0x14, 0x00, 0x00, 0x00,
  0x34, 0x00, 0x00, 0x00, 0x02, 0x00, 0x00, 0x00, 0x1e, 0x00, 0x00, 0x00,
  0x1e, 0x00, 0x00, 0x00, 0x1d, 0x00, 0x00, 0x00, 0x73, 0x65, 0x71, 0x75,
  0x65, 0x6e, 0x74, 0x69, 0x61, 0x6c, 0x5f, 0x31, 0x30, 0x2f, 0x64, 0x65,
  0x6e, 0x73, 0x65, 0x5f, 0x35, 0x31, 0x2f, 0x4d, 0x61, 0x74, 0x4d, 0x75,
  0x6c, 0x00, 0x00, 0x00, 0x98, 0xf3, 0xff, 0xff, 0x8a, 0xf4, 0xff, 0xff,
  0x04, 0x00, 0x00, 0x00, 0x08, 0x07, 0x00, 0x00, 0xdc, 0xa5, 0x35, 0x3d,
  0xe7, 0x12, 0x7b, 0x3d, 0x79, 0x8c, 0xf2, 0x3e, 0xdb, 0x1b, 0x2a, 0xbe,
  0xc3, 0xce, 0xdc, 0x3d, 0x38, 0xd6, 0x56, 0x3e, 0xe9, 0xae, 0xeb, 0x3d,
  0xcd, 0x9b, 0x8d, 0x3d, 0xdc, 0xb3, 0x98, 0x3e, 0xa7, 0x59, 0xc1, 0xbe,
  0x6b, 0xc2, 0xbe, 0xbe, 0x26, 0xd1, 0xb3, 0xbd, 0xa1, 0x8f, 0xae, 0xbd,
  0x54, 0x66, 0x6a, 0xbe, 0x49, 0x73, 0x0a, 0x3f, 0x49, 0x8a, 0x31, 0xbe,
  0x12, 0x45, 0x51, 0xbc, 0x15, 0x66, 0x8a, 0x3e, 0xc7, 0x17, 0x79, 0x3e,
  0xab, 0x2f, 0xd7, 0xbc, 0x61, 0x92, 0xdc, 0xbd, 0x14, 0x9d, 0x3f, 0xbe,
  0xd3, 0x84, 0x5f, 0x3e, 0xfe, 0x15, 0x33, 0x3e, 0xbb, 0x57, 0x8f, 0xbe,
  0xeb, 0xa0, 0x64, 0xbd, 0xa5, 0x52, 0x68, 0xbe, 0x7c, 0x19, 0xc5, 0xbe,
  0x61, 0x7a, 0x92, 0x3e, 0x72, 0xaf, 0xda, 0xbd, 0xa3, 0x33, 0x65, 0x3e,
  0x2f, 0x89, 0x35, 0x3e, 0xc3, 0x0b, 0xb5, 0xbc, 0xd6, 0x5d, 0x63, 0x3d,
  0xb6, 0x70, 0x16, 0xbe, 0xec, 0x6e, 0xa0, 0x3e, 0x4b, 0xfb, 0xa1, 0x3d,
  0xc1, 0x5d, 0x5e, 0xbe, 0x5e, 0xf5, 0xa4, 0x3e, 0xfc, 0x87, 0xe0, 0x3c,
  0x71, 0x7a, 0x8a, 0xbe, 0xfe, 0x2e, 0xd0, 0x3e, 0xff, 0xff, 0x40, 0x3e,
  0x6a, 0x1c, 0xa7, 0x3e, 0x73, 0x73, 0x35, 0xbe, 0x87, 0xcd, 0x42, 0xbe,
  0x29, 0x44, 0xcc, 0x3e, 0xfb, 0x92, 0x13, 0x3e, 0x49, 0x9c, 0x01, 0xbf,
  0xcf, 0xeb, 0xd4, 0x3d, 0xf6, 0x46, 0x0a, 0x3d, 0xc7, 0xd5, 0xd9, 0xbd,
  0x8e, 0xd0, 0x85, 0x3d, 0xab, 0xe8, 0xec, 0x3e, 0x84, 0xda, 0xb3, 0xbe,
  0x6b, 0xe1, 0x39, 0x3e, 0x7f, 0x6e, 0x0e, 0x3e, 0x5c, 0x08, 0x8e, 0xbe,
  0x65, 0x44, 0xba, 0x3e, 0x6a, 0x3b, 0xa3, 0x3e, 0x32, 0x18, 0xa6, 0xbe,
  0xc4, 0xb0, 0x26, 0x3e, 0x3e, 0x69, 0x0a, 0xbe, 0x1a, 0xad, 0x2a, 0xbf,
  0x54, 0x37, 0x33, 0x3e, 0x39, 0x19, 0xc6, 0x3e, 0xbb, 0xae, 0x9a, 0x3c,
  0x3a, 0xf1, 0x28, 0x3e, 0x9f, 0x46, 0x56, 0xbd, 0x3f, 0x42, 0xba, 0xbe,
  0xf7, 0xff, 0x01, 0x3e, 0x22, 0x53, 0x24, 0xbe, 0x19, 0xbc, 0x83, 0xbe,
  0x60, 0xea, 0x0e, 0x3d, 0x37, 0x94, 0x5a, 0xbe, 0x05, 0xf8, 0xda, 0xbc,
  0x9a, 0xe6, 0x9f, 0xbd, 0xd4, 0x80, 0x47, 0xbe, 0xc9, 0xd1, 0x86, 0x3e,
  0x39, 0xb9, 0xee, 0xbe, 0xd8, 0x56, 0xb2, 0x3e, 0xc7, 0xdd, 0xe3, 0xbd,
  0x91, 0x81, 0x87, 0xbe, 0xe4, 0xda, 0x85, 0xbd, 0x28, 0x92, 0xac, 0xbd,
  0x32, 0x4d, 0xb1, 0xbe, 0x85, 0x6c, 0xe8, 0x3d, 0xf2, 0xf6, 0x49, 0x3e,
  0x0d, 0x02, 0x9c, 0xbe, 0xf2, 0x2f, 0xb8, 0x3c, 0xd3, 0x24, 0xe5, 0xbe,
  0x2a, 0xb4, 0x9d, 0x3d, 0x89, 0x3f, 0x8f, 0xbe, 0x3a, 0xff, 0xdc, 0xbd,
  0xa2, 0x29, 0x8d, 0xbd, 0x42, 0x90, 0x5f, 0xbe, 0x0e, 0x0d, 0x89, 0x3e,
  0x0b, 0xac, 0xcc, 0xbd, 0x90, 0xad, 0x0a, 0x3d, 0x82, 0xf4, 0x3e, 0xbe,
  0xbc, 0x0d, 0xc0, 0xbe, 0x12, 0x02, 0x7f, 0xbc, 0x57, 0xac, 0x02, 0x3e,
  0x24, 0xd0, 0x17, 0xbd, 0xdd, 0x67, 0x04, 0xbf, 0x5f, 0x11, 0xc8, 0x3e,
  0x01, 0x39, 0xad, 0x3d, 0x90, 0xc8, 0x1e, 0xbc, 0xb3, 0xa7, 0x2d, 0xbd,
  0x42, 0x93, 0x68, 0x3e, 0x36, 0x71, 0x48, 0xbd, 0x6c, 0x07, 0xfd, 0x3e,
  0x1f, 0x17, 0x44, 0xbe, 0x8a, 0x55, 0x24, 0xbe, 0x24, 0xd9, 0x78, 0x3e,
  0xd7, 0x52, 0xcc, 0xbe, 0x9b, 0xac, 0x33, 0x3e, 0xf1, 0xc8, 0x07, 0x3f,
  0x68, 0x75, 0xdf, 0xbe, 0x31, 0x90, 0x99, 0x3e, 0x89, 0xa5, 0xc0, 0xbd,
  0x7e, 0x71, 0x1a, 0x3e, 0x74, 0x61, 0x7f, 0xbe, 0x1d, 0xe2, 0xae, 0x3d,
  0xa2, 0xba, 0x71, 0xbe, 0xf0, 0xf4, 0x8c, 0x3d, 0xb7, 0x6b, 0xe7, 0x3d,
  0xd8, 0xd4, 0x9e, 0xbd, 0x5a, 0xc8, 0x66, 0xbe, 0xe9, 0x04, 0x0e, 0x3f,
  0x3f, 0xcc, 0x81, 0xbe, 0xc5, 0x08, 0xb9, 0x3e, 0x79, 0x79, 0x02, 0x3e,
  0x45, 0x47, 0x01, 0x3e, 0xfb, 0xd5, 0xb9, 0xbb, 0xcb, 0x60, 0xa9, 0xbd,
  0xcd, 0xaa, 0x8b, 0x3e, 0xa0, 0x7e, 0x71, 0x3d, 0xa8, 0xf6, 0x43, 0x3e,
  0x3b, 0x26, 0x6e, 0x3e, 0x20, 0x79, 0xde, 0xba, 0x71, 0x80, 0x00, 0x3d,
  0xca, 0xff, 0xf5, 0x3e, 0x31, 0x76, 0x84, 0x3d, 0x86, 0x81, 0x8c, 0x3e,
  0x1b, 0xd0, 0x3f, 0x3d, 0x6c, 0x74, 0x6e, 0x3e, 0x65, 0xe9, 0x98, 0xbd,
  0x36, 0x48, 0xbc, 0x3e, 0xc7, 0x93, 0x1e, 0x3e, 0xc1, 0xf2, 0x3b, 0xbe,
  0xc6, 0xd5, 0x8a, 0x3e, 0xc3, 0xa3, 0xa2, 0xbd, 0xbc, 0x85, 0x87, 0x3e,
  0x4a, 0x29, 0xce, 0x3e, 0x2c, 0xad, 0xba, 0x3d, 0xff, 0xcc, 0xa7, 0xbe,
  0x3c, 0x2f, 0x80, 0xbc, 0x8c, 0xc4, 0x13, 0xbe, 0xd2, 0x01, 0xc1, 0xbd,
  0x58, 0xb4, 0x95, 0x3e, 0xf4, 0x30, 0x8c, 0xbe, 0x8d, 0x96, 0xb9, 0xbe,
  0x4a, 0x7e, 0x64, 0x3d, 0xec, 0x5c, 0x8d, 0xbe, 0xcd, 0xc9, 0xaa, 0x3e,
  0xa9, 0x1e, 0x8b, 0xbc, 0xb8, 0x7b, 0xa2, 0xbe, 0x05, 0xb5, 0x89, 0x3e,
  0xac, 0x46, 0x8c, 0xbd, 0xbc, 0xf3, 0x36, 0xbe, 0x1e, 0x87, 0x11, 0x3e,
  0xd9, 0xf3, 0x73, 0xbe, 0xbe, 0x3b, 0x88, 0xbb, 0xd9, 0x91, 0x97, 0xbe,
  0x45, 0x17, 0xc2, 0xbd, 0x5c, 0xf4, 0xe3, 0x3c, 0xbe, 0xec, 0xc0, 0x3e,
  0x6e, 0x47, 0xd0, 0x3e, 0x74, 0xb8, 0xa8, 0xbd, 0xea, 0xae, 0x31, 0xbc,
  0x8d, 0x0a, 0xb8, 0xbe, 0xb2, 0x52, 0x96, 0x3d, 0xf2, 0x52, 0xea, 0xbd,
  0x6c, 0x77, 0x94, 0x3c, 0x4f, 0x37, 0x85, 0x3e, 0xa2, 0x49, 0x90, 0x3e,
  0xb5, 0x2b, 0xe6, 0xbe, 0xd6, 0xf9, 0x73, 0x3e, 0xb4, 0xf1, 0x37, 0xbe,
  0xe3, 0x8e, 0xd7, 0x3d, 0xb7, 0x24, 0x85, 0x3e, 0x81, 0x29, 0xbd, 0xbd,
  0x08, 0x91, 0x47, 0xbd, 0xf8, 0x28, 0x23, 0x3e, 0x35, 0xd1, 0xfb, 0xbe,
  0x1a, 0x8a, 0x87, 0x3e, 0x0d, 0x91, 0xca, 0x3c, 0xe3, 0xf6, 0x51, 0xbc,
  0xf8, 0x7a, 0x72, 0x3e, 0xb0, 0x9a, 0x6a, 0xbe, 0x74, 0x14, 0x78, 0xbe,
  0xb5, 0x55, 0x3a, 0xbe, 0xbb, 0x62, 0x84, 0x3d, 0x2e, 0x94, 0x9e, 0xbe,
  0x6b, 0x79, 0x9a, 0x3d, 0x24, 0xde, 0xe8, 0xbe, 0x1c, 0xe6, 0x43, 0xbd,
  0x4a, 0x71, 0x86, 0xbe, 0xf1, 0x2c, 0x3f, 0xbe, 0x0b, 0xc9, 0x10, 0x3f,
  0x18, 0xff, 0xe7, 0xbd, 0x8e, 0xa7, 0x87, 0xbc, 0x73, 0xb7, 0x92, 0x3e,
  0xfe, 0x10, 0x5d, 0x3d, 0x5a, 0x80, 0x81, 0xbe, 0x11, 0xc8, 0xbf, 0xbe,
  0xd9, 0xd3, 0xa0, 0x3c, 0x8a, 0xb5, 0xca, 0xbd, 0x45, 0xb2, 0x02, 0xbf,
  0x7f, 0x2f, 0x57, 0x3e, 0xb2, 0xd6, 0xa3, 0x3e, 0x9e, 0xb4, 0x8d, 0x3d,
  0xb9, 0x9f, 0x61, 0xbe, 0xb1, 0x7a, 0x30, 0x3c, 0x7f, 0xd5, 0xd1, 0xbd,
  0x12, 0xdc, 0xf7, 0x3d, 0x48, 0x55, 0x86, 0x3e, 0x0c, 0x0c, 0x11, 0x3d,
  0x5d, 0x42, 0x26, 0x3d, 0x85, 0xa6, 0x92, 0x3e, 0x78, 0x8a, 0x9f, 0xbe,
  0x27, 0x84, 0x88, 0xbe, 0xc3, 0x7d, 0xb5, 0xbc, 0x26, 0x03, 0x08, 0x3e,
  0xb9, 0x03, 0x64, 0xbe, 0xe9, 0xb5, 0x82, 0x3e, 0x7a, 0x07, 0x87, 0x3d,
  0x2d, 0x15, 0xcd, 0xbd, 0xbf, 0x1b, 0x85, 0xbe, 0xc7, 0x24, 0x99, 0x3d,
  0x3f, 0x0c, 0x1d, 0xbd, 0x22, 0xb1, 0x85, 0x3e, 0xa0, 0x22, 0xbf, 0xbe,
  0x39, 0xa1, 0x7b, 0x3e, 0x83, 0x6b, 0x9b, 0x3e, 0x7f, 0xf3, 0xa9, 0x3e,
  0x7d, 0xbb, 0xa0, 0xbd, 0xdd, 0x12, 0x9c, 0xbe, 0xd4, 0x5e, 0x6c, 0xbe,
  0x18, 0x96, 0x2a, 0x3d, 0x85, 0xa8, 0xe5, 0x3c, 0x66, 0x2d, 0xf6, 0x3e,
  0x83, 0xd6, 0x51, 0xbe, 0xe1, 0x7e, 0xae, 0xbe, 0x59, 0xc6, 0x42, 0x3e,
  0xd9, 0x79, 0x87, 0xbe, 0x9e, 0x53, 0x11, 0x3c, 0xff, 0x68, 0x3c, 0xbd,
  0x2d, 0x0e, 0x11, 0xbe, 0x17, 0xa0, 0xa0, 0xbe, 0xdd, 0xe7, 0x99, 0xbe,
  0xca, 0x3f, 0x94, 0x3d, 0x5d, 0xe8, 0x49, 0x3e, 0x71, 0x24, 0x0b, 0xbe,
  0xbb, 0xad, 0xd3, 0xbe, 0xf9, 0xe0, 0x3f, 0x3e, 0x52, 0x45, 0x2d, 0x3e,
  0x60, 0xbc, 0xfa, 0xbe, 0x42, 0x24, 0xfc, 0x39, 0x11, 0x49, 0xec, 0xbe,
  0x68, 0x6b, 0x72, 0x3e, 0x3a, 0xdc, 0xa1, 0xbe, 0x30, 0x45, 0x7f, 0xbe,
  0xd0, 0x97, 0xb9, 0x3e, 0x38, 0x8a, 0x43, 0x3d, 0x11, 0x34, 0xc3, 0xbe,
  0x3c, 0x04, 0xc1, 0x3e, 0xa4, 0x3b, 0x7c, 0xbe, 0x15, 0xdf, 0xac, 0xbe,
  0x3f, 0xdd, 0xb9, 0x3d, 0x41, 0x43, 0x36, 0xbe, 0x0b, 0x68, 0xdb, 0xbe,
  0x86, 0xc8, 0x9d, 0x3e, 0x1e, 0x91, 0x8b, 0x3e, 0xb3, 0x70, 0xde, 0xbe,
  0x9f, 0x2b, 0x86, 0x3e, 0xca, 0x58, 0xd2, 0x3d, 0x82, 0xf3, 0x86, 0x3e,
  0xf4, 0x95, 0x6c, 0x3e, 0xfc, 0x07, 0xcc, 0xbe, 0xbf, 0xe2, 0x8f, 0xbe,
  0xfc, 0x80, 0xe0, 0xbd, 0x73, 0x01, 0xaa, 0x3e, 0xe7, 0x48, 0xb2, 0x3e,
  0x19, 0x7e, 0xd6, 0xbd, 0xca, 0xcc, 0x61, 0x3e, 0x98, 0x36, 0x89, 0xbd,
  0x33, 0x53, 0x5d, 0xbe, 0x15, 0xf2, 0x84, 0xbe, 0xf1, 0x54, 0xe2, 0xbd,
  0xf3, 0xac, 0x91, 0xbe, 0x6b, 0x67, 0x88, 0x3d, 0x61, 0x13, 0x22, 0x3d,
  0xb7, 0x61, 0xe1, 0xba, 0x41, 0xae, 0x06, 0xbe, 0x91, 0xb5, 0xc1, 0xbe,
  0xa6, 0x7f, 0xac, 0xbe, 0xf3, 0x73, 0xa6, 0xbe, 0xf7, 0xed, 0xa4, 0xbe,
  0x00, 0x6d, 0x88, 0xbe, 0x47, 0xaa, 0x4e, 0xbe, 0x65, 0xab, 0x96, 0xbe,
  0x49, 0x0e, 0x5e, 0xbe, 0x54, 0x52, 0x01, 0xbf, 0x45, 0x5a, 0x57, 0xbe,
  0x80, 0xa5, 0xd6, 0xbe, 0x06, 0xd3, 0x1f, 0xbe, 0x6e, 0x4f, 0xa0, 0x3e,
  0x70, 0x8a, 0x4a, 0xbe, 0x69, 0x9b, 0xb0, 0x3e, 0x91, 0x43, 0xbc, 0x3d,
  0x17, 0x86, 0x70, 0xbe, 0x92, 0x86, 0xce, 0x3d, 0x39, 0xf9, 0x05, 0x3e,
  0x69, 0xa0, 0xfb, 0x3e, 0x37, 0x57, 0x60, 0x3d, 0x15, 0x60, 0xcc, 0xbd,
  0x85, 0x57, 0xcc, 0x3e, 0x9b, 0x31, 0xb8, 0xbe, 0xfb, 0x53, 0x31, 0x3e,
  0x0e, 0x08, 0xe7, 0x3e, 0x87, 0x03, 0x23, 0x3d, 0xc7, 0x30, 0xb1, 0xbe,
  0x83, 0x33, 0x82, 0x3e, 0xd2, 0x55, 0x5a, 0xbe, 0xae, 0xdf, 0xb7, 0xbe,
  0x07, 0xa6, 0x79, 0xbe, 0x66, 0x2d, 0xd4, 0x3e, 0x54, 0x49, 0x86, 0x3e,
  0x74, 0x81, 0xad, 0x3e, 0x59, 0x6c, 0xa8, 0x3d, 0xc5, 0x9a, 0xbd, 0xbd,
  0xef, 0x97, 0xc1, 0x3e, 0x41, 0xbf, 0x27, 0xbe, 0xe1, 0x1b, 0x90, 0xbc,
  0x25, 0xac, 0x51, 0x3e, 0xd1, 0xa4, 0xe9, 0xbb, 0xd1, 0x89, 0x4d, 0xbd,
  0x76, 0x36, 0x4c, 0x3e, 0x96, 0x7f, 0x2e, 0xbe, 0x76, 0xc9, 0xa4, 0xbd,
  0x1d, 0x2d, 0x8a, 0x3e, 0xd6, 0xf2, 0xac, 0xbe, 0x9e, 0xaf, 0x42, 0xbe,
  0xc5, 0xdc, 0x21, 0xbe, 0x96, 0x2d, 0xb7, 0xbe, 0x86, 0x87, 0xce, 0x3e,
  0xba, 0x97, 0x39, 0x3e, 0x77, 0xbb, 0xb8, 0xbe, 0x4a, 0x3a, 0xe9, 0x3e,
  0xf2, 0xe3, 0x7b, 0x3e, 0x25, 0xf2, 0x77, 0xbe, 0x6f, 0x47, 0xab, 0x3e,
  0x0d, 0x33, 0xa8, 0x3e, 0xa6, 0xfe, 0xc2, 0xbe, 0x7f, 0xf7, 0x99, 0x3e,
  0x3f, 0xfb, 0xa8, 0x3e, 0x90, 0x8a, 0x24, 0xbe, 0xd3, 0xe1, 0x8c, 0xbe,
  0x3d, 0x4b, 0x65, 0xbe, 0x57, 0x90, 0xb6, 0xbc, 0x8e, 0x81, 0x48, 0xbd,
  0x0a, 0x18, 0x52, 0xbe, 0x53, 0x88, 0xae, 0xbd, 0x80, 0x5b, 0x21, 0x3d,
  0x26, 0x6a, 0x4a, 0xbd, 0x59, 0x67, 0x3e, 0xbe, 0x60, 0xc2, 0x9e, 0xbe,
  0x9d, 0xe6, 0x7e, 0xbe, 0xe6, 0x13, 0xde, 0x3b, 0x97, 0xdc, 0xea, 0x3d,
  0xa3, 0x25, 0x70, 0xbe, 0x77, 0xe3, 0x9e, 0xbd, 0xcc, 0xd1, 0x63, 0xbe,
  0x39, 0x61, 0xad, 0xbe, 0x3d, 0x8b, 0xe7, 0xbe, 0xdf, 0x51, 0x12, 0x3e,
  0x84, 0xde, 0x5b, 0x3e, 0x48, 0xc1, 0xeb, 0xbe, 0x99, 0x01, 0x72, 0x3e,
  0x24, 0x4f, 0xbc, 0x3c, 0x8c, 0x67, 0xfe, 0x3c, 0x40, 0x27, 0x8e, 0xbd,
  0xe7, 0x22, 0x6b, 0xbc, 0x65, 0x72, 0xcb, 0x3d, 0xb3, 0x40, 0xa2, 0x3e,
  0x0c, 0x71, 0x1c, 0x3d, 0xcc, 0x34, 0x65, 0xbe, 0xbe, 0x66, 0x57, 0xbe,
  0x34, 0x14, 0xd7, 0xbc, 0x30, 0x1b, 0x59, 0xbe, 0x60, 0x2a, 0x3b, 0xbd,
  0x8b, 0xe6, 0xb2, 0x3d, 0xa0, 0x39, 0xaf, 0xbc, 0x57, 0x1f, 0x44, 0x3e,
  0x14, 0x75, 0x1b, 0xbe, 0xd1, 0x3a, 0x33, 0x3e, 0x0c, 0x84, 0xca, 0x3e,
  0xa7, 0xdb, 0x21, 0x3e, 0x1b, 0x02, 0x51, 0x3d, 0x75, 0x9c, 0x42, 0xbc,
  0x09, 0x92, 0xbc, 0xbd, 0x8c, 0xe0, 0xd3, 0x3c, 0x1b, 0xb9, 0xe6, 0xbc,
  0xc9, 0xbb, 0x70, 0x3e, 0x9c, 0x8a, 0x3c, 0xbe, 0xd0, 0x0d, 0x2a, 0xbf,
  0xd3, 0x97, 0x36, 0xbe, 0x47, 0xee, 0xa6, 0xbd, 0x11, 0x56, 0x14, 0xbf,
  0xc1, 0x6f, 0x70, 0xbe, 0x7b, 0xf3, 0x78, 0xbe, 0x98, 0x5c, 0x0b, 0x3e,
  0x7e, 0x5c, 0xdd, 0xbc, 0x35, 0x7a, 0x7d, 0x3e, 0x7c, 0xa6, 0x00, 0x3c,
  0xc7, 0xd3, 0x6a, 0xbe, 0xe1, 0x68, 0xb0, 0xbb, 0x6e, 0xd8, 0x5d, 0x3c,
  0x29, 0x59, 0x03, 0x3e, 0xfd, 0x8c, 0x91, 0x3e, 0x22, 0x46, 0x0a, 0x3f,
  0x8d, 0x05, 0x8b, 0x3d, 0x57, 0x38, 0x4d, 0xbe, 0x8b, 0x2f, 0x02, 0x3f,
  0x0e, 0x58, 0x44, 0x3e, 0x69, 0x60, 0x0e, 0xbd, 0x70, 0xe0, 0x10, 0x3e,
  0x7c, 0xcc, 0x7d, 0x3e, 0x19, 0xbd, 0xca, 0xbd, 0xaf, 0xfa, 0xe1, 0x3e,
  0x5a, 0x31, 0x92, 0xbe, 0x32, 0x19, 0x84, 0x3e, 0x80, 0x8a, 0xd0, 0xbd,
  0x43, 0xca, 0xe3, 0x3d, 0xc0, 0x37, 0x59, 0xbe, 0x88, 0x5b, 0x5d, 0x3e,
  0x2c, 0xa9, 0xf3, 0x3c, 0x77, 0x3b, 0x61, 0x3e, 0x66, 0xfb, 0xff, 0xff,
  0x10, 0x00, 0x00, 0x00, 0x09, 0x00, 0x00, 0x00, 0x14, 0x00, 0x00, 0x00,
  0x34, 0x00, 0x00, 0x00, 0x02, 0x00, 0x00, 0x00, 0x1e, 0x00, 0x00, 0x00,
  0x0f, 0x00, 0x00, 0x00, 0x1d, 0x00, 0x00, 0x00, 0x73, 0x65, 0x71, 0x75,
  0x65, 0x6e, 0x74, 0x69, 0x61, 0x6c, 0x5f, 0x31, 0x30, 0x2f, 0x64, 0x65,
  0x6e, 0x73, 0x65, 0x5f, 0x35, 0x30, 0x2f, 0x4d, 0x61, 0x74, 0x4d, 0x75,
  0x6c, 0x00, 0x00, 0x00, 0xf4, 0xfa, 0xff, 0xff, 0xe6, 0xfb, 0xff, 0xff,
  0x04, 0x00, 0x00, 0x00, 0x3c, 0x00, 0x00, 0x00, 0x47, 0xe1, 0x59, 0x3f,
  0xc0, 0xca, 0xd1, 0xbe, 0x16, 0xd9, 0x1e, 0x3d, 0x81, 0x95, 0x57, 0x3f,
  0xce, 0xf7, 0xc1, 0xbe, 0xe7, 0xfb, 0x39, 0x3d, 0x90, 0xc2, 0x58, 0x3f,
  0x6e, 0x12, 0xc1, 0xbe, 0x84, 0xc0, 0x1a, 0x3d, 0x78, 0xbe, 0x5b, 0x3f,
  0x26, 0x31, 0xc2, 0xbe, 0x38, 0x89, 0x11, 0x3d, 0x10, 0x58, 0x5d, 0x3f,
  0x84, 0xeb, 0xc7, 0xbe, 0x5e, 0xe5, 0xf0, 0x3c, 0xf6, 0xfb, 0xff, 0xff,
  0x10, 0x00, 0x00, 0x00, 0x08, 0x00, 0x00, 0x00, 0x14, 0x00, 0x00, 0x00,
  0x1c, 0x00, 0x00, 0x00, 0x02, 0x00, 0x00, 0x00, 0x01, 0x00, 0x00, 0x00,
