#ifndef KNN_MODEL_H
#define KNN_MODEL_H


unsigned int test_len = 24756;
unsigned char test[] = {
 0x1c, 0x00, 0x00, 0x00, 0x54, 0x46, 0x4c, 0x33, 0x14, 0x00, 0x20, 0x00,
  0x04, 0x00, 0x08, 0x00, 0x0c, 0x00, 0x10, 0x00, 0x14, 0x00, 0x00, 0x00,
  0x18, 0x00, 0x1c, 0x00, 0x14, 0x00, 0x00, 0x00, 0x03, 0x00, 0x00, 0x00,
  0x18, 0x00, 0x00, 0x00, 0x54, 0x00, 0x00, 0x00, 0xe8, 0x01, 0x00, 0x00,
  0x5c, 0x00, 0x00, 0x00, 0x98, 0x01, 0x00, 0x00, 0x14, 0x01, 0x00, 0x00,
  0x0f, 0x00, 0x00, 0x00, 0x78, 0x31, 0x00, 0x00, 0xc8, 0x30, 0x00, 0x00,
  0x0c, 0x30, 0x00, 0x00, 0x88, 0x2f, 0x00, 0x00, 0x68, 0x2d, 0x00, 0x00,
  0x90, 0x2c, 0x00, 0x00, 0xa8, 0x08, 0x00, 0x00, 0x98, 0x07, 0x00, 0x00,
  0x20, 0x07, 0x00, 0x00, 0xa4, 0x06, 0x00, 0x00, 0x28, 0x06, 0x00, 0x00,
  0x90, 0x05, 0x00, 0x00, 0x04, 0x05, 0x00, 0x00, 0x58, 0x04, 0x00, 0x00,
  0xc4, 0x02, 0x00, 0x00, 0x03, 0x00, 0x00, 0x00, 0x8c, 0x2e, 0x00, 0x00,
  0xc0, 0x2b, 0x00, 0x00, 0xa0, 0x01, 0x00, 0x00, 0x2f, 0x00, 0x00, 0x00,
  0x20, 0x60, 0x00, 0x00, 0x1c, 0x60, 0x00, 0x00, 0x8c, 0x54, 0x00, 0x00,
  0x74, 0x33, 0x00, 0x00, 0x10, 0x33, 0x00, 0x00, 0xcc, 0x32, 0x00, 0x00,
  0x7c, 0x32, 0x00, 0x00, 0x2c, 0x32, 0x00, 0x00, 0xd8, 0x31, 0x00, 0x00,
  0xfc, 0x5f, 0x00, 0x00, 0xf8, 0x5f, 0x00, 0x00, 0xf4, 0x5f, 0x00, 0x00,
  0xf0, 0x5f, 0x00, 0x00, 0xec, 0x5f, 0x00, 0x00, 0xe8, 0x5f, 0x00, 0x00,
  0xe4, 0x5f, 0x00, 0x00, 0xe0, 0x5f, 0x00, 0x00, 0xdc, 0x5f, 0x00, 0x00,
  0xd8, 0x5f, 0x00, 0x00, 0xd4, 0x5f, 0x00, 0x00, 0xd0, 0x5f, 0x00, 0x00,
  0x1c, 0x2d, 0x00, 0x00, 0xc8, 0x5f, 0x00, 0x00, 0xc4, 0x5f, 0x00, 0x00,
  0xc0, 0x5f, 0x00, 0x00, 0xbc, 0x5f, 0x00, 0x00, 0xb8, 0x5f, 0x00, 0x00,
  0xb4, 0x5f, 0x00, 0x00, 0xb0, 0x5f, 0x00, 0x00, 0x40, 0x2a, 0x00, 0x00,
  0xec, 0x29, 0x00, 0x00, 0xdc, 0x08, 0x00, 0x00, 0x70, 0x08, 0x00, 0x00,
  0x28, 0x08, 0x00, 0x00, 0x98, 0x5f, 0x00, 0x00, 0x94, 0x5f, 0x00, 0x00,
  0x90, 0x5f, 0x00, 0x00, 0x8c, 0x5f, 0x00, 0x00, 0x88, 0x5f, 0x00, 0x00,
  0x84, 0x5f, 0x00, 0x00, 0x80, 0x5f, 0x00, 0x00, 0x7c, 0x5f, 0x00, 0x00,
  0x78, 0x5f, 0x00, 0x00, 0x74, 0x5f, 0x00, 0x00, 0x70, 0x5f, 0x00, 0x00,
  0x6c, 0x5f, 0x00, 0x00, 0xb0, 0x00, 0x00, 0x00, 0x01, 0x00, 0x00, 0x00,
  0x10, 0x00, 0x00, 0x00, 0x00, 0x00, 0x0a, 0x00, 0x10, 0x00, 0x0c, 0x00,
  0x08, 0x00, 0x04, 0x00, 0x0a, 0x00, 0x00, 0x00, 0x0c, 0x00, 0x00, 0x00,
  0x1c, 0x00, 0x00, 0x00, 0x20, 0x00, 0x00, 0x00, 0x0f, 0x00, 0x00, 0x00,
  0x73, 0x65, 0x72, 0x76, 0x69, 0x6e, 0x67, 0x5f, 0x64, 0x65, 0x66, 0x61,
  0x75, 0x6c, 0x74, 0x00, 0x01, 0x00, 0x00, 0x00, 0x14, 0x00, 0x00, 0x00,
  0x01, 0x00, 0x00, 0x00, 0x28, 0x00, 0x00, 0x00, 0x08, 0x00, 0x0c, 0x00,
  0x08, 0x00, 0x04, 0x00, 0x08, 0x00, 0x00, 0x00, 0x0f, 0x00, 0x00, 0x00,
  0x04, 0x00, 0x00, 0x00, 0x08, 0x00, 0x00, 0x00, 0x6f, 0x75, 0x74, 0x70,
  0x75, 0x74, 0x5f, 0x30, 0x00, 0x00, 0x00, 0x00, 0x9a, 0xac, 0xff, 0xff,
  0x04, 0x00, 0x00, 0x00, 0x06, 0x00, 0x00, 0x00, 0x74, 0x65, 0x6e, 0x73,
  0x6f, 0x72, 0x00, 0x00, 0x01, 0x00, 0x00, 0x00, 0x04, 0x00, 0x00, 0x00,
  0x3c, 0xd0, 0xff, 0xff, 0x08, 0x00, 0x00, 0x00, 0x2e, 0x00, 0x00, 0x00,
  0x13, 0x00, 0x00, 0x00, 0x6d, 0x69, 0x6e, 0x5f, 0x72, 0x75, 0x6e, 0x74,
  0x69, 0x6d, 0x65, 0x5f, 0x76, 0x65, 0x72, 0x73, 0x69, 0x6f, 0x6e, 0x00,
  0xda, 0xac, 0xff, 0xff, 0x04, 0x00, 0x00, 0x00, 0x10, 0x00, 0x00, 0x00,
  0x31, 0x2e, 0x31, 0x35, 0x2e, 0x30, 0x00, 0x00, 0x00, 0x00, 0x00, 0x00,
  0x00, 0x00, 0x00, 0x00, 0x0f, 0x00, 0x00, 0x00, 0x4d, 0x4c, 0x49, 0x52,
  0x20, 0x43, 0x6f, 0x6e, 0x76, 0x65, 0x72, 0x74, 0x65, 0x64, 0x2e, 0x00,
  0x2a, 0xd3, 0xff, 0xff, 0x14, 0x00, 0x00, 0x00, 0x68, 0x00, 0x00, 0x00,
  0x78, 0x00, 0x00, 0x00, 0x88, 0x00, 0x00, 0x00, 0xb8, 0x00, 0x00, 0x00,
  0x15, 0x00, 0x00, 0x00, 0xd4, 0x29, 0x00, 0x00, 0xa4, 0x29, 0x00, 0x00,
  0x74, 0x29, 0x00, 0x00, 0x44, 0x29, 0x00, 0x00, 0x00, 0x29, 0x00, 0x00,
  0xac, 0x28, 0x00, 0x00, 0x68, 0x28, 0x00, 0x00, 0x30, 0x07, 0x00, 0x00,
  0xe8, 0x06, 0x00, 0x00, 0xa0, 0x06, 0x00, 0x00, 0x24, 0x06, 0x00, 0x00,
  0x94, 0x05, 0x00, 0x00, 0x1c, 0x05, 0x00, 0x00, 0xa0, 0x04, 0x00, 0x00,
  0x24, 0x04, 0x00, 0x00, 0x8c, 0x03, 0x00, 0x00, 0x00, 0x03, 0x00, 0x00,
  0x68, 0x02, 0x00, 0x00, 0xc0, 0x01, 0x00, 0x00, 0x38, 0x01, 0x00, 0x00,
  0xb8, 0x00, 0x00, 0x00, 0x04, 0x00, 0x00, 0x00, 0x00, 0x00, 0x00, 0x00,
  0x01, 0x00, 0x00, 0x00, 0x02, 0x00, 0x00, 0x00, 0x03, 0x00, 0x00, 0x00,
  0x04, 0x00, 0x00, 0x00, 0x09, 0x00, 0x00, 0x00, 0x0a, 0x00, 0x00, 0x00,
  0x14, 0x00, 0x00, 0x00, 0x03, 0x00, 0x00, 0x00, 0x0c, 0x00, 0x00, 0x00,
  0x00, 0x06, 0x00, 0x00, 0x98, 0x05, 0x00, 0x00, 0xf8, 0x04, 0x00, 0x00,
  0x80, 0x04, 0x00, 0x00, 0x04, 0x04, 0x00, 0x00, 0x7c, 0x03, 0x00, 0x00,
  0x00, 0x03, 0x00, 0x00, 0x70, 0x02, 0x00, 0x00, 0xc0, 0x01, 0x00, 0x00,
  0x40, 0x01, 0x00, 0x00, 0xb4, 0x00, 0x00, 0x00, 0x18, 0x00, 0x00, 0x00,
  0x0e, 0x00, 0x00, 0x00, 0x6d, 0x61, 0x70, 0x2f, 0x77, 0x68, 0x69, 0x6c,
  0x65, 0x5f, 0x62, 0x6f, 0x64, 0x79, 0x00, 0x00, 0x36, 0xd2, 0xff, 0xff,
  0x00, 0x00, 0x00, 0x0a, 0x0e, 0x00, 0x00, 0x00, 0x18, 0x00, 0x00, 0x00,
  0x0c, 0x00, 0x00, 0x00, 0x04, 0x00, 0x00, 0x00, 0x74, 0xa2, 0xff, 0xff,
  0x01, 0x00, 0x00, 0x00, 0x14, 0x00, 0x00, 0x00, 0x03, 0x00, 0x00, 0x00,
  0x11, 0x00, 0x00, 0x00, 0x0f, 0x00, 0x00, 0x00, 0x13, 0x00, 0x00, 0x00,
  0x90, 0xd1, 0xff, 0xff, 0x02, 0x00, 0x00, 0x00, 0x00, 0x00, 0x00, 0x02,
  0x01, 0x00, 0x00, 0x00, 0xee, 0xa2, 0xff, 0xff, 0x10, 0x00, 0x00, 0x00,
  0x2d, 0x00, 0x00, 0x00, 0x10, 0x00, 0x00, 0x00, 0x40, 0x00, 0x00, 0x00,
  0x01, 0x00, 0x00, 0x00, 0xbc, 0x02, 0x00, 0x00, 0x2f, 0x00, 0x00, 0x00,
  0x6d, 0x61, 0x70, 0x2f, 0x77, 0x68, 0x69, 0x6c, 0x65, 0x2f, 0x54, 0x65,
  0x6e, 0x73, 0x6f, 0x72, 0x41, 0x72, 0x72, 0x61, 0x79, 0x56, 0x32, 0x57,
  0x72, 0x69, 0x74, 0x65, 0x2f, 0x54, 0x65, 0x6e, 0x73, 0x6f, 0x72, 0x4c,
  0x69, 0x73, 0x74, 0x53, 0x65, 0x74, 0x49, 0x74, 0x65, 0x6d, 0x35, 0x00,
  0xf0, 0xa2, 0xff, 0xff, 0x16, 0xd6, 0xff, 0xff, 0x0d, 0x00, 0x00, 0x00,
  0x10, 0x00, 0x00, 0x00, 0x04, 0x00, 0x00, 0x00, 0x01, 0x00, 0x00, 0x00,
  0x13, 0x00, 0x00, 0x00, 0x03, 0x00, 0x00, 0x00, 0x02, 0x00, 0x00, 0x00,
  0x12, 0x00, 0x00, 0x00, 0x07, 0x00, 0x00, 0x00, 0xec, 0xfe, 0xff, 0xff,
  0x14, 0x00, 0x00, 0x00, 0x2c, 0x00, 0x00, 0x00, 0x14, 0x00, 0x00, 0x00,
  0x4c, 0x00, 0x00, 0x00, 0x40, 0x00, 0x00, 0x00, 0x01, 0x00, 0x00, 0x00,
  0x01, 0x00, 0x00, 0x00, 0x2f, 0x00, 0x00, 0x00, 0x6d, 0x61, 0x70, 0x2f,
  0x77, 0x68, 0x69, 0x6c, 0x65, 0x2f, 0x54, 0x65, 0x6e, 0x73, 0x6f, 0x72,
  0x41, 0x72, 0x72, 0x61, 0x79, 0x56, 0x32, 0x57, 0x72, 0x69, 0x74, 0x65,
  0x2f, 0x54, 0x65, 0x6e, 0x73, 0x6f, 0x72, 0x4c, 0x69, 0x73, 0x74, 0x53,
  0x65, 0x74, 0x49, 0x74, 0x65, 0x6d, 0x34, 0x00, 0x01, 0x00, 0x00, 0x00,
  0xff, 0xff, 0xff, 0xff, 0x78, 0xa3, 0xff, 0xff, 0x9e, 0xd6, 0xff, 0xff,
  0x0c, 0x00, 0x00, 0x00, 0x10, 0x00, 0x00, 0x00, 0x04, 0x00, 0x00, 0x00,
  0x01, 0x00, 0x00, 0x00, 0x12, 0x00, 0x00, 0x00, 0x02, 0x00, 0x00, 0x00,
  0x0a, 0x00, 0x00, 0x00, 0x04, 0x00, 0x00, 0x00, 0x8a, 0xd0, 0xff, 0xff,
  0x00, 0x00, 0x00, 0x02, 0x10, 0x00, 0x00, 0x00, 0x2b, 0x00, 0x00, 0x00,
  0x10, 0x00, 0x00, 0x00, 0x40, 0x00, 0x00, 0x00, 0x01, 0x00, 0x00, 0x00,
  0x01, 0x00, 0x00, 0x00, 0x2f, 0x00, 0x00, 0x00, 0x6d, 0x61, 0x70, 0x2f,
  0x77, 0x68, 0x69, 0x6c, 0x65, 0x2f, 0x54, 0x65, 0x6e, 0x73, 0x6f, 0x72,
  0x41, 0x72, 0x72, 0x61, 0x79, 0x56, 0x32, 0x57, 0x72, 0x69, 0x74, 0x65,
  0x2f, 0x54, 0x65, 0x6e, 0x73, 0x6f, 0x72, 0x4c, 0x69, 0x73, 0x74, 0x53,
  0x65, 0x74, 0x49, 0x74, 0x65, 0x6d, 0x33, 0x00, 0xf4, 0xa3, 0xff, 0xff,
  0x1a, 0xd7, 0xff, 0xff, 0x0d, 0x00, 0x00, 0x00, 0x10, 0x00, 0x00, 0x00,
  0x04, 0x00, 0x00, 0x00, 0x01, 0x00, 0x00, 0x00, 0x11, 0x00, 0x00, 0x00,
  0x03, 0x00, 0x00, 0x00, 0x02, 0x00, 0x00, 0x00, 0x05, 0x00, 0x00, 0x00,
  0x10, 0x00, 0x00, 0x00, 0x20, 0xd3, 0xff, 0xff, 0x41, 0x00, 0x00, 0x00,
  0x00, 0x00, 0x00, 0x41, 0x01, 0x00, 0x00, 0x00, 0x14, 0x00, 0x18, 0x00,
  0x04, 0x00, 0x00, 0x00, 0x08, 0x00, 0x0c, 0x00, 0x10, 0x00, 0x00, 0x00,
  0x00, 0x00, 0x14, 0x00, 0x14, 0x00, 0x00, 0x00, 0x14, 0x00, 0x00, 0x00,
  0x2a, 0x00, 0x00, 0x00, 0x14, 0x00, 0x00, 0x00, 0x4c, 0x00, 0x00, 0x00,
  0x40, 0x00, 0x00, 0x00, 0x01, 0x00, 0x00, 0x00, 0x01, 0x00, 0x00, 0x00,
  0x2f, 0x00, 0x00, 0x00, 0x6d, 0x61, 0x70, 0x2f, 0x77, 0x68, 0x69, 0x6c,
  0x65, 0x2f, 0x54, 0x65, 0x6e, 0x73, 0x6f, 0x72, 0x41, 0x72, 0x72, 0x61,
  0x79, 0x56, 0x32, 0x57, 0x72, 0x69, 0x74, 0x65, 0x2f, 0x54, 0x65, 0x6e,
  0x73, 0x6f, 0x72, 0x4c, 0x69, 0x73, 0x74, 0x53, 0x65, 0x74, 0x49, 0x74,
  0x65, 0x6d, 0x32, 0x00, 0x01, 0x00, 0x00, 0x00, 0xff, 0xff, 0xff, 0xff,
  0xa0, 0xa4, 0xff, 0xff, 0xc6, 0xd7, 0xff, 0xff, 0x0c, 0x00, 0x00, 0x00,
  0x10, 0x00, 0x00, 0x00, 0x04, 0x00, 0x00, 0x00, 0x01, 0x00, 0x00, 0x00,
  0x10, 0x00, 0x00, 0x00, 0x02, 0x00, 0x00, 0x00, 0x01, 0x00, 0x00, 0x00,
  0x04, 0x00, 0x00, 0x00, 0xc8, 0xd3, 0xff, 0xff, 0x16, 0x00, 0x00, 0x00,
  0x00, 0x00, 0x00, 0x16, 0x01, 0x00, 0x00, 0x00, 0xc2, 0xd1, 0xff, 0xff,
  0x00, 0x00, 0x00, 0x02, 0x10, 0x00, 0x00, 0x00, 0x29, 0x00, 0x00, 0x00,
  0x10, 0x00, 0x00, 0x00, 0x40, 0x00, 0x00, 0x00, 0x01, 0x00, 0x00, 0x00,
  0x01, 0x00, 0x00, 0x00, 0x2f, 0x00, 0x00, 0x00, 0x6d, 0x61, 0x70, 0x2f,
  0x77, 0x68, 0x69, 0x6c, 0x65, 0x2f, 0x54, 0x65, 0x6e, 0x73, 0x6f, 0x72,
  0x41, 0x72, 0x72, 0x61, 0x79, 0x56, 0x32, 0x57, 0x72, 0x69, 0x74, 0x65,
  0x2f, 0x54, 0x65, 0x6e, 0x73, 0x6f, 0x72, 0x4c, 0x69, 0x73, 0x74, 0x53,
  0x65, 0x74, 0x49, 0x74, 0x65, 0x6d, 0x31, 0x00, 0x2c, 0xa5, 0xff, 0xff,
  0x52, 0xd8, 0xff, 0xff, 0x0b, 0x00, 0x00, 0x00, 0x10, 0x00, 0x00, 0x00,
  0x04, 0x00, 0x00, 0x00, 0x01, 0x00, 0x00, 0x00, 0x0f, 0x00, 0x00, 0x00,
  0x01, 0x00, 0x00, 0x00, 0x0e, 0x00, 0x00, 0x00, 0x50, 0xd4, 0xff, 0xff,
  0x4b, 0x00, 0x00, 0x00, 0x00, 0x00, 0x00, 0x4b, 0x01, 0x00, 0x00, 0x00,
  0xae, 0xa5, 0xff, 0xff, 0x10, 0x00, 0x00, 0x00, 0x28, 0x00, 0x00, 0x00,
  0x10, 0x00, 0x00, 0x00, 0x24, 0x00, 0x00, 0x00, 0x01, 0x00, 0x00, 0x00,
  0x01, 0x00, 0x00, 0x00, 0x13, 0x00, 0x00, 0x00, 0x6d, 0x61, 0x70, 0x2f,
  0x77, 0x68, 0x69, 0x6c, 0x65, 0x2f, 0x6e, 0x6f, 0x72, 0x6d, 0x2f, 0x53,
  0x71, 0x72, 0x74, 0x00, 0xec, 0xa5, 0xff, 0xff, 0x00, 0x00, 0x0e, 0x00,
  0x1a, 0x00, 0x08, 0x00, 0x0c, 0x00, 0x10, 0x00, 0x07, 0x00, 0x14, 0x00,
  0x0e, 0x00, 0x00, 0x00, 0x00, 0x00, 0x00, 0x1b, 0x0a, 0x00, 0x00, 0x00,
  0x24, 0x00, 0x00, 0x00, 0x18, 0x00, 0x00, 0x00, 0x0c, 0x00, 0x00, 0x00,
  0x00, 0x00, 0x06, 0x00, 0x08, 0x00, 0x07, 0x00, 0x06, 0x00, 0x00, 0x00,
  0x00, 0x00, 0x00, 0x01, 0x01, 0x00, 0x00, 0x00, 0x0e, 0x00, 0x00, 0x00,
  0x02, 0x00, 0x00, 0x00, 0x0d, 0x00, 0x00, 0x00, 0x05, 0x00, 0x00, 0x00,
  0xe4, 0xd4, 0xff, 0xff, 0x4a, 0x00, 0x00, 0x00, 0x00, 0x00, 0x00, 0x4a,
  0x01, 0x00, 0x00, 0x00, 0x42, 0xa6, 0xff, 0xff, 0x10, 0x00, 0x00, 0x00,
  0x27, 0x00, 0x00, 0x00, 0x10, 0x00, 0x00, 0x00, 0x24, 0x00, 0x00, 0x00,
  0x01, 0x00, 0x00, 0x00, 0x01, 0x00, 0x00, 0x00, 0x12, 0x00, 0x00, 0x00,
  0x6d, 0x61, 0x70, 0x2f, 0x77, 0x68, 0x69, 0x6c, 0x65, 0x2f, 0x6e, 0x6f,
  0x72, 0x6d, 0x2f, 0x53, 0x75, 0x6d, 0x00, 0x00, 0x28, 0xa6, 0xff, 0xff,
  0x06, 0xd6, 0xff, 0xff, 0x00, 0x00, 0x00, 0x15, 0x09, 0x00, 0x00, 0x00,
  0x18, 0x00, 0x00, 0x00, 0x0c, 0x00, 0x00, 0x00, 0x04, 0x00, 0x00, 0x00,
  0x44, 0xa6, 0xff, 0xff, 0x01, 0x00, 0x00, 0x00, 0x0d, 0x00, 0x00, 0x00,
  0x02, 0x00, 0x00, 0x00, 0x0c, 0x00, 0x00, 0x00, 0x0c, 0x00, 0x00, 0x00,
  0x5c, 0xd5, 0xff, 0xff, 0x12, 0x00, 0x00, 0x00, 0x00, 0x00, 0x00, 0x12,
  0x01, 0x00, 0x00, 0x00, 0xba, 0xa6, 0xff, 0xff, 0x10, 0x00, 0x00, 0x00,
  0x26, 0x00, 0x00, 0x00, 0x10, 0x00, 0x00, 0x00, 0x24, 0x00, 0x00, 0x00,
  0x01, 0x00, 0x00, 0x00, 0x03, 0x00, 0x00, 0x00, 0x12, 0x00, 0x00, 0x00,
  0x6d, 0x61, 0x70, 0x2f, 0x77, 0x68, 0x69, 0x6c, 0x65, 0x2f, 0x6e, 0x6f,
  0x72, 0x6d, 0x2f, 0x6d, 0x75, 0x6c, 0x00, 0x00, 0xa0, 0xa6, 0xff, 0xff,
  0x7e, 0xd6, 0xff, 0xff, 0x00, 0x00, 0x00, 0x1c, 0x08, 0x00, 0x00, 0x00,
  0x18, 0x00, 0x00, 0x00, 0x0c, 0x00, 0x00, 0x00, 0x04, 0x00, 0x00, 0x00,
  0xbc, 0xa6, 0xff, 0xff, 0x01, 0x00, 0x00, 0x00, 0x0c, 0x00, 0x00, 0x00,
  0x02, 0x00, 0x00, 0x00, 0x03, 0x00, 0x00, 0x00, 0x0b, 0x00, 0x00, 0x00,
  0xd4, 0xd5, 0xff, 0xff, 0x29, 0x00, 0x00, 0x00, 0x00, 0x00, 0x00, 0x29,
  0x01, 0x00, 0x00, 0x00, 0x32, 0xa7, 0xff, 0xff, 0x10, 0x00, 0x00, 0x00,
  0x25, 0x00, 0x00, 0x00, 0x10, 0x00, 0x00, 0x00, 0x20, 0x00, 0x00, 0x00,
  0x01, 0x00, 0x00, 0x00, 0x03, 0x00, 0x00, 0x00, 0x0d, 0x00, 0x00, 0x00,
  0x6d, 0x61, 0x70, 0x2f, 0x77, 0x68, 0x69, 0x6c, 0x65, 0x2f, 0x73, 0x75,
  0x62, 0x00, 0x00, 0x00, 0x14, 0xa7, 0xff, 0xff, 0xf2, 0xd6, 0xff, 0xff,
  0x00, 0x00, 0x00, 0x17, 0x07, 0x00, 0x00, 0x00, 0x18, 0x00, 0x00, 0x00,
  0x0c, 0x00, 0x00, 0x00, 0x04, 0x00, 0x00, 0x00, 0x30, 0xa7, 0xff, 0xff,
  0x01, 0x00, 0x00, 0x00, 0x0b, 0x00, 0x00, 0x00, 0x02, 0x00, 0x00, 0x00,
  0x06, 0x00, 0x00, 0x00, 0x01, 0x00, 0x00, 0x00, 0x48, 0xd6, 0xff, 0xff,
  0x24, 0x00, 0x00, 0x00, 0x00, 0x00, 0x00, 0x24, 0x01, 0x00, 0x00, 0x00,
  0xa6, 0xa7, 0xff, 0xff, 0x10, 0x00, 0x00, 0x00, 0x24, 0x00, 0x00, 0x00,
  0x10, 0x00, 0x00, 0x00, 0x48, 0x00, 0x00, 0x00, 0x01, 0x00, 0x00, 0x00,
  0x03, 0x00, 0x00, 0x00, 0x37, 0x00, 0x00, 0x00, 0x6d, 0x61, 0x70, 0x2f,
  0x77, 0x68, 0x69, 0x6c, 0x65, 0x2f, 0x54, 0x65, 0x6e, 0x73, 0x6f, 0x72,
  0x41, 0x72, 0x72, 0x61, 0x79, 0x56, 0x32, 0x52, 0x65, 0x61, 0x64, 0x2f,
  0x54, 0x65, 0x6e, 0x73, 0x6f, 0x72, 0x4c, 0x69, 0x73, 0x74, 0x47, 0x65,
  0x74, 0x49, 0x74, 0x65, 0x6d, 0x3b, 0x6d, 0x61, 0x70, 0x2f, 0x43, 0x6f,
  0x6e, 0x73, 0x74, 0x00, 0xb0, 0xa7, 0xff, 0xff, 0x8e, 0xd7, 0xff, 0xff,
  0x00, 0x00, 0x00, 0x0b, 0x06, 0x00, 0x00, 0x00, 0x18, 0x00, 0x00, 0x00,
  0x0c, 0x00, 0x00, 0x00, 0x04, 0x00, 0x00, 0x00, 0xcc, 0xa7, 0xff, 0xff,
  0x01, 0x00, 0x00, 0x00, 0x0a, 0x00, 0x00, 0x00, 0x02, 0x00, 0x00, 0x00,
  0x01, 0x00, 0x00, 0x00, 0x08, 0x00, 0x00, 0x00, 0xce, 0xd4, 0xff, 0xff,
  0x00, 0x00, 0x00, 0x02, 0x10, 0x00, 0x00, 0x00, 0x23, 0x00, 0x00, 0x00,
  0x0c, 0x00, 0x00, 0x00, 0x1c, 0x00, 0x00, 0x00, 0x00, 0x00, 0x00, 0x00,
  0x0d, 0x00, 0x00, 0x00, 0x6d, 0x61, 0x70, 0x2f, 0x77, 0x68, 0x69, 0x6c,
  0x65, 0x2f, 0x61, 0x64, 0x64, 0x00, 0x00, 0x00, 0x14, 0xa8, 0xff, 0xff,
  0xf2, 0xd7, 0xff, 0xff, 0x00, 0x00, 0x00, 0x0b, 0x06, 0x00, 0x00, 0x00,
  0x18, 0x00, 0x00, 0x00, 0x0c, 0x00, 0x00, 0x00, 0x04, 0x00, 0x00, 0x00,
  0x30, 0xa8, 0xff, 0xff, 0x01, 0x00, 0x00, 0x00, 0x09, 0x00, 0x00, 0x00,
  0x02, 0x00, 0x00, 0x00, 0x00, 0x00, 0x00, 0x00, 0x08, 0x00, 0x00, 0x00,
  0x00, 0x00, 0x0a, 0x00, 0x08, 0x00, 0x00, 0x00, 0x00, 0x00, 0x04, 0x00,
  0x0a, 0x00, 0x00, 0x00, 0x01, 0x00, 0x00, 0x00, 0x46, 0xd5, 0xff, 0xff,
  0x00, 0x00, 0x00, 0x02, 0x10, 0x00, 0x00, 0x00, 0x22, 0x00, 0x00, 0x00,
  0x0c, 0x00, 0x00, 0x00, 0x1c, 0x00, 0x00, 0x00, 0x00, 0x00, 0x00, 0x00,
  0x0f, 0x00, 0x00, 0x00, 0x6d, 0x61, 0x70, 0x2f, 0x77, 0x68, 0x69, 0x6c,
  0x65, 0x2f, 0x61, 0x64, 0x64, 0x5f, 0x31, 0x00, 0x8c, 0xa8, 0xff, 0xff,
  0x1e, 0xb4, 0xff, 0xff, 0x04, 0x00, 0x00, 0x00, 0x04, 0x00, 0x00, 0x00,
  0x01, 0x00, 0x00, 0x00, 0x8a, 0xd5, 0xff, 0xff, 0x00, 0x00, 0x00, 0x02,
  0x10, 0x00, 0x00, 0x00, 0x21, 0x00, 0x00, 0x00, 0x0c, 0x00, 0x00, 0x00,
  0x1c, 0x00, 0x00, 0x00, 0x00, 0x00, 0x00, 0x00, 0x0f, 0x00, 0x00, 0x00,
  0x6d, 0x61, 0x70, 0x2f, 0x77, 0x68, 0x69, 0x6c, 0x65, 0x2f, 0x61, 0x64,
  0x64, 0x2f, 0x79, 0x00, 0xd0, 0xa8, 0xff, 0xff, 0x62, 0xb4, 0xff, 0xff,
  0x04, 0x00, 0x00, 0x00, 0x04, 0x00, 0x00, 0x00, 0xff, 0xff, 0xff, 0xff,
  0xce, 0xd5, 0xff, 0xff, 0x00, 0x00, 0x00, 0x02, 0x10, 0x00, 0x00, 0x00,
  0x20, 0x00, 0x00, 0x00, 0x10, 0x00, 0x00, 0x00, 0x40, 0x00, 0x00, 0x00,
  0x01, 0x00, 0x00, 0x00, 0x01, 0x00, 0x00, 0x00, 0x2e, 0x00, 0x00, 0x00,
  0x6d, 0x61, 0x70, 0x2f, 0x77, 0x68, 0x69, 0x6c, 0x65, 0x2f, 0x54, 0x65,
  0x6e, 0x73, 0x6f, 0x72, 0x41, 0x72, 0x72, 0x61, 0x79, 0x56, 0x32, 0x57,
  0x72, 0x69, 0x74, 0x65, 0x2f, 0x54, 0x65, 0x6e, 0x73, 0x6f, 0x72, 0x4c,
  0x69, 0x73, 0x74, 0x53, 0x65, 0x74, 0x49, 0x74, 0x65, 0x6d, 0x00, 0x00,
  0x38, 0xa9, 0xff, 0xff, 0xca, 0xb4, 0xff, 0xff, 0x04, 0x00, 0x00, 0x00,
  0xd0, 0x20, 0x00, 0x00, 0x59, 0xfa, 0x82, 0xc0, 0x25, 0x14, 0xdb, 0x40,
  0xbb, 0xcb, 0xc2, 0x3e, 0xe2, 0x52, 0xdd, 0xbe, 0x46, 0x3a, 0xdd, 0x40,
  0x87, 0x6e, 0x16, 0x41, 0x18, 0x18, 0xf5, 0x3f, 0xc7, 0xeb, 0x94, 0xbf,
  0x04, 0x5c, 0x55, 0x40, 0x24, 0xfd, 0x9b, 0xbf, 0x60, 0x04, 0xb9, 0x40,
  0xdf, 0x44, 0x15, 0x41, 0x43, 0xb9, 0xd9, 0xbd, 0x1b, 0x1a, 0x0b, 0x41,
  0x04, 0x0f, 0x13, 0x41, 0xbe, 0xb0, 0xe4, 0x3f, 0x6c, 0x9a, 0x2c, 0x3e,
  0x4f, 0xdf, 0x39, 0x40, 0x1f, 0x41, 0x1d, 0xbc, 0x1b, 0x5b, 0x12, 0x41,
  0xae, 0x91, 0x0e, 0xc1, 0x30, 0x00, 0x67, 0x3f, 0x76, 0xdb, 0x73, 0x40,
  0x7d, 0x04, 0xa5, 0x40, 0xfd, 0x6d, 0x90, 0x3f, 0x54, 0x81, 0x11, 0x41,
  0x1f, 0x10, 0x1d, 0x41, 0x7c, 0x69, 0x93, 0x3f, 0x90, 0xd7, 0x75, 0x40,
  0xfc, 0x2e, 0x78, 0x3f, 0xe0, 0xda, 0x04, 0x40, 0x73, 0x44, 0x6b, 0x40,
  0x8d, 0x85, 0xf6, 0x3f, 0x60, 0x0d, 0x8f, 0xc0, 0xd3, 0x54, 0x06, 0x41,
  0x5f, 0x60, 0x08, 0x41, 0x14, 0x21, 0xbf, 0x3f, 0x99, 0x35, 0x0a, 0x41,
  0x1f, 0x6f, 0xea, 0xc0, 0xf2, 0x9e, 0x4e, 0x3f, 0x4a, 0x8d, 0x62, 0x40,
  0x26, 0x52, 0xc7, 0x3f, 0x2b, 0x5f, 0xd1, 0x3f, 0xdd, 0x29, 0xd8, 0x40,
  0xd0, 0xe2, 0x08, 0xc1, 0x3c, 0x51, 0x4d, 0xc0, 0xcd, 0xf5, 0xab, 0x40,
  0x33, 0x66, 0xa2, 0x3e, 0x75, 0x48, 0x1c, 0xbe, 0x5f, 0x91, 0x2c, 0xbf,
  0x78, 0x62, 0x05, 0x40, 0xde, 0x75, 0x9d, 0x3f, 0xe3, 0xb2, 0x0f, 0x41,
  0xb8, 0x1b, 0x10, 0xc1, 0xe9, 0xa5, 0x14, 0xbf, 0x3e, 0x58, 0x15, 0xc0,
  0x73, 0x3b, 0x6c, 0x40, 0x30, 0x02, 0x0c, 0x40, 0x6c, 0x99, 0x08, 0x40,
  0x09, 0x31, 0xdc, 0x3f, 0xf6, 0xd1, 0x9b, 0x3f, 0x7e, 0xde, 0x11, 0x41,
  0x8c, 0xb9, 0x0d, 0xc1, 0xd1, 0xf0, 0xf3, 0xbf, 0x99, 0xc2, 0xb5, 0x40,
  0x3a, 0xb6, 0x6f, 0x3e, 0x49, 0xbb, 0xc4, 0x3f, 0xfe, 0xae, 0x0d, 0x41,
  0xe6, 0xcc, 0xef, 0xc0, 0x2d, 0xd1, 0xa4, 0x3f, 0xef, 0xc6, 0x61, 0x40,
  0x47, 0xbb, 0xdf, 0x3f, 0x29, 0x2c, 0x22, 0xc0, 0x0b, 0x55, 0x02, 0x41,
  0x05, 0x1c, 0x06, 0x41, 0x0d, 0xb8, 0x38, 0xc0, 0xed, 0xa8, 0xe4, 0x40,
  0x47, 0x4f, 0x01, 0x41, 0x02, 0xcd, 0x38, 0xc0, 0x41, 0xfe, 0xc2, 0x40,
  0x9c, 0x96, 0x04, 0xc0, 0x71, 0xd3, 0x90, 0x3f, 0x6a, 0xfe, 0x6a, 0x40,
  0xff, 0x37, 0x74, 0x3e, 0xcd, 0x97, 0x1d, 0xc0, 0x3f, 0x33, 0xc6, 0x40,
  0x46, 0x39, 0x2a, 0xbe, 0xed, 0x11, 0x82, 0x3c, 0xd1, 0x96, 0xc8, 0x40,
  0x40, 0x31, 0x31, 0xbf, 0x54, 0x04, 0x10, 0xc0, 0x67, 0x0e, 0xef, 0x40,
  0xb3, 0x0a, 0x13, 0x41, 0x8b, 0x55, 0x16, 0xbf, 0x2d, 0xb6, 0x04, 0x41,
  0xbf, 0xd2, 0xf9, 0xc0, 0x45, 0x51, 0x41, 0xc0, 0xde, 0x65, 0xc3, 0x40,
  0xb7, 0xbb, 0xb9, 0x3f, 0x42, 0x9b, 0x20, 0x40, 0x91, 0x18, 0xe9, 0x40,
  0xe1, 0x67, 0xf3, 0xc0, 0x5f, 0x9b, 0xeb, 0x3f, 0x81, 0xcf, 0x07, 0x41,
  0xb3, 0x2b, 0x07, 0xc1, 0x00, 0x4a, 0xf7, 0x3e, 0xfe, 0xa4, 0xe2, 0x40,
  0x9f, 0xe1, 0x03, 0xc1, 0xb6, 0xa0, 0xab, 0xbf, 0xa5, 0x91, 0x00, 0x41,
  0xff, 0x3f, 0x1c, 0x41, 0xbf, 0x90, 0xd5, 0x3f, 0xb8, 0xc2, 0xf3, 0x40,
  0xf4, 0xa0, 0xe0, 0xc0, 0xa5, 0x17, 0x63, 0xc0, 0x04, 0xc9, 0x7b, 0x40,
  0x0f, 0x06, 0x66, 0x3f, 0x8f, 0xc1, 0x6e, 0x3f, 0xca, 0x20, 0xaa, 0x40,
  0x6a, 0x38, 0xa0, 0x3e, 0xa3, 0x1a, 0x9b, 0x3f, 0x60, 0x89, 0x10, 0x41,
  0x26, 0xdd, 0xfe, 0xc0, 0xa1, 0x14, 0xa9, 0x3f, 0x7e, 0x83, 0xce, 0xbf,
  0xdc, 0xcc, 0xc2, 0x3f, 0x5b, 0x84, 0x91, 0x3f, 0xda, 0x50, 0x16, 0x41,
  0x21, 0xc0, 0xe7, 0xc0, 0x08, 0x5e, 0xfd, 0x3f, 0xc9, 0x23, 0x1b, 0x41,
  0x94, 0x9f, 0xd3, 0xc0, 0xc9, 0x29, 0x8f, 0xbf, 0xa6, 0xfa, 0xe8, 0x3d,
  0x37, 0xa9, 0x39, 0x40, 0x9a, 0x3f, 0x47, 0xc0, 0x5d, 0xfa, 0x8f, 0x40,
  0x95, 0x39, 0x9d, 0x3e, 0x27, 0x39, 0xc2, 0x3e, 0xe4, 0x77, 0x47, 0xc0,
  0xe0, 0x7c, 0x45, 0x40, 0xc0, 0x15, 0x70, 0x3f, 0xea, 0x5b, 0x82, 0xbf,
  0x4a, 0xce, 0x49, 0x40, 0x30, 0x9a, 0x89, 0x3e, 0x53, 0xe6, 0x09, 0x40,
  0xdd, 0x9e, 0x0b, 0x40, 0x2e, 0x78, 0x1d, 0xc0, 0xce, 0xf3, 0xb0, 0x40,
  0x5c, 0xa2, 0x0b, 0x3f, 0x66, 0xc3, 0xc6, 0xbf, 0xcb, 0x60, 0x13, 0x41,
  0x53, 0x7f, 0x14, 0x41, 0xa6, 0x91, 0xae, 0xbf, 0x04, 0xba, 0xb0, 0x40,
  0xbd, 0x64, 0xa6, 0x3f, 0x3a, 0x9d, 0xfc, 0x3f, 0x57, 0x61, 0x6c, 0xbf,
  0x00, 0x4d, 0x52, 0x40, 0xcd, 0x7b, 0xf2, 0x3f, 0xc0, 0xe8, 0x04, 0xc0,
  0x94, 0x86, 0x95, 0x3f, 0xa4, 0x0c, 0x56, 0x40, 0x69, 0xe9, 0x0a, 0x41,
  0x13, 0xda, 0xdc, 0xc0, 0xba, 0x37, 0xe5, 0xbf, 0x0b, 0xb3, 0x07, 0x41,
  0xce, 0x8f, 0x27, 0x41, 0x06, 0x43, 0xb1, 0x3e, 0xc1, 0xdb, 0x11, 0xc0,
  0x81, 0xa2, 0xed, 0x3f, 0x83, 0xdd, 0xf0, 0x3f, 0x28, 0x52, 0xaa, 0x40,
  0x00, 0x5e, 0xf8, 0x3f, 0x61, 0x80, 0xfb, 0x3e, 0x28, 0x39, 0x34, 0xc0,
  0xcd, 0x9c, 0x89, 0x40, 0x1c, 0xdb, 0xe0, 0xbf, 0x94, 0x22, 0xa4, 0x40,
  0x2c, 0x42, 0xbd, 0xbf, 0xa7, 0xea, 0x85, 0x3f, 0xde, 0x20, 0xfb, 0x40,
  0xf3, 0xc8, 0xfd, 0xc0, 0x17, 0x88, 0x68, 0x3f, 0x3a, 0x5f, 0xaf, 0x40,
  0xfb, 0x4d, 0x0a, 0x3f, 0xea, 0xf6, 0x7b, 0x3f, 0x37, 0x8e, 0xac, 0x40,
  0x7c, 0x97, 0x08, 0x40, 0x8f, 0x7f, 0xa0, 0x3e, 0x5b, 0xa4, 0x03, 0xc0,
  0xcb, 0xf9, 0x8c, 0x40, 0xf2, 0x21, 0x41, 0xc0, 0x7a, 0xbf, 0xba, 0x40,
  0x74, 0xa6, 0x4c, 0xbe, 0xd3, 0x27, 0x84, 0xc0, 0x80, 0x45, 0xc7, 0x40,
  0xa9, 0xd4, 0xa5, 0xbf, 0x2b, 0x81, 0xee, 0x3f, 0xad, 0x44, 0x10, 0x41,
  0x2b, 0xac, 0x03, 0xc1, 0x2e, 0x95, 0x02, 0x40, 0xe2, 0xa4, 0xf8, 0x40,
  0xfe, 0x4c, 0x05, 0xc1, 0x9b, 0x69, 0x12, 0xbf, 0x04, 0x9e, 0x0b, 0x41,
  0xe8, 0x9d, 0x37, 0x41, 0x01, 0x80, 0x9d, 0xbd, 0x13, 0x84, 0x6a, 0x40,
  0x14, 0x10, 0xf4, 0x3f, 0x27, 0xa0, 0xa3, 0x3f, 0x07, 0x80, 0xe9, 0x40,
  0xaa, 0x05, 0x03, 0xc1, 0xba, 0xdb, 0x43, 0xbe, 0x05, 0xaa, 0x0d, 0x41,
  0xf7, 0x12, 0x23, 0x41, 0x7f, 0x45, 0x9b, 0x3d, 0xd2, 0x34, 0xe7, 0x40,
  0x7a, 0x19, 0x29, 0xc1, 0xa7, 0x3b, 0xff, 0xbf, 0x07, 0xd3, 0xea, 0x40,
  0xba, 0x87, 0x1e, 0x41, 0x22, 0xbb, 0x58, 0xbe, 0x0d, 0xa9, 0x97, 0xbf,
  0xdd, 0xd2, 0x15, 0x40, 0x22, 0xc2, 0xc8, 0x3e, 0x43, 0x8a, 0x0c, 0x41,
  0xf6, 0x84, 0x1b, 0xc1, 0x44, 0xef, 0x2e, 0xc0, 0x01, 0xd9, 0x90, 0x40,
  0x3b, 0x08, 0x73, 0xbf, 0x5e, 0x23, 0xbe, 0x3f, 0xcb, 0xa3, 0x10, 0x41,
  0xde, 0x6d, 0x20, 0xc1, 0x53, 0x07, 0x9e, 0x3e, 0xbf, 0xff, 0xc7, 0x40,
  0x6d, 0x2e, 0x12, 0x41, 0x72, 0x6d, 0x04, 0x40, 0x21, 0x0a, 0xba, 0xbf,
  0x04, 0x7f, 0x2b, 0x40, 0x7a, 0xb4, 0x88, 0x3f, 0x0b, 0x16, 0x8b, 0x40,
  0x67, 0xd9, 0x5a, 0x40, 0x78, 0xe9, 0xe5, 0x3f, 0x07, 0xc3, 0xa6, 0x40,
  0xc3, 0x16, 0xbc, 0x3f, 0x30, 0xd8, 0x1b, 0x3f, 0x64, 0xea, 0x0b, 0x41,
  0xbe, 0x9a, 0x14, 0xc1, 0x87, 0xb2, 0x9a, 0x3f, 0xe9, 0x90, 0xfb, 0x40,
  0xe3, 0x77, 0x12, 0x41, 0xf6, 0x44, 0x87, 0x3e, 0x91, 0xdb, 0x18, 0x41,
  0xdc, 0x74, 0x09, 0xc1, 0x1d, 0xf8, 0x6d, 0xbf, 0x22, 0xbf, 0x92, 0x40,
  0x08, 0xf3, 0x6d, 0xbe, 0x09, 0x60, 0xe6, 0xbf, 0x72, 0x8a, 0xe1, 0x40,
  0x81, 0x8a, 0xb5, 0x3f, 0x8a, 0xf1, 0x44, 0x3e, 0x2a, 0xf4, 0x6d, 0xc0,
  0x98, 0xab, 0x40, 0x40, 0xa0, 0x0c, 0x88, 0x3f, 0x07, 0x30, 0x24, 0x41,
  0x7c, 0x05, 0xe6, 0xc0, 0xd4, 0xb6, 0xa9, 0x3e, 0x65, 0xd4, 0xe6, 0xbf,
  0x91, 0x9d, 0x46, 0x3f, 0x47, 0x2b, 0xa3, 0xbf, 0x59, 0x8e, 0x27, 0x40,
  0x5a, 0x76, 0x36, 0x40, 0x96, 0x9c, 0x97, 0xbf, 0x24, 0x80, 0x4b, 0xc0,
  0x26, 0x7b, 0x66, 0x40, 0x61, 0x39, 0x16, 0x40, 0xd8, 0x7d, 0x92, 0x40,
  0x83, 0x61, 0x1d, 0x40, 0x33, 0x56, 0x86, 0x3f, 0x12, 0xb6, 0xa1, 0x40,
  0xcb, 0x0c, 0x09, 0x40, 0x10, 0x39, 0x40, 0xbd, 0x30, 0x34, 0x11, 0x41,
  0x1e, 0xbe, 0x2e, 0x41, 0xb6, 0x85, 0x0b, 0x40, 0xa2, 0x6f, 0xef, 0xbf,
  0x09, 0x58, 0xe1, 0x3f, 0x94, 0x9a, 0x81, 0x3f, 0x08, 0x52, 0x5f, 0x40,
  0x42, 0x2b, 0x30, 0x40, 0xfc, 0x00, 0x19, 0x40, 0x59, 0x36, 0x12, 0xc0,
  0x5f, 0xb2, 0x7f, 0x40, 0xf6, 0x9d, 0xee, 0xbf, 0x5f, 0x96, 0xb8, 0x40,
  0xa3, 0x93, 0x53, 0x3e, 0x8e, 0x72, 0xc1, 0x3f, 0xcf, 0x4c, 0xa4, 0x40,
  0x55, 0x54, 0x46, 0x40, 0xa8, 0x00, 0x35, 0x40, 0x28, 0x5f, 0x07, 0xbd,
  0xa8, 0x72, 0x3b, 0x40, 0xdc, 0x13, 0xa7, 0xbf, 0x66, 0xf5, 0x60, 0x40,
  0xc0, 0x85, 0x4f, 0x40, 0x11, 0xba, 0x9f, 0x3f, 0xf2, 0x89, 0x9d, 0x40,
  0xf3, 0x91, 0xff, 0x3f, 0x8d, 0x40, 0x68, 0x3f, 0x99, 0xfb, 0x8d, 0xbf,
  0x3c, 0x59, 0x18, 0x40, 0x9a, 0xfd, 0x25, 0xbf, 0xba, 0x31, 0xe3, 0x40,
  0xcd, 0x53, 0x95, 0x3f, 0x41, 0xf7, 0xbf, 0x3f, 0x5e, 0xae, 0x66, 0x40,
  0xa9, 0x03, 0x3e, 0x40, 0x87, 0x9f, 0xca, 0x3e, 0xc4, 0x10, 0x06, 0x41,
  0x67, 0xfc, 0x1b, 0x41, 0xaa, 0x5e, 0xbb, 0x3f, 0x78, 0x8c, 0x3f, 0xbf,
  0xc9, 0x0a, 0x3a, 0x40, 0x72, 0x8c, 0x95, 0x3f, 0x55, 0xba, 0xe2, 0xbf,
  0x09, 0x85, 0x57, 0x40, 0x2b, 0x3b, 0xb0, 0x3f, 0xb5, 0x85, 0xe2, 0x40,
  0xa9, 0xe1, 0x13, 0xc1, 0xb4, 0x1f, 0x1f, 0x3e, 0xa7, 0x51, 0xdb, 0xbe,
  0x76, 0xc0, 0xcf, 0x3f, 0xb7, 0x50, 0xad, 0x3f, 0x58, 0x18, 0x14, 0x41,
  0x50, 0xc3, 0x06, 0xc1, 0xe9, 0xc6, 0xbf, 0x3f, 0x94, 0x08, 0xb0, 0x40,
  0xb3, 0x1d, 0xd6, 0x3f, 0x80, 0x4a, 0xa7, 0x3f, 0x7f, 0x00, 0xf7, 0x40,
  0x3a, 0x69, 0x13, 0xc1, 0x01, 0x34, 0x33, 0x3f, 0x4d, 0xab, 0x97, 0xbf,
  0xef, 0xe8, 0x2a, 0x40, 0xa9, 0x38, 0x04, 0x3f, 0x83, 0xbe, 0x4d, 0x40,
  0x48, 0x85, 0x42, 0x40, 0x4a, 0xf1, 0x93, 0xbf, 0x51, 0x41, 0xb5, 0x40,
  0x71, 0x96, 0x2a, 0x41, 0x8e, 0x58, 0x72, 0x3f, 0xad, 0xdd, 0x21, 0x41,
  0xea, 0x84, 0x0e, 0xc1, 0xf2, 0x54, 0x06, 0x40, 0x24, 0x25, 0xce, 0xbf,
  0x6e, 0x86, 0xea, 0x3f, 0xb0, 0x19, 0x04, 0x40, 0xfa, 0x6f, 0xeb, 0x40,
  0x08, 0x51, 0x0b, 0xc1, 0xcf, 0x34, 0x14, 0x40, 0x9e, 0x53, 0x22, 0x40,
  0x14, 0xb3, 0x1e, 0x40, 0xf8, 0xa2, 0xb1, 0xbf, 0x85, 0xb1, 0xc5, 0x40,
  0x49, 0x9b, 0x80, 0x3f, 0xcf, 0xaf, 0x28, 0x40, 0x43, 0x5b, 0x55, 0x40,
  0x1e, 0x3f, 0x56, 0x40, 0x5b, 0xf2, 0x08, 0x40, 0xa0, 0xb5, 0x3f, 0xc0,
  0x29, 0xd4, 0x70, 0x40, 0xed, 0x5e, 0x06, 0x40, 0x52, 0x05, 0x02, 0x41,
  0x05, 0xdf, 0x03, 0xc1, 0x76, 0x28, 0xef, 0xbf, 0x88, 0xbc, 0xff, 0x40,
  0xc4, 0xca, 0x0a, 0x41, 0xe3, 0x69, 0xfc, 0x3f, 0xa0, 0xb7, 0x17, 0x40,
  0x6e, 0x71, 0x13, 0x40, 0x45, 0xc7, 0x30, 0x3d, 0x4d, 0x5a, 0x78, 0xbf,
  0x25, 0xf4, 0xe2, 0x3f, 0x72, 0xcd, 0x0d, 0xc0, 0x1a, 0xd1, 0xd5, 0x40,
  0x01, 0x02, 0x86, 0x3e, 0x00, 0xbc, 0x18, 0x40, 0xe8, 0x79, 0x7b, 0x40,
  0x5a, 0x26, 0x15, 0x40, 0xdd, 0x44, 0x5b, 0x3f, 0x2c, 0x65, 0xf8, 0x40,
  0xac, 0x17, 0x19, 0xc1, 0xf6, 0xff, 0x3d, 0xc0, 0x9a, 0x4a, 0xe2, 0x40,
  0xdd, 0xa4, 0x9e, 0x3e, 0xa8, 0x49, 0x1d, 0xc0, 0xc3, 0x1d, 0x0c, 0x41,
  0xbe, 0x12, 0x17, 0x41, 0x92, 0x74, 0xc3, 0xbf, 0xd4, 0xe8, 0xdd, 0x40,
  0x40, 0xff, 0x35, 0x41, 0x0e, 0x07, 0x99, 0xbf, 0x86, 0x77, 0x1c, 0x41,
  0xd8, 0x44, 0x0e, 0x41, 0x50, 0xe8, 0xf2, 0xbf, 0xf3, 0x3c, 0xe0, 0x40,
  0x1a, 0xeb, 0x4b, 0x40, 0x14, 0xb0, 0x8b, 0xbf, 0x1d, 0x38, 0xe6, 0xbf,
  0x31, 0x05, 0x44, 0x40, 0x98, 0xf9, 0x20, 0xbf, 0x1b, 0xca, 0xbe, 0x40,
  0x69, 0x0c, 0x17, 0x41, 0x0e, 0x64, 0x6a, 0x3f, 0xba, 0xee, 0x29, 0x41,
  0xb1, 0x25, 0x05, 0xc1, 0x09, 0x8f, 0x88, 0x3e, 0x9e, 0x9e, 0x3c, 0xc0,
  0xb2, 0x99, 0xb0, 0x40, 0x9d, 0x8c, 0x46, 0xc0, 0x4d, 0xe2, 0xaf, 0x40,
  0x4c, 0x51, 0x9d, 0x3f, 0x5a, 0x86, 0x49, 0xbf, 0x16, 0x71, 0x0a, 0x41,
  0xb0, 0x28, 0x1d, 0x41, 0x88, 0x2d, 0x34, 0xc0, 0x28, 0x66, 0xa2, 0x40,
  0xd5, 0x26, 0x65, 0xbf, 0xf6, 0xcb, 0x98, 0x3f, 0xf8, 0x96, 0xb4, 0xbf,
  0xcd, 0xef, 0x4b, 0x40, 0xfa, 0x02, 0xa2, 0x3f, 0x8c, 0xb4, 0x13, 0x41,
  0xbf, 0xef, 0x18, 0xc1, 0xd4, 0x0f, 0x03, 0x40, 0x45, 0x34, 0x13, 0x41,
  0xc3, 0x5a, 0x0a, 0xc1, 0xc3, 0x0e, 0xfd, 0x3e, 0x28, 0x8d, 0x05, 0x41,
  0x06, 0x21, 0xf6, 0xc0, 0xde, 0x60, 0xb7, 0x3f, 0x80, 0x6c, 0xe1, 0x40,
  0xf1, 0xec, 0x1c, 0xc1, 0x50, 0x03, 0xb8, 0x3f, 0x6e, 0x8c, 0x29, 0x40,
  0x77, 0x7a, 0x2b, 0x3f, 0x43, 0xc5, 0x87, 0xbe, 0x9d, 0xeb, 0xf8, 0x40,
  0xdb, 0xb9, 0x06, 0xc1, 0x1c, 0x90, 0xd6, 0x3f, 0xd9, 0xf1, 0x01, 0x41,
  0x3e, 0x7d, 0x20, 0xc1, 0xd2, 0x8f, 0x95, 0xc0, 0xb3, 0x1e, 0xa5, 0x40,
  0x97, 0x86, 0x27, 0xbf, 0x8f, 0x79, 0x0e, 0xbf, 0xb0, 0x46, 0x03, 0x41,
  0xfa, 0x93, 0x14, 0x41, 0x28, 0x09, 0x2e, 0x40, 0x95, 0xd7, 0x7e, 0x40,
  0x32, 0xa1, 0x38, 0x40, 0xa6, 0x82, 0x03, 0x40, 0x50, 0x3e, 0x72, 0x40,
  0xf3, 0x09, 0xe3, 0x3f, 0x6a, 0xd7, 0x22, 0xbf, 0x74, 0x35, 0xf1, 0x40,
  0x95, 0xa9, 0x1e, 0xc1, 0x37, 0xd3, 0xb9, 0x3f, 0xab, 0x84, 0x5f, 0xbf,
  0xe1, 0x38, 0xdf, 0x3f, 0xd1, 0xcb, 0x58, 0xc0, 0x51, 0xec, 0xd2, 0x40,
  0x2f, 0x46, 0xec, 0x3e, 0xf0, 0x91, 0x9c, 0x3f, 0xa9, 0x25, 0x92, 0xbf,
  0x5c, 0xc3, 0x50, 0x40, 0x79, 0xc9, 0x82, 0x3f, 0xf3, 0x1f, 0xfc, 0x40,
  0x90, 0xce, 0x28, 0xc1, 0x6a, 0x01, 0xfe, 0xbf, 0x14, 0xdb, 0x01, 0x41,
  0x6b, 0x8d, 0x18, 0x41, 0x91, 0x2d, 0xaf, 0x3f, 0x19, 0x74, 0x91, 0x40,
  0x64, 0x30, 0x0a, 0x40, 0x04, 0x56, 0xac, 0xc0, 0xc6, 0xfe, 0x7f, 0x40,
  0x59, 0x94, 0xfa, 0x3f, 0xa5, 0x4b, 0x01, 0xc0, 0x4a, 0xc4, 0x05, 0x41,
  0xf0, 0x45, 0x23, 0x41, 0xd0, 0xfc, 0x67, 0x3f, 0x4a, 0x00, 0xe5, 0x40,
  0x28, 0x22, 0x1d, 0x41, 0xde, 0x11, 0xf4, 0xbf, 0xff, 0x48, 0xd3, 0x40,
  0x17, 0xde, 0x55, 0xbe, 0x22, 0x6c, 0xdc, 0x3f, 0x29, 0xcb, 0xe9, 0xbf,
  0xfd, 0xb0, 0xf8, 0x3f, 0x9e, 0x71, 0x2b, 0x3f, 0x26, 0x08, 0xb5, 0xbf,
  0x86, 0x5d, 0x52, 0x40, 0xc9, 0x34, 0xd8, 0xbf, 0x53, 0xfe, 0xbc, 0x40,
  0x3a, 0xa6, 0xa1, 0x3f, 0x4a, 0x33, 0xc4, 0xbf, 0xe8, 0xa8, 0x0f, 0x41,
  0x29, 0x43, 0x20, 0x41, 0x9b, 0x38, 0x20, 0x3f, 0x85, 0xcc, 0x19, 0x41,
  0x21, 0xe4, 0xd6, 0xc0, 0x11, 0x30, 0x46, 0xc0, 0x84, 0xa3, 0x93, 0x40,
  0x0a, 0xa2, 0x8d, 0x3f, 0x6e, 0x0d, 0x0c, 0xc0, 0x4d, 0xf4, 0xec, 0x40,
  0x74, 0x95, 0x1f, 0x41, 0x0b, 0x92, 0xba, 0x3d, 0xc3, 0x86, 0xfa, 0x3e,
  0x21, 0x68, 0x27, 0x40, 0x55, 0x1e, 0x45, 0x40, 0x7e, 0xc5, 0x10, 0x41,
  0x55, 0x05, 0x0d, 0xc1, 0x14, 0xe7, 0xcf, 0xbf, 0xbe, 0xd8, 0xd3, 0x40,
  0xe8, 0x2a, 0x1d, 0x41, 0x33, 0x23, 0xe4, 0xbf, 0x1d, 0x90, 0x05, 0x41,
  0x89, 0x10, 0x1e, 0x41, 0x52, 0x3a, 0x28, 0x40, 0x86, 0x81, 0x00, 0x41,
  0x0e, 0x6c, 0x1e, 0xc1, 0x9a, 0x1f, 0x3d, 0x40, 0x86, 0x8c, 0x05, 0x41,
  0xa7, 0x3e, 0xe9, 0xc0, 0xd3, 0xf5, 0x35, 0xbf, 0x4a, 0x22, 0x05, 0x41,
  0x0f, 0x31, 0x16, 0x41, 0xfb, 0xc8, 0xf7, 0xbf, 0x6c, 0x5e, 0x0b, 0x41,
  0xf4, 0x7d, 0x0a, 0x41, 0x63, 0x38, 0x79, 0xbd, 0xbf, 0xe7, 0x1f, 0x40,
  0x7d, 0xfc, 0x73, 0x3f, 0xc4, 0x0c, 0xde, 0xbf, 0x7b, 0x21, 0xb5, 0x40,
  0x77, 0x8b, 0x94, 0x3e, 0x76, 0x3a, 0x20, 0xc0, 0x69, 0x8b, 0xbc, 0x40,
  0xe4, 0x98, 0x24, 0x40, 0xa8, 0x00, 0x63, 0x3f, 0xaa, 0x5a, 0xed, 0xbf,
  0xf1, 0x96, 0x69, 0x40, 0x17, 0x6f, 0x31, 0x3e, 0x55, 0x6f, 0xaa, 0x40,
  0x8b, 0x0a, 0x64, 0x40, 0x37, 0x27, 0xc6, 0xbe, 0x11, 0x58, 0xf6, 0x40,
  0xb5, 0x87, 0xf1, 0x40, 0xa5, 0x66, 0x97, 0x3f, 0xd2, 0x85, 0x59, 0x40,
  0xcd, 0x6c, 0x2d, 0x40, 0x32, 0x50, 0x09, 0xbe, 0xab, 0x48, 0x01, 0x41,
  0xb5, 0x51, 0xff, 0x40, 0xd8, 0x45, 0x43, 0xbf, 0xaf, 0x8d, 0xb3, 0x40,
  0x36, 0xf0, 0x30, 0x41, 0xe8, 0x46, 0xbf, 0x3f, 0x88, 0x20, 0x44, 0xbf,
  0x6a, 0x99, 0x78, 0x40, 0x41, 0x66, 0x90, 0xbf, 0xd6, 0x9a, 0x10, 0x41,
  0xaf, 0x0a, 0xf3, 0x40, 0x07, 0xdc, 0xe4, 0xbf, 0xc9, 0xc6, 0x00, 0x41,
  0x36, 0x43, 0x28, 0x41, 0x4c, 0x37, 0x38, 0xbf, 0x26, 0x45, 0x11, 0x41,
  0x77, 0xa1, 0x10, 0x41, 0xaa, 0x22, 0x29, 0x40, 0x0e, 0x15, 0xef, 0x40,
  0x62, 0x7d, 0x15, 0xc1, 0x33, 0x2c, 0x99, 0x3f, 0x4c, 0x09, 0x75, 0x40,
  0x9c, 0xcf, 0x12, 0x40, 0x6e, 0x02, 0x52, 0xbf, 0x0b, 0xa2, 0xae, 0x40,
  0xe7, 0x1b, 0x26, 0x3f, 0x4b, 0x53, 0x33, 0xc0, 0x66, 0x62, 0xe1, 0x40,
  0x54, 0x2c, 0xe5, 0xbe, 0x0a, 0x99, 0x8d, 0x3f, 0xeb, 0x49, 0x08, 0x41,
  0x56, 0x5b, 0xdf, 0xc0, 0x00, 0x58, 0x1f, 0x40, 0x57, 0xfd, 0x0c, 0x40,
  0x00, 0xed, 0x43, 0x40, 0x7d, 0xfa, 0x27, 0xc0, 0x5a, 0x08, 0x08, 0x41,
  0x84, 0x03, 0x0a, 0x41, 0x70, 0xa6, 0xb4, 0x3f, 0x84, 0x25, 0x8a, 0xbf,
  0x1c, 0x3d, 0x7d, 0x40, 0x1b, 0x8b, 0x03, 0xbf, 0xd9, 0xf2, 0x4e, 0x40,
  0x48, 0x4e, 0xec, 0x3f, 0x57, 0xf2, 0xbc, 0xbe, 0x6e, 0xc9, 0xf7, 0x40,
  0x5a, 0xf5, 0x30, 0x41, 0x38, 0x2e, 0x25, 0xbe, 0x02, 0xac, 0x22, 0x40,
  0x67, 0x21, 0xe2, 0x3f, 0x4b, 0x00, 0x53, 0xc0, 0x9e, 0xdb, 0x0e, 0x41,
  0x39, 0x44, 0x15, 0x41, 0xdd, 0x2c, 0x75, 0x3f, 0x22, 0xec, 0x8c, 0x40,
  0x2e, 0xef, 0x1e, 0x40, 0x5b, 0x97, 0x83, 0xbf, 0x2f, 0x41, 0x03, 0x41,
  0xed, 0x14, 0xf1, 0x40, 0xa2, 0x42, 0x5a, 0x3f, 0x64, 0x59, 0xdf, 0xbf,
  0x7b, 0x2d, 0x54, 0x40, 0xe8, 0x2d, 0x50, 0xc0, 0x05, 0x78, 0x98, 0x40,
  0xcd, 0x7c, 0xd7, 0x3e, 0x8a, 0xa5, 0x12, 0xc0, 0x9a, 0x11, 0xcc, 0x40,
  0x6c, 0x07, 0x5c, 0x40, 0x8d, 0x80, 0x4f, 0xbe, 0x04, 0x60, 0xd9, 0x40,
  0x85, 0xee, 0xff, 0x40, 0x2e, 0x06, 0x10, 0xc0, 0x32, 0xcd, 0xf8, 0x40,
  0xb6, 0x99, 0x01, 0x41, 0x12, 0x60, 0xbd, 0xbe, 0xc1, 0x9b, 0x01, 0x41,
  0x3d, 0xfa, 0x0d, 0x41, 0xbf, 0x90, 0xa8, 0xbd, 0x12, 0x9a, 0xa0, 0xbf,
  0x82, 0x27, 0x82, 0x40, 0x54, 0x90, 0x8f, 0xbf, 0xb2, 0x5e, 0x84, 0xbf,
  0x87, 0x30, 0x5b, 0x40, 0xde, 0xbd, 0xeb, 0xbf, 0x6f, 0xe1, 0xde, 0x40,
  0xea, 0xd8, 0x05, 0x41, 0xc6, 0x84, 0x00, 0xbf, 0xcb, 0x4b, 0xfc, 0x40,
  0x24, 0x00, 0x0f, 0x41, 0xbb, 0xdc, 0x2b, 0x40, 0x01, 0xa5, 0x00, 0x41,
  0xb6, 0xea, 0xeb, 0xc0, 0x22, 0x77, 0x89, 0xbf, 0xa9, 0xbe, 0x08, 0xbf,
  0x86, 0x25, 0x84, 0x40, 0x54, 0x78, 0xf6, 0xbe, 0x08, 0x9a, 0x41, 0xc0,
  0x04, 0x75, 0x9a, 0x40, 0xf9, 0xf1, 0x1b, 0xc0, 0xac, 0x07, 0xe5, 0x40,
  0x95, 0x30, 0x01, 0x3e, 0x9b, 0x15, 0x82, 0xbd, 0x5e, 0x0a, 0x93, 0x40,
  0xfc, 0x2a, 0x03, 0x40, 0x98, 0xa7, 0x56, 0xc0, 0x02, 0x3d, 0x07, 0x41,
  0x3e, 0x2c, 0x2c, 0x41, 0xbc, 0xc1, 0x1b, 0xc0, 0xa6, 0x8b, 0xbb, 0x40,
  0xe6, 0xfd, 0x49, 0x3f, 0xad, 0x42, 0x15, 0x3f, 0x4f, 0x12, 0x00, 0x41,
  0x44, 0xbf, 0x13, 0xc1, 0x8f, 0x43, 0x09, 0x3e, 0x5a, 0x2a, 0x16, 0x41,
  0x25, 0x2c, 0xe3, 0xc0, 0xb1, 0x8a, 0x74, 0xc0, 0x77, 0xad, 0x13, 0x41,
  0x3b, 0xc9, 0x10, 0x41, 0x85, 0xed, 0x1d, 0xbe, 0x34, 0xb1, 0x61, 0x40,
  0x0a, 0xf5, 0x4a, 0x40, 0x5f, 0x63, 0xb6, 0x3f, 0x48, 0xed, 0x53, 0x40,
  0x6a, 0x27, 0xea, 0x3f, 0x72, 0xb5, 0x1c, 0x3e, 0x78, 0x4a, 0x0f, 0x41,
  0xeb, 0x28, 0x14, 0xc1, 0x2f, 0x3f, 0x16, 0x40, 0xbe, 0xb0, 0x0c, 0x41,
  0xb5, 0x86, 0x18, 0xc1, 0xac, 0x50, 0xbe, 0x3f, 0x6d, 0x49, 0x5b, 0x3f,
  0x8c, 0x9e, 0x68, 0x40, 0xad, 0xd6, 0x0a, 0xbf, 0xb2, 0x23, 0x15, 0x41,
  0x27, 0xa4, 0x14, 0x41, 0xdf, 0xb2, 0x8f, 0xc0, 0x60, 0x79, 0xbf, 0x40,
  0xd2, 0x7b, 0xcd, 0x3e, 0x35, 0x72, 0xe2, 0xbf, 0x2a, 0x44, 0xb5, 0x40,
  0x86, 0x25, 0x5d, 0x3f, 0x5c, 0xf4, 0xba, 0x3f, 0xf2, 0x40, 0x9c, 0x40,
  0xe9, 0xd4, 0xef, 0x3f, 0x17, 0xe5, 0xfc, 0x3f, 0x34, 0xbd, 0x19, 0x41,
  0xee, 0x61, 0xf6, 0xc0, 0x6c, 0xe5, 0xd8, 0xbf, 0x43, 0x7c, 0x03, 0x41,
  0x8b, 0x8e, 0x1f, 0x41, 0xd1, 0xdd, 0xd0, 0x3e, 0xf7, 0xbe, 0x27, 0x41,
  0x69, 0xad, 0xec, 0xc0, 0x5b, 0x7f, 0xf6, 0x3f, 0xf6, 0xd9, 0x05, 0x41,
  0x08, 0x3b, 0xf3, 0xc0, 0x89, 0xdd, 0x56, 0xc0, 0x5d, 0xa6, 0xb7, 0x40,
  0x33, 0x53, 0x18, 0x3d, 0xc4, 0x69, 0x95, 0xbf, 0xf1, 0x23, 0xfe, 0x40,
  0xfa, 0x9a, 0x19, 0x41, 0xde, 0x95, 0x9f, 0xbe, 0xb2, 0x07, 0x08, 0x41,
  0xe3, 0x4c, 0x11, 0x41, 0x3c, 0xe1, 0x9a, 0x3f, 0x34, 0xd7, 0xbd, 0xbf,
  0xa9, 0xf9, 0x29, 0x40, 0x70, 0x8d, 0xa6, 0xbf, 0x4f, 0x9f, 0x02, 0x41,
  0x72, 0x25, 0x24, 0x41, 0x40, 0xa6, 0x56, 0xc0, 0xd7, 0x45, 0xbb, 0x40,
  0x9b, 0x09, 0xa4, 0x3d, 0xae, 0x92, 0x3c, 0x3f, 0x7b, 0x0c, 0x23, 0x41,
  0x93, 0xd9, 0x03, 0xc1, 0x5a, 0x18, 0x5a, 0xbf, 0xe7, 0x9f, 0xea, 0x40,
  0x0c, 0xfb, 0x1d, 0x41, 0x46, 0xcd, 0xa3, 0x3f, 0x1f, 0xf9, 0x54, 0xc0,
  0xee, 0x5c, 0x58, 0x40, 0x94, 0x5e, 0xd3, 0x3f, 0xc9, 0xab, 0x03, 0x41,
  0xf6, 0x38, 0x2b, 0xc1, 0x9a, 0xc4, 0x09, 0xc0, 0x36, 0x95, 0xcf, 0x40,
  0xb8, 0x4b, 0x20, 0x41, 0xb5, 0x06, 0xc9, 0x3f, 0xe3, 0xd6, 0x13, 0x41,
  0xb3, 0x17, 0x2c, 0xc1, 0x53, 0x18, 0x1c, 0x3f, 0x4e, 0x8d, 0xad, 0x40,
  0xce, 0x75, 0xcc, 0x3f, 0x29, 0x1f, 0x46, 0x3f, 0x43, 0xe3, 0xf2, 0x40,
  0x91, 0xe1, 0x0a, 0xc1, 0x78, 0x69, 0x3d, 0x40, 0xb7, 0xdd, 0xcf, 0xbf,
  0xa1, 0x2e, 0x9a, 0x40, 0xbd, 0x9a, 0xa6, 0xbf, 0x95, 0xfa, 0x97, 0x40,
  0x76, 0x63, 0x8d, 0xbf, 0xbf, 0x38, 0xe6, 0x3f, 0x1f, 0x4f, 0x01, 0x41,
  0x42, 0x45, 0xf0, 0xc0, 0xba, 0x74, 0x01, 0x40, 0x62, 0x97, 0x01, 0xbf,
  0x45, 0x86, 0x09, 0x40, 0x13, 0x3a, 0xd9, 0xbe, 0x6d, 0xd2, 0x83, 0x40,
  0xc8, 0x00, 0x2a, 0x3f, 0xa1, 0x6b, 0x1c, 0x3f, 0x3a, 0x03, 0x04, 0x41,
  0xed, 0xff, 0x04, 0xc1, 0xde, 0xb8, 0x3e, 0x3f, 0xb7, 0xc7, 0x19, 0x41,
  0x2d, 0x3d, 0x0d, 0xc1, 0x46, 0xe7, 0x44, 0xc0, 0x92, 0x2d, 0xb0, 0x40,
  0xc9, 0xb2, 0xf5, 0xbe, 0xee, 0x98, 0x81, 0xbf, 0x83, 0x82, 0x03, 0x41,
  0x8b, 0xc5, 0x27, 0x41, 0x33, 0x63, 0x64, 0x3f, 0x57, 0xe3, 0x34, 0xc0,
  0xfc, 0x41, 0x93, 0x40, 0xf8, 0x3e, 0xad, 0xbf, 0xc4, 0x82, 0xbb, 0x40,
  0xbb, 0x42, 0xdb, 0x3f, 0xea, 0x31, 0x0b, 0x40, 0xb3, 0x1f, 0xe7, 0x40,
  0x8d, 0xe4, 0xda, 0xc0, 0xea, 0x0e, 0x01, 0x3f, 0x68, 0xca, 0x83, 0x40,
  0x45, 0x0b, 0x10, 0x40, 0x25, 0x4d, 0x40, 0x3f, 0x11, 0x96, 0x25, 0x41,
  0xae, 0x68, 0x0d, 0xc1, 0x17, 0x89, 0x2c, 0xc0, 0xa5, 0x9f, 0x9e, 0x40,
  0x74, 0x9c, 0x5b, 0x3f, 0x03, 0xd5, 0x69, 0xc0, 0x53, 0x1d, 0xbd, 0x40,
  0x8a, 0x61, 0x10, 0x3f, 0x7e, 0xfb, 0x81, 0xbf, 0x13, 0x59, 0x0b, 0x41,
  0xee, 0x5b, 0xf3, 0x40, 0xb6, 0xa4, 0x04, 0x3f, 0xa2, 0x2b, 0x2b, 0xc0,
  0x6d, 0x09, 0x40, 0x40, 0x0f, 0x6c, 0xcf, 0xbf, 0x27, 0xfe, 0xda, 0x40,
  0x3c, 0x9f, 0x13, 0x41, 0x93, 0x7d, 0x5c, 0x3e, 0xc6, 0xfc, 0x86, 0x40,
  0x7a, 0xf5, 0xa1, 0x3f, 0xc9, 0x57, 0x0a, 0xc0, 0x7a, 0x9e, 0x0e, 0x41,
  0x77, 0xbf, 0xe9, 0x40, 0x04, 0x05, 0x19, 0x40, 0x89, 0x10, 0x13, 0x41,
  0xdc, 0xf5, 0xdb, 0xc0, 0xde, 0x86, 0x0e, 0xbf, 0x78, 0x33, 0xbb, 0x40,
  0x13, 0x82, 0x0b, 0x40, 0xcc, 0x7e, 0xd5, 0x3f, 0xa7, 0x0b, 0x95, 0x40,
  0x24, 0x95, 0x46, 0x40, 0xe4, 0xe2, 0xc9, 0xbf, 0xe0, 0x85, 0xf0, 0x40,
  0x12, 0xc0, 0xf4, 0x40, 0x99, 0x22, 0xff, 0x3e, 0x63, 0xfd, 0x59, 0xbf,
  0xfc, 0x5e, 0x51, 0x40, 0xf2, 0x2a, 0x08, 0xc0, 0x12, 0x7a, 0x9a, 0x40,
  0xf7, 0x5b, 0xac, 0x3f, 0xc1, 0x81, 0xe1, 0x3f, 0x0d, 0x11, 0x01, 0x41,
  0x4b, 0xf1, 0x0b, 0xc1, 0x80, 0x55, 0x9d, 0x3f, 0x39, 0xed, 0x18, 0xc0,
  0x0b, 0x35, 0x4c, 0x40, 0x80, 0x9e, 0x87, 0xbf, 0x72, 0x4c, 0xfd, 0xbf,
  0xbf, 0xa9, 0x2e, 0x40, 0x9a, 0xb0, 0xc4, 0x3f, 0x4c, 0xe3, 0xa1, 0x40,
  0x78, 0x8f, 0x7e, 0x3f, 0x8e, 0x00, 0x31, 0xbe, 0x59, 0x61, 0x73, 0x40,
  0x53, 0x7b, 0x04, 0x40, 0xb3, 0xf3, 0x79, 0xc0, 0x4f, 0x0f, 0xaa, 0x40,
  0x11, 0xdb, 0x03, 0xbf, 0x3b, 0xf7, 0x2d, 0x40, 0x5d, 0x52, 0x0c, 0x41,
  0x8f, 0x06, 0x20, 0xc1, 0x17, 0xed, 0x13, 0xc0, 0x3b, 0xa4, 0xd8, 0x40,
  0x9b, 0x5f, 0x07, 0x3e, 0x42, 0x96, 0x4c, 0x40, 0xf4, 0x98, 0xea, 0x40,
  0xd0, 0x86, 0xf4, 0xc0, 0x87, 0xca, 0x43, 0xc0, 0x72, 0xfd, 0xb0, 0x40,
  0x4d, 0xce, 0xce, 0x3f, 0xf3, 0xc5, 0x8f, 0xbd, 0xf7, 0xae, 0x17, 0x41,
  0x6c, 0x07, 0x0c, 0xc1, 0x1c, 0xc0, 0xcf, 0x3f, 0x00, 0x20, 0x7c, 0x40,
  0xd4, 0x30, 0xb0, 0x3f, 0x84, 0xb9, 0xee, 0xbf, 0x32, 0xbc, 0xf7, 0x40,
  0x07, 0x9a, 0x1a, 0x41, 0xde, 0x80, 0x04, 0x40, 0xfc, 0xfa, 0x16, 0x41,
  0x1d, 0xa7, 0x11, 0xc1, 0xec, 0xde, 0x1b, 0xc0, 0xd9, 0x67, 0xc6, 0x40,
  0xa6, 0x22, 0x6b, 0xbe, 0xe6, 0x1b, 0xdf, 0x3f, 0x98, 0xae, 0x90, 0x40,
  0x7f, 0x78, 0x84, 0x40, 0xe3, 0x82, 0x8c, 0xbf, 0xf0, 0x16, 0x03, 0x41,
  0xc2, 0xcd, 0x23, 0x41, 0x06, 0x4f, 0x25, 0x40, 0xae, 0xfb, 0x05, 0x3e,
  0x23, 0xc6, 0x53, 0x40, 0xa7, 0xd2, 0xe6, 0xbd, 0xac, 0x24, 0xe1, 0xbf,
  0xc2, 0xa4, 0x63, 0x40, 0x8b, 0x64, 0x12, 0xc0, 0x86, 0x68, 0x82, 0x40,
  0x8d, 0xdc, 0x2a, 0x3e, 0x15, 0xa6, 0x95, 0x3f, 0xcd, 0x81, 0x78, 0x40,
  0xd1, 0xe9, 0x72, 0x40, 0xe0, 0xc9, 0xe3, 0xbf, 0x2a, 0xef, 0x1b, 0x41,
  0x52, 0x67, 0x1c, 0x41, 0x5a, 0x83, 0x45, 0x3f, 0x46, 0x43, 0xe3, 0xbf,
  0x13, 0xec, 0x51, 0x40, 0x95, 0x67, 0x3b, 0x3f, 0xac, 0xa9, 0x28, 0x41,
  0xde, 0xfd, 0x03, 0xc1, 0x8c, 0x2b, 0x30, 0xc0, 0x06, 0xe7, 0x98, 0x40,
  0x5f, 0xfb, 0xba, 0x3d, 0x0b, 0xa7, 0xf2, 0xbe, 0x69, 0x65, 0x0c, 0x41,
  0x7a, 0x75, 0x1b, 0x41, 0x32, 0xec, 0xe5, 0xbe, 0x74, 0x81, 0x2e, 0xc0,
  0x47, 0x10, 0xe4, 0x3f, 0x8c, 0x16, 0x37, 0xbe, 0x76, 0x86, 0x8d, 0x40,
  0x2b, 0x98, 0x45, 0x40, 0x7e, 0xc3, 0xed, 0x3f, 0x20, 0xff, 0x17, 0x41,
  0xc6, 0x7d, 0x0e, 0xc1, 0x6e, 0x26, 0xe7, 0x3f, 0x9f, 0x92, 0xf1, 0x40,
  0x27, 0x84, 0x1a, 0xc1, 0x7d, 0x99, 0x0d, 0x40, 0x96, 0x31, 0x1d, 0x41,
  0x3e, 0x34, 0x1d, 0xc1, 0x82, 0xe2, 0xb0, 0x3f, 0x6e, 0x4f, 0x93, 0x40,
  0x8d, 0xc5, 0x2f, 0x40, 0xb3, 0xd8, 0xab, 0x3f, 0x7c, 0xf7, 0xa0, 0x40,
  0x68, 0xaf, 0x04, 0x40, 0x39, 0x56, 0x0e, 0xc0, 0xb2, 0x3c, 0xb9, 0x40,
  0xa5, 0xe8, 0x0b, 0xbf, 0x7b, 0x7b, 0x66, 0x3e, 0x36, 0x43, 0x0a, 0x41,
  0x2c, 0xe2, 0x07, 0xc1, 0x93, 0xb8, 0xd8, 0x3f, 0x67, 0xd7, 0x14, 0x41,
  0xac, 0x33, 0xed, 0xc0, 0x5d, 0x7a, 0x70, 0xbf, 0xcd, 0x24, 0xd8, 0x40,
  0x0d, 0x90, 0x01, 0x3e, 0xd2, 0x35, 0x34, 0xbf, 0x8e, 0x41, 0x11, 0xc0,
  0x35, 0x07, 0x64, 0x40, 0xe7, 0xd6, 0x77, 0x3e, 0x7d, 0x4c, 0xf9, 0xbe,
  0x0b, 0x3f, 0x44, 0x40, 0x96, 0x34, 0x7e, 0x3c, 0x69, 0xc8, 0x95, 0x40,
  0x5e, 0xad, 0x05, 0x40, 0xc2, 0x63, 0x88, 0x3e, 0xaf, 0x28, 0xdf, 0x40,
  0x45, 0x9d, 0x04, 0x41, 0xd4, 0xc8, 0xb9, 0xbe, 0x36, 0x3b, 0xc6, 0x40,
  0xd3, 0xfc, 0x21, 0x41, 0xe4, 0x10, 0x2c, 0xc0, 0x17, 0x87, 0xf3, 0x40,
  0xe4, 0x85, 0x0a, 0x41, 0xbd, 0xa2, 0x76, 0x3f, 0x04, 0xe6, 0x7c, 0x40,
  0xa5, 0xfb, 0x37, 0x40, 0x98, 0xc3, 0x30, 0x40, 0x1a, 0xc5, 0x33, 0x41,
  0x8f, 0xe6, 0xe8, 0xc0, 0x23, 0xb7, 0x71, 0x3f, 0x97, 0x31, 0x88, 0x40,
  0x08, 0x93, 0xe3, 0x3f, 0x32, 0xe3, 0x1d, 0x40, 0x28, 0xfa, 0x8f, 0x40,
  0x7a, 0xb5, 0xca, 0x3f, 0xe0, 0xbc, 0x1d, 0x40, 0xbf, 0x1d, 0x94, 0x40,
  0xeb, 0xfb, 0x5d, 0x3f, 0x06, 0xc2, 0xe5, 0xbf, 0xa6, 0xc2, 0xb5, 0x40,
  0xe5, 0x03, 0x35, 0x3f, 0xf7, 0xec, 0x87, 0xbf, 0xe8, 0xb2, 0xbf, 0x40,
  0x90, 0x7c, 0x14, 0x41, 0x5f, 0x40, 0x8c, 0xbf, 0xed, 0xaf, 0xb1, 0x40,
  0x0c, 0x9c, 0xb4, 0x3e, 0xd2, 0xb8, 0xac, 0x3f, 0x8e, 0xbc, 0x7a, 0x40,
  0xdd, 0x1d, 0x53, 0x3f, 0xc2, 0x62, 0x10, 0x3f, 0xe4, 0xc5, 0x03, 0x41,
  0x78, 0x47, 0x02, 0xc1, 0x3a, 0xd3, 0x02, 0xc0, 0x5a, 0x1c, 0xdb, 0x40,
  0xee, 0x92, 0x16, 0x41, 0xb6, 0x40, 0x77, 0xbf, 0xdd, 0xd5, 0xb6, 0x40,
  0xa2, 0xea, 0x93, 0x3f, 0x08, 0xb4, 0x31, 0x3f, 0xc4, 0xaa, 0x90, 0xbf,
  0x39, 0xa1, 0x7d, 0x40, 0xf7, 0xd3, 0x59, 0xbf, 0x75, 0xd6, 0xa4, 0x40,
  0x3d, 0x8a, 0x0c, 0x40, 0x01, 0x2e, 0xe6, 0xbf, 0x91, 0x0b, 0x05, 0x41,
  0x28, 0xcf, 0x21, 0x41, 0xfa, 0x09, 0x95, 0xbf, 0x11, 0x32, 0x18, 0x41,
  0x88, 0x3a, 0x37, 0x41, 0x59, 0xf1, 0x4e, 0x40, 0x8d, 0x5c, 0x18, 0x41,
  0xed, 0xc3, 0x04, 0xc1, 0x00, 0x66, 0x24, 0x40, 0xba, 0xe8, 0x21, 0xc0,
  0x20, 0x40, 0x8a, 0x40, 0x0b, 0xda, 0x44, 0x3f, 0x45, 0x7f, 0xad, 0x40,
  0x2b, 0xa6, 0x47, 0x40, 0x06, 0x38, 0xdd, 0xbf, 0x60, 0xc6, 0x13, 0x41,
  0x38, 0xc6, 0x06, 0x41, 0x43, 0x52, 0x4e, 0xc0, 0xdf, 0x22, 0xf5, 0x40,
  0xaa, 0x61, 0xeb, 0x40, 0x2f, 0xfb, 0xa4, 0x3f, 0xb9, 0x51, 0xe4, 0x40,
  0xb2, 0xb9, 0x11, 0xc1, 0x2a, 0xca, 0xf5, 0x3f, 0x94, 0x61, 0x40, 0xc0,
  0xb4, 0x34, 0x9a, 0x40, 0x62, 0x9f, 0x93, 0xbe, 0x9f, 0x24, 0xa5, 0x40,
  0xcd, 0xd7, 0xc7, 0x3f, 0x0e, 0xce, 0xcc, 0x3f, 0x69, 0x6f, 0x01, 0x41,
  0x33, 0xb8, 0x03, 0xc1, 0xd6, 0x6a, 0x9e, 0x3e, 0xb0, 0x56, 0x3b, 0xc0,
  0xe4, 0x34, 0xbf, 0x40, 0xbf, 0x6b, 0x1e, 0x3f, 0xd4, 0x8a, 0x21, 0xc0,
  0x52, 0x70, 0xef, 0x3f, 0xb9, 0x79, 0x29, 0x40, 0x24, 0x54, 0xae, 0xbe,
  0xb1, 0xa7, 0x1c, 0x40, 0xa5, 0x0f, 0x1f, 0xc0, 0xd6, 0xfa, 0xd6, 0x40,
  0xdf, 0xf2, 0x0f, 0x41, 0x45, 0xb3, 0x45, 0xbd, 0x5e, 0x4a, 0xeb, 0xbf,
  0xf4, 0xa2, 0x19, 0x40, 0x72, 0x3a, 0x0f, 0xc0, 0x4f, 0x6f, 0xc7, 0x40,
  0x43, 0xd5, 0x92, 0x3e, 0x58, 0x5a, 0xfb, 0x3f, 0x89, 0x74, 0x65, 0x40,
  0x45, 0x92, 0x7f, 0x40, 0x38, 0xc1, 0x32, 0x3f, 0xe9, 0x66, 0xf6, 0x40,
  0x77, 0x99, 0x13, 0x41, 0x4d, 0xf6, 0x2f, 0x40, 0x69, 0xb0, 0xfa, 0x40,
  0x9b, 0xad, 0x0e, 0xc1, 0x2a, 0xef, 0x25, 0xc0, 0x79, 0xdd, 0xe8, 0x40,
  0xc5, 0x3e, 0xf4, 0x3f, 0xfe, 0xd4, 0x87, 0x3f, 0x81, 0xe5, 0xb2, 0x40,
  0xd5, 0xb8, 0x03, 0xc1, 0x74, 0x35, 0xb6, 0x3e, 0x0d, 0x30, 0x10, 0x41,
  0x0c, 0x27, 0x02, 0xc1, 0x02, 0x67, 0xa4, 0x3f, 0xf6, 0xbc, 0x1d, 0xbf,
  0x76, 0x49, 0x63, 0x40, 0x9d, 0x85, 0x13, 0x3f, 0x2f, 0xe8, 0x23, 0x41,
  0x5c, 0x54, 0x0d, 0xc1, 0x5a, 0x8d, 0x01, 0x40, 0x47, 0xb8, 0x91, 0x40,
  0xfc, 0x89, 0x06, 0x40, 0xb1, 0x50, 0x87, 0x3f, 0x3c, 0x76, 0x4f, 0xc0,
  0xd2, 0xba, 0x48, 0x40, 0x9b, 0xe7, 0xa2, 0xbf, 0x05, 0x62, 0x9e, 0x40,
  0x02, 0xd4, 0x2a, 0x3d, 0x58, 0xdb, 0x30, 0xbf, 0x0d, 0x40, 0x04, 0x41,
  0xbb, 0x13, 0xd5, 0x40, 0xe2, 0x80, 0xae, 0xbf, 0xed, 0x59, 0x01, 0x41,
  0x05, 0xdb, 0x10, 0x41, 0xb5, 0x80, 0xb1, 0x3f, 0x7f, 0xa1, 0x48, 0x40,
  0x94, 0x3d, 0x10, 0x3e, 0x4e, 0x1a, 0x31, 0xc0, 0x82, 0xec, 0xda, 0x40,
  0xaa, 0xa9, 0x25, 0x3f, 0x73, 0x32, 0x04, 0x40, 0xc1, 0xda, 0x7a, 0x40,
  0x7e, 0xff, 0x2b, 0x40, 0x9f, 0x9f, 0xa4, 0x3f, 0x65, 0x95, 0x1e, 0x41,
  0xcc, 0xd4, 0x07, 0xc1, 0xd2, 0xba, 0x02, 0xbf, 0xae, 0x1d, 0xb7, 0xbf,
  0x6a, 0xba, 0x37, 0x40, 0x29, 0x5e, 0xa6, 0xbf, 0xdd, 0xef, 0xc1, 0x40,
  0x29, 0xa5, 0xea, 0x3f, 0xed, 0xcb, 0x21, 0xc0, 0xb4, 0xd5, 0xe4, 0x40,
  0xca, 0x7f, 0x1e, 0x3f, 0xdd, 0x83, 0x72, 0x3f, 0xd7, 0x86, 0x25, 0x40,
  0xf4, 0x00, 0x67, 0x3f, 0xd6, 0x9d, 0x72, 0x3f, 0xee, 0x06, 0xbf, 0xbf,
  0xf9, 0x68, 0xfe, 0x3f, 0x14, 0x4c, 0x22, 0xbf, 0x1e, 0x80, 0xb7, 0x40,
  0x44, 0xe6, 0xa8, 0x3e, 0x63, 0xb2, 0x92, 0xc0, 0x6c, 0x5e, 0x9b, 0x40,
  0xd7, 0x65, 0xca, 0x3e, 0x2b, 0xa2, 0x19, 0x3d, 0x1d, 0xd7, 0x45, 0x40,
  0x8b, 0xa6, 0x6e, 0x40, 0x17, 0x7e, 0xf2, 0x3f, 0xbb, 0xa3, 0x84, 0x40,
  0x94, 0xac, 0x8b, 0x3f, 0x98, 0xce, 0x42, 0xbf, 0xd8, 0xad, 0x8e, 0x40,
  0xba, 0xe4, 0xdf, 0x3f, 0x9f, 0x4e, 0x08, 0xc0, 0x2d, 0x46, 0xa4, 0x40,
  0xaf, 0x40, 0xef, 0xbe, 0x74, 0x64, 0x7b, 0xbf, 0xf3, 0x4a, 0x72, 0x40,
  0xed, 0xa4, 0x28, 0x40, 0x75, 0x90, 0x1b, 0xc0, 0x08, 0xc0, 0xca, 0x40,
  0x81, 0xd5, 0x28, 0x41, 0x3e, 0x53, 0x46, 0xc0, 0xd5, 0x8d, 0x04, 0x41,
  0x82, 0xd9, 0x17, 0x41, 0x6c, 0xcd, 0x6f, 0x3f, 0x51, 0x87, 0x04, 0xc0,
  0xdb, 0x88, 0x41, 0x40, 0x53, 0xf9, 0xe5, 0x3f, 0x33, 0xab, 0x12, 0x41,
  0x7d, 0x7b, 0x2a, 0xc1, 0x43, 0xa9, 0x29, 0x3f, 0xab, 0x43, 0x1b, 0xbf,
  0x9d, 0xbc, 0x76, 0x40, 0x4a, 0x9f, 0x61, 0x3f, 0x4c, 0xf1, 0x5f, 0xc0,
  0x58, 0x34, 0x0a, 0x40, 0xef, 0xa6, 0x87, 0x3f, 0x3e, 0x2b, 0x67, 0xbf,
  0x99, 0x2c, 0x71, 0x40, 0x75, 0x4f, 0xce, 0x3f, 0xd3, 0xfd, 0xeb, 0x40,
  0x11, 0x5e, 0x0d, 0xc1, 0xd5, 0xf7, 0x89, 0xbf, 0x2f, 0xba, 0x1b, 0x41,
  0x29, 0x73, 0x28, 0x41, 0xff, 0x56, 0x46, 0xbf, 0x2e, 0x5c, 0x75, 0xbf,
  0xe1, 0x11, 0x23, 0x40, 0x79, 0x35, 0xe9, 0xbf, 0x0e, 0x54, 0xb9, 0x40,
  0x1c, 0x16, 0x11, 0x3e, 0xe9, 0x3f, 0x0d, 0x3e, 0x1f, 0xeb, 0x95, 0x40,
  0x16, 0x3d, 0x88, 0x3f, 0x21, 0x10, 0x4b, 0xc0, 0x4a, 0x4b, 0xce, 0x40,
  0x62, 0xa5, 0xbf, 0x3f, 0x7d, 0x49, 0x0c, 0xc0, 0x40, 0xce, 0xd5, 0x40,
  0x74, 0x52, 0x1c, 0x41, 0x41, 0xa4, 0x23, 0x40, 0x91, 0xd0, 0x0d, 0x41,
  0x54, 0xe1, 0x02, 0xc1, 0xc4, 0x8d, 0x26, 0xc0, 0x11, 0xa2, 0xb5, 0x40,
  0x50, 0x52, 0x47, 0x3d, 0x7d, 0x92, 0xde, 0xbf, 0x07, 0xf0, 0xba, 0x40,
  0x85, 0x4e, 0xb5, 0xbf, 0x22, 0xb4, 0x94, 0xbf, 0x1a, 0x8d, 0x96, 0x40,
  0x69, 0xc6, 0x30, 0x40, 0x3c, 0x38, 0x16, 0x3e, 0x50, 0x7d, 0x99, 0x40,
  0xe9, 0x4d, 0x09, 0x40, 0xa4, 0xd3, 0x8d, 0x3e, 0x68, 0x0d, 0xd1, 0x40,
  0x13, 0x54, 0x1c, 0x41, 0x77, 0x83, 0xdd, 0x3e, 0x5a, 0x1f, 0xb4, 0xbf,
  0x56, 0x33, 0x5c, 0x40, 0xb3, 0x89, 0xab, 0x3f, 0x83, 0xf3, 0x1f, 0x41,
  0xcb, 0x4d, 0x09, 0xc1, 0x78, 0x06, 0x83, 0x3f, 0x65, 0x87, 0xb8, 0x40,
  0x6c, 0xc7, 0x65, 0x40, 0xc7, 0x21, 0x56, 0x3f, 0x20, 0xdc, 0x5a, 0xc0,
  0xfa, 0x03, 0x1a, 0x40, 0x82, 0x98, 0x2c, 0xc0, 0xa0, 0xff, 0xb6, 0x40,
  0x89, 0x4f, 0x6c, 0x3f, 0x45, 0xfa, 0xc5, 0xbf, 0xc3, 0x45, 0xfa, 0x40,
  0xb9, 0xc3, 0x05, 0x41, 0xcc, 0x72, 0x0c, 0x40, 0x36, 0x59, 0x64, 0xbe,
  0x30, 0x74, 0x12, 0x40, 0x80, 0x1e, 0x7c, 0x3f, 0xa3, 0x60, 0x05, 0x41,
  0xfc, 0xe4, 0x04, 0xc1, 0x3c, 0xdb, 0xa5, 0xbf, 0xad, 0x77, 0x02, 0x41,
  0xea, 0xbd, 0x15, 0x41, 0x68, 0x71, 0xd1, 0x3f, 0x73, 0x9b, 0x0f, 0x41,
  0xcb, 0x29, 0xf1, 0xc0, 0x50, 0x40, 0xff, 0x3f, 0xe9, 0xa6, 0x94, 0x40,
  0xef, 0xeb, 0x4d, 0x3f, 0x26, 0x49, 0x2a, 0xbf, 0x02, 0x01, 0x0e, 0x41,
  0x33, 0x34, 0x04, 0x41, 0x36, 0x99, 0x54, 0x3f, 0xa4, 0xb5, 0x82, 0x40,
  0x44, 0x56, 0x74, 0x40, 0x41, 0x31, 0x9f, 0x3d, 0x7e, 0x80, 0xc7, 0x40,
  0x79, 0x3f, 0x10, 0x40, 0xc6, 0x2a, 0x11, 0xc0, 0xaa, 0x3f, 0x00, 0x41,
  0x4e, 0x6e, 0xa5, 0xbf, 0xac, 0x4f, 0xc3, 0x3f, 0x14, 0x6a, 0xf6, 0xbe,
  0x44, 0x4f, 0x45, 0x40, 0x09, 0xfe, 0xcf, 0x3e, 0xd7, 0xc0, 0x0a, 0x41,
  0x2a, 0x4c, 0x02, 0xc1, 0xef, 0x60, 0x95, 0xbf, 0x82, 0x76, 0xe8, 0x40,
  0x80, 0x58, 0x13, 0x41, 0xfa, 0xbe, 0x85, 0xbe, 0xdc, 0xd6, 0xbc, 0xbf,
  0x57, 0x2d, 0x29, 0x40, 0x41, 0x58, 0xb1, 0xbf, 0x2e, 0x47, 0xe7, 0x40,
  0x86, 0x1f, 0x18, 0x41, 0xb1, 0x7b, 0xee, 0x3f, 0x7a, 0x30, 0xc4, 0x3e,
  0x9c, 0x68, 0xa1, 0x40, 0xda, 0xec, 0xbb, 0xbf, 0x41, 0xfa, 0x01, 0x41,
  0xf9, 0x6d, 0x1d, 0x41, 0x5f, 0x84, 0x25, 0xc0, 0xb1, 0x3f, 0xb3, 0x40,
  0xac, 0x52, 0x9b, 0xbf, 0x3a, 0x57, 0xc2, 0xbf, 0x10, 0x5d, 0xd7, 0x40,
  0x72, 0xc1, 0x06, 0xbf, 0xd6, 0xbf, 0x02, 0xc0, 0x50, 0xdc, 0xe4, 0x40,
  0xce, 0x1b, 0x63, 0x3f, 0xbb, 0xcb, 0xc0, 0xbf, 0x51, 0x52, 0xd9, 0x40,
  0x1c, 0x5a, 0x28, 0x40, 0xdc, 0xd5, 0x22, 0xc0, 0xe3, 0x29, 0xee, 0x40,
  0x13, 0xad, 0xcd, 0x3e, 0x6e, 0xf1, 0x1c, 0x40, 0x7d, 0x63, 0x8e, 0xbf,
  0x1f, 0xda, 0x0e, 0x40, 0xd5, 0x6a, 0x87, 0xc0, 0xed, 0x39, 0xa2, 0x40,
  0x1c, 0xe8, 0xf5, 0x3f, 0x13, 0x31, 0x41, 0x3f, 0x06, 0xe0, 0xa1, 0xbf,
  0x19, 0x2e, 0x41, 0x40, 0x81, 0xd2, 0xfe, 0x3f, 0x76, 0x7f, 0x2c, 0x41,
  0x71, 0xf9, 0x13, 0xc1, 0xc9, 0x37, 0xfd, 0x3f, 0x2b, 0x6e, 0x8d, 0xc0,
  0xc9, 0x03, 0x0a, 0x40, 0xf1, 0x34, 0xa2, 0x3f, 0x7e, 0xbf, 0xe6, 0x40,
  0xad, 0xa1, 0x0b, 0xc1, 0xe3, 0x5a, 0xfe, 0x3e, 0xd3, 0x96, 0x5d, 0x40,
  0xc0, 0xe0, 0xf5, 0x3f, 0x02, 0x01, 0x4c, 0x3f, 0xe6, 0x1a, 0x67, 0x40,
  0xa9, 0x5b, 0x4c, 0x40, 0xa4, 0x31, 0x73, 0xc0, 0x98, 0x2b, 0x8f, 0x40,
  0x3d, 0x2f, 0x93, 0x3f, 0x75, 0x1f, 0x21, 0xc0, 0x2d, 0x0b, 0x84, 0x40,
  0x79, 0x5f, 0x1c, 0x3f, 0x9c, 0xd5, 0xbc, 0xbd, 0x40, 0xb1, 0xbe, 0x40,
  0x8e, 0x0f, 0x3a, 0x40, 0x06, 0xbd, 0xce, 0x3f, 0x81, 0xaf, 0xab, 0x40,
  0x1d, 0x0e, 0xa4, 0x3f, 0xca, 0x9f, 0x44, 0xbe, 0x57, 0xad, 0x21, 0x41,
  0x95, 0xd8, 0x03, 0x41, 0x63, 0xed, 0x53, 0xc0, 0x79, 0x82, 0x08, 0x41,
  0x86, 0x09, 0x1c, 0xbf, 0x65, 0xbe, 0xf0, 0xbf, 0xd3, 0x76, 0xe1, 0x40,
  0x9f, 0x54, 0x90, 0x3f, 0xbe, 0x83, 0x0e, 0xc0, 0x97, 0x91, 0xad, 0x40,
  0xb0, 0x4d, 0xc5, 0x3f, 0x9b, 0x57, 0x1f, 0x40, 0xa8, 0xc7, 0x76, 0xbf,
  0x81, 0x92, 0x40, 0x40, 0xbc, 0xde, 0xa6, 0x3f, 0x5b, 0x5e, 0x04, 0x41,
  0xae, 0x40, 0x0d, 0xc1, 0xdb, 0x3d, 0x3a, 0xc0, 0xa0, 0x33, 0x99, 0x40,
  0x1a, 0xac, 0x25, 0x3d, 0x85, 0x67, 0x19, 0x3e, 0xdd, 0xd0, 0xa2, 0x40,
  0x93, 0x0f, 0xee, 0x3f, 0x91, 0x17, 0x9e, 0xbd, 0xbf, 0xe3, 0x53, 0xbf,
  0xed, 0xc7, 0x7b, 0x40, 0xd6, 0x63, 0x91, 0x3f, 0xa7, 0x38, 0xdc, 0x40,
  0xbd, 0x2e, 0x0f, 0xc1, 0xaa, 0x6e, 0x0c, 0xc0, 0xbb, 0xe6, 0xa2, 0x40,
  0x2e, 0xaa, 0x0e, 0x40, 0xb2, 0x18, 0xf4, 0xbb, 0xfc, 0xfc, 0xec, 0xbf,
  0xfa, 0xdf, 0x4c, 0x40, 0x6b, 0x98, 0x0d, 0x40, 0x8a, 0x52, 0x9f, 0xbf,
  0xa7, 0xfa, 0x04, 0x40, 0xe3, 0x6c, 0xcf, 0xbf, 0xbf, 0xe2, 0x0a, 0x41,
  0xdc, 0x2b, 0x13, 0x41, 0xe9, 0xd2, 0x5f, 0x3f, 0xc5, 0xf5, 0xda, 0x40,
  0x7d, 0xa7, 0x16, 0xc1, 0x2a, 0xe0, 0x96, 0xbf, 0xdc, 0x29, 0x01, 0x41,
  0xd2, 0xf0, 0x27, 0x41, 0xa0, 0xca, 0x17, 0x40, 0xb2, 0xeb, 0xc2, 0x40,
  0x10, 0x2d, 0xbe, 0x3f, 0x10, 0xe1, 0xf3, 0xbf, 0x2f, 0x22, 0xaa, 0x40,
  0xa5, 0xe6, 0x27, 0xbe, 0x5c, 0xf4, 0x0e, 0x3f, 0xf7, 0xc7, 0xdd, 0x40,
  0x85, 0x6c, 0x06, 0xc1, 0x40, 0x78, 0xdc, 0x3f, 0x5a, 0xc6, 0xd2, 0x40,
  0xbd, 0x49, 0x22, 0xc1, 0xdf, 0x11, 0xda, 0xbe, 0xc1, 0xf6, 0xda, 0x40,
  0x52, 0xa5, 0xba, 0x40, 0x2d, 0x32, 0x77, 0x3f, 0x5a, 0xc4, 0xf6, 0x40,
  0xff, 0xb6, 0x0c, 0xc1, 0xdf, 0xa9, 0x35, 0x40, 0x70, 0x08, 0xfa, 0x40,
  0x71, 0x4d, 0xee, 0xc0, 0xcc, 0xdc, 0x67, 0x3f, 0xe7, 0x0d, 0x9d, 0x40,
  0x31, 0xc1, 0x21, 0x40, 0x97, 0x07, 0x04, 0xc0, 0x9f, 0x45, 0xbc, 0x40,
  0x09, 0xe6, 0x0c, 0xbf, 0x15, 0xcd, 0x34, 0xc0, 0x3a, 0xca, 0xaa, 0x40,
  0xcc, 0xc4, 0x0c, 0x40, 0x4b, 0x4c, 0xd0, 0xbf, 0xb2, 0xf2, 0xe8, 0x40,
  0xa2, 0x53, 0x0a, 0x41, 0xa8, 0x58, 0xe8, 0xbf, 0x44, 0xef, 0xe4, 0x40,
  0x48, 0x83, 0x1d, 0x41, 0x44, 0x08, 0xa9, 0xc0, 0x33, 0x67, 0xd4, 0x40,
  0x04, 0x24, 0xfe, 0x3d, 0x7e, 0xaa, 0xb4, 0x3f, 0xdb, 0x41, 0x88, 0x40,
  0x0a, 0xbb, 0x06, 0x40, 0x69, 0x85, 0x93, 0x3f, 0x80, 0x42, 0x57, 0x40,
  0xfa, 0x07, 0x3f, 0x40, 0x4f, 0x9d, 0xfa, 0xbf, 0xdb, 0xbd, 0x1d, 0x41,
  0x4f, 0x4d, 0x1b, 0x41, 0x4c, 0xdd, 0x4c, 0xbf, 0x04, 0xf3, 0xed, 0x40,
  0x62, 0x58, 0x12, 0x41, 0x7e, 0x95, 0x15, 0x40, 0x8c, 0xd9, 0x06, 0x41,
  0xd8, 0x1e, 0xe1, 0xc0, 0xda, 0xfc, 0x27, 0xc0, 0x31, 0xcf, 0xac, 0x40,
  0x07, 0x60, 0xef, 0x3e, 0x60, 0x31, 0x1e, 0xc0, 0x89, 0x1a, 0xfa, 0x40,
  0x6c, 0xa7, 0x23, 0x41, 0x0d, 0xa2, 0x00, 0xc0, 0x57, 0xc4, 0x0a, 0x41,
  0x07, 0x87, 0x07, 0x41, 0xde, 0x4e, 0x52, 0xbf, 0x21, 0x5a, 0x04, 0x41,
  0x41, 0x40, 0x17, 0x41, 0x57, 0xe6, 0xab, 0x3f, 0x65, 0xa2, 0x19, 0x41,
  0x1c, 0xdd, 0x22, 0xc1, 0xd5, 0x6a, 0x21, 0xc0, 0x1a, 0x4b, 0x04, 0x41,
  0xad, 0x09, 0x15, 0x41, 0xe4, 0x13, 0x0a, 0xbe, 0x44, 0x45, 0x1a, 0x41,
  0x98, 0x8d, 0x15, 0x41, 0xb1, 0x57, 0x7d, 0x3e, 0xc2, 0x29, 0x31, 0xc0,
  0x75, 0x29, 0x9d, 0x40, 0x3f, 0xde, 0xf6, 0xbf, 0xcc, 0xb6, 0xb0, 0x40,
  0xa2, 0x64, 0x6e, 0xbd, 0xaa, 0x3b, 0x7e, 0xc0, 0x91, 0xbe, 0xa9, 0x40,
  0x0d, 0x75, 0x06, 0x40, 0xc1, 0x96, 0x12, 0xc0, 0x76, 0x4c, 0xd8, 0x40,
  0x7d, 0x1f, 0x5c, 0x3f, 0x1e, 0x6a, 0xf5, 0x3f, 0xde, 0x9d, 0x51, 0x40,
  0x3e, 0xbb, 0x07, 0x40, 0x26, 0x89, 0x7a, 0xc0, 0x3e, 0xb5, 0xa2, 0x40,
  0x4a, 0xdb, 0x01, 0x3f, 0x89, 0x7d, 0x8f, 0x3e, 0x34, 0x0d, 0x79, 0x40,
  0xf0, 0xd6, 0x7a, 0x3e, 0x5a, 0x96, 0xa7, 0x3f, 0x56, 0xe8, 0x69, 0x40,
  0x44, 0x20, 0x03, 0x3f, 0xc8, 0x4d, 0x07, 0xc0, 0x0c, 0x91, 0xaf, 0x40,
  0x57, 0x49, 0xad, 0x3f, 0xce, 0xb0, 0x6c, 0x3f, 0xf4, 0xdd, 0x9b, 0x40,
  0xe3, 0xe0, 0x47, 0x40, 0x29, 0x6c, 0x2d, 0x40, 0xf1, 0x45, 0xe4, 0xbf,
  0x24, 0xda, 0x44, 0x40, 0x1f, 0xfb, 0x29, 0x40, 0x24, 0x41, 0x15, 0x41,
  0xb9, 0x7f, 0x0d, 0xc1, 0x64, 0x48, 0xf5, 0xbd, 0x35, 0xe8, 0x1a, 0x41,
  0x78, 0xce, 0x14, 0xc1, 0x1f, 0x1d, 0x20, 0x40, 0x99, 0xed, 0x36, 0x40,
  0xe7, 0xac, 0x1b, 0x40, 0x4a, 0xbb, 0x0f, 0x3c, 0xcf, 0xe7, 0xab, 0x40,
  0xbb, 0x2c, 0x51, 0x40, 0x34, 0xa2, 0x23, 0xc0, 0x39, 0x8b, 0xbf, 0x40,
  0x74, 0xb2, 0xdb, 0x3f, 0xed, 0x4d, 0x2f, 0xc0, 0x29, 0x64, 0xa8, 0x40,
  0x95, 0x81, 0x20, 0xbd, 0xa8, 0xb0, 0x82, 0x3e, 0x0e, 0x3f, 0xd0, 0xbf,
  0x1d, 0xa4, 0x4a, 0x40, 0xfe, 0x32, 0xf0, 0x3d, 0xa0, 0x1d, 0x83, 0x40,
  0xe2, 0xcb, 0x22, 0x40, 0x37, 0xad, 0x49, 0x3f, 0x5d, 0xd8, 0xa9, 0x40,
  0x04, 0xe1, 0x07, 0xc1, 0x2a, 0xb0, 0x13, 0xc0, 0xee, 0x35, 0xe9, 0x40,
  0x72, 0x24, 0x1e, 0x41, 0x96, 0xc2, 0x44, 0xc0, 0x55, 0x6c, 0xd1, 0x40,
  0x3d, 0x9d, 0x2b, 0x41, 0xd9, 0x7b, 0xc2, 0x3f, 0x29, 0x4c, 0x4d, 0xc0,
  0xf9, 0x0f, 0x65, 0x40, 0xa5, 0xac, 0xbb, 0xbf, 0xee, 0x88, 0x04, 0x41,
  0x6b, 0x76, 0x1d, 0x41, 0x6b, 0xef, 0x83, 0x3f, 0x60, 0x62, 0x86, 0x40,
  0x76, 0x11, 0xda, 0x3f, 0x09, 0x00, 0x57, 0x40, 0xcc, 0x19, 0xd9, 0x40,
  0x54, 0x70, 0xfd, 0xc0, 0x1c, 0xac, 0x4d, 0x3f, 0xef, 0xe8, 0x01, 0x41,
  0x5f, 0x1c, 0x18, 0xc1, 0x7f, 0x21, 0x98, 0xbf, 0x71, 0x67, 0x01, 0x41,
  0x28, 0x7e, 0x8e, 0x3f, 0x03, 0x7c, 0x81, 0x3f, 0x1c, 0x17, 0x12, 0x41,
  0xf4, 0xf7, 0x10, 0x41, 0x4e, 0x69, 0xd8, 0xbf, 0x91, 0xdb, 0xd7, 0x40,
  0x59, 0x4f, 0x07, 0x41, 0x83, 0x6e, 0x82, 0xbf, 0x8b, 0xfe, 0xca, 0x40,
  0x06, 0x95, 0x05, 0x40, 0xc9, 0x2a, 0x07, 0xc0, 0x23, 0xcd, 0xb2, 0x40,
  0xc2, 0x2d, 0x95, 0xbe, 0x9b, 0x8e, 0xb2, 0x3f, 0xee, 0x0a, 0x02, 0xc0,
  0x75, 0x74, 0x53, 0x40, 0x3d, 0x93, 0x93, 0xbe, 0x31, 0xe2, 0x03, 0xc0,
  0x8e, 0x6e, 0x4c, 0x40, 0xc3, 0xa7, 0x15, 0x40, 0xd5, 0x5f, 0xe1, 0x40,
  0x1f, 0xd3, 0x1f, 0xc1, 0x83, 0x84, 0xa6, 0xbf, 0x7a, 0xcd, 0x1a, 0x41,
  0xa4, 0x31, 0x04, 0x41, 0xce, 0x58, 0xa4, 0xbf, 0x40, 0x52, 0x0a, 0x41,
  0x6a, 0x4c, 0x24, 0x41, 0x7d, 0xe0, 0xbd, 0xbe, 0xed, 0x4d, 0x13, 0xc0,
  0xf8, 0x2b, 0x14, 0x40, 0x3e, 0x57, 0x03, 0x40, 0xc4, 0x98, 0x12, 0x41,
  0x87, 0xe0, 0x19, 0xc1, 0x55, 0xaa, 0x98, 0x3e, 0x89, 0xbe, 0xfc, 0xbf,
  0xde, 0x98, 0x81, 0x40, 0xcd, 0x0f, 0xeb, 0xbf, 0x28, 0x3e, 0xb8, 0x40,
  0x95, 0xf3, 0x9d, 0xbd, 0x53, 0x3d, 0x00, 0xc0, 0xe4, 0x11, 0xbe, 0x40,
  0x1f, 0x6d, 0x06, 0x3e, 0x09, 0x65, 0xf3, 0x3f, 0x3c, 0x89, 0x59, 0x40,
  0x8c, 0x88, 0x79, 0x40, 0x14, 0xac, 0x2b, 0x40, 0x80, 0x07, 0xc2, 0x40,
  0xa2, 0x1c, 0x13, 0xc1, 0x7f, 0xd2, 0x7f, 0x3f, 0x51, 0x7c, 0x77, 0xbf,
  0xed, 0x36, 0x26, 0x40, 0x18, 0x8b, 0xf3, 0x3e, 0xaa, 0xc3, 0x0f, 0x41,
  0x84, 0xc3, 0xf0, 0xc0, 0x99, 0xb7, 0x2e, 0xc0, 0xb0, 0x26, 0xb5, 0x40,
  0xe3, 0x36, 0xd1, 0xbe, 0x16, 0xc8, 0xf8, 0xbf, 0xf2, 0xce, 0xc9, 0x40,
  0xfe, 0x05, 0x24, 0x3e, 0xfb, 0x43, 0xcc, 0x3d, 0x77, 0x1f, 0x23, 0x3d,
  0xe8, 0x31, 0x81, 0x40, 0xd4, 0xb2, 0x31, 0x3f, 0x20, 0x00, 0x55, 0x40,
  0x32, 0xd2, 0x09, 0x40, 0xf8, 0xb8, 0xd5, 0xbf, 0x6b, 0x8b, 0xc8, 0x40,
  0x81, 0xe7, 0xcf, 0xbf, 0x54, 0xc7, 0x0d, 0x40, 0x06, 0x37, 0x21, 0x40,
  0x97, 0x29, 0xa1, 0x3f, 0xd3, 0xff, 0xa4, 0x3f, 0x1d, 0xc9, 0xbb, 0x40,
  0xc0, 0xea, 0x37, 0x40, 0xf5, 0x22, 0x9b, 0x3f, 0x47, 0xcb, 0xbe, 0xbf,
  0xb7, 0x02, 0x5d, 0x40, 0x62, 0xa2, 0xb3, 0xbf, 0x06, 0xfd, 0x8f, 0x3f,
  0x62, 0xae, 0x42, 0x40, 0x1a, 0x24, 0xcf, 0xbe, 0x4c, 0x43, 0xa0, 0xbf,
  0x14, 0x1a, 0x98, 0x40, 0xb9, 0x98, 0xa8, 0xbf, 0xe7, 0x90, 0xca, 0x40,
  0xc4, 0x14, 0xe3, 0x3f, 0x75, 0x90, 0x1c, 0xbf, 0x11, 0x64, 0xdb, 0x40,
  0xbe, 0x8b, 0x13, 0x41, 0xd6, 0xd7, 0x03, 0x3f, 0xf1, 0x07, 0xea, 0x40,
  0x30, 0xdb, 0x03, 0x41, 0xb4, 0xb6, 0x19, 0x40, 0x2b, 0x09, 0x91, 0x40,
  0xe1, 0x17, 0xe6, 0x3f, 0x74, 0x1c, 0x0f, 0x40, 0xb6, 0x2e, 0x97, 0xbf,
  0x5d, 0x02, 0x5f, 0x40, 0xc0, 0xb6, 0x5c, 0xbf, 0x99, 0x1a, 0x32, 0xc0,
  0x93, 0xb3, 0x7a, 0x40, 0x61, 0x3c, 0x91, 0xbd, 0x9b, 0x5c, 0x96, 0xbe,
  0x6b, 0xe8, 0x01, 0x40, 0xa7, 0xfc, 0xe6, 0xbf, 0xd1, 0x93, 0xe0, 0x40,
  0x30, 0x28, 0x00, 0x41, 0xfb, 0x2a, 0x19, 0xbf, 0xe5, 0xb7, 0x73, 0x40,
  0x51, 0x06, 0xf8, 0x3f, 0xbd, 0xd8, 0x7f, 0xbf, 0x5c, 0xaa, 0x03, 0x41,
  0xb3, 0x58, 0x00, 0xc1, 0x79, 0x69, 0x66, 0xbf, 0x8f, 0x7e, 0x2a, 0xc0,
  0x42, 0x32, 0x7d, 0x40, 0x66, 0x61, 0x05, 0xc0, 0xcc, 0xd1, 0x0f, 0x41,
  0xa1, 0xad, 0xea, 0x40, 0xfb, 0xb2, 0xc0, 0xbf, 0xba, 0x02, 0x00, 0x41,
  0xa6, 0x7b, 0x1c, 0x41, 0xf6, 0x60, 0x3e, 0x40, 0xb7, 0x22, 0x06, 0x41,
  0x5d, 0x95, 0xea, 0xc0, 0x3b, 0x35, 0x7d, 0xbf, 0x47, 0xdc, 0xf2, 0x40,
  0x7b, 0x4a, 0x08, 0x41, 0x7b, 0x95, 0x33, 0xbf, 0x61, 0xab, 0x08, 0x41,
  0x90, 0x37, 0x07, 0x41, 0xef, 0x3c, 0x1e, 0x40, 0x49, 0x6d, 0x22, 0x41,
  0x98, 0x7b, 0xeb, 0xc0, 0x13, 0xe2, 0xea, 0x3f, 0x69, 0x89, 0x49, 0x40,
  0x84, 0xd0, 0x3f, 0x40, 0x21, 0xb0, 0x0b, 0x40, 0xc9, 0xdd, 0x1d, 0x41,
  0x26, 0x92, 0x06, 0xc1, 0x17, 0x6f, 0x84, 0xbf, 0x5d, 0xb2, 0x17, 0x41,
  0xc5, 0x55, 0x10, 0x41, 0x69, 0xaf, 0xd2, 0xbb, 0xe6, 0xf9, 0x5f, 0x40,
  0xa6, 0x69, 0x5b, 0x3f, 0xcf, 0x28, 0x9c, 0x3e, 0x9c, 0x9f, 0xf5, 0xbf,
  0x13, 0x7a, 0x38, 0x40, 0xf5, 0x74, 0xc8, 0x3f, 0xd6, 0xc9, 0x34, 0x40,
  0x2c, 0xdf, 0x21, 0x3f, 0x25, 0x68, 0x16, 0x3f, 0xc1, 0xff, 0xf4, 0x40,
  0x8f, 0x62, 0x15, 0xc1, 0xb4, 0xe9, 0xc7, 0x3e, 0x2b, 0x48, 0x93, 0x40,
  0x02, 0xc3, 0x11, 0x40, 0x10, 0xac, 0x7d, 0x3f, 0xe8, 0xa0, 0x2c, 0x40,
  0x8a, 0xe7, 0x0d, 0x40, 0xe6, 0x3e, 0xf7, 0xbf, 0xf8, 0x4f, 0xc8, 0x40,
  0x33, 0xf2, 0x82, 0xbf, 0x5e, 0x76, 0xd1, 0x3f, 0x67, 0xed, 0x8a, 0xbf,
  0x55, 0x7a, 0x68, 0x40, 0xba, 0xb5, 0x1f, 0xc0, 0xc1, 0x0c, 0xb0, 0x40,
  0x81, 0x28, 0x62, 0x3f, 0x4f, 0x40, 0x11, 0x40, 0x5d, 0x58, 0xe9, 0xbf,
  0x98, 0xca, 0x2c, 0x40, 0xe1, 0x8f, 0x8d, 0xbf, 0xa0, 0x80, 0xf9, 0x40,
  0xff, 0xf7, 0x06, 0x41, 0x3b, 0x38, 0x62, 0x3f, 0x21, 0xf7, 0x0e, 0x41,
  0x91, 0x8f, 0x05, 0xc1, 0xc2, 0x69, 0x35, 0xc0, 0x0d, 0x81, 0x95, 0x40,
  0xe3, 0x0c, 0x94, 0x3f, 0xbb, 0x81, 0xbe, 0x3f, 0x27, 0x30, 0xde, 0xbf,
  0x42, 0x17, 0x01, 0x40, 0x1c, 0x0d, 0x36, 0xc0, 0x61, 0x93, 0xad, 0x40,
  0x03, 0xa7, 0x31, 0xbf, 0x16, 0xab, 0xf4, 0xbf, 0x80, 0xd7, 0xdc, 0x40,
  0xe0, 0x19, 0x21, 0x41, 0x47, 0x40, 0x93, 0x3f, 0xcb, 0x8c, 0xbd, 0xbf,
  0x39, 0x0e, 0x03, 0x40, 0x07, 0xe8, 0x3c, 0x40, 0x16, 0x1d, 0x48, 0x40,
  0x70, 0xd9, 0x55, 0x40, 0xd7, 0xbd, 0x06, 0xc0, 0x09, 0xcf, 0xe1, 0x40,
  0xda, 0x97, 0x0d, 0x3f, 0xc3, 0xda, 0x41, 0x3f, 0xc9, 0x0a, 0xe6, 0x40,
  0x9d, 0x96, 0xfd, 0xc0, 0xbd, 0x09, 0x8a, 0xbf, 0x17, 0x8a, 0x0a, 0x41,
  0x8a, 0x6d, 0x03, 0x41, 0x4f, 0xb7, 0x98, 0x3f, 0x2c, 0x63, 0x1a, 0x41,
  0xeb, 0xff, 0x03, 0xc1, 0xcd, 0xab, 0xf3, 0xbf, 0xd7, 0xe3, 0xa2, 0x40,
  0x69, 0x2c, 0xcb, 0xbe, 0x9f, 0x13, 0xf2, 0xbf, 0xf6, 0xd7, 0xbe, 0x40,
  0x5f, 0xf8, 0xd6, 0xbd, 0x48, 0x29, 0xa9, 0x3d, 0x24, 0xe8, 0x67, 0x40,
  0x62, 0xf7, 0x0f, 0x40, 0xd4, 0x77, 0xdc, 0x3f, 0xfa, 0x34, 0xfc, 0x40,
  0x73, 0xaf, 0x13, 0xc1, 0xa0, 0x8f, 0xca, 0x3d, 0x5b, 0xb1, 0x2b, 0x40,
  0xbf, 0x9e, 0xbc, 0x3f, 0xb2, 0x0b, 0x03, 0xbf, 0xb4, 0x9e, 0x12, 0x41,
  0x4d, 0xaf, 0x10, 0x41, 0x49, 0x0c, 0xd8, 0x3f, 0x4b, 0x45, 0xb5, 0xbf,
  0x05, 0xbb, 0x7f, 0x40, 0x1d, 0x5e, 0xb8, 0x3f, 0x7b, 0x7b, 0x98, 0xbf,
  0x8b, 0x53, 0x3d, 0x40, 0xae, 0x08, 0x04, 0x40, 0x53, 0x3d, 0xfe, 0x40,
  0x88, 0xaf, 0x0f, 0xc1, 0x77, 0x8e, 0x0f, 0x3d, 0x2b, 0x9e, 0x85, 0x40,
  0x47, 0xf8, 0x54, 0x40, 0x9d, 0x8e, 0xc0, 0xbf, 0x7b, 0x32, 0xd3, 0x40,
  0x47, 0x16, 0x0c, 0x41, 0x79, 0x46, 0xf2, 0x3f, 0xce, 0x4f, 0x32, 0xbf,
  0x4f, 0x8f, 0x8d, 0x40, 0xb0, 0xee, 0x57, 0x3f, 0x09, 0x8e, 0x9d, 0x40,
  0x02, 0x2c, 0x76, 0x40, 0xb4, 0x2c, 0xc4, 0x3f, 0x0e, 0xdd, 0x35, 0x40,
  0xb7, 0x0c, 0xf2, 0x3f, 0x36, 0x94, 0xef, 0xbc, 0xc6, 0xcb, 0x19, 0xc0,
  0xab, 0xee, 0x98, 0x40, 0x33, 0xe6, 0xfa, 0xbf, 0x60, 0xd2, 0x0d, 0x41,
  0x9f, 0xdb, 0x36, 0x41, 0x8f, 0x95, 0xd8, 0xbf, 0x58, 0x64, 0xf0, 0x40,
  0x54, 0x7f, 0x17, 0x41, 0xcb, 0x26, 0xb7, 0xbe, 0xec, 0x48, 0xe2, 0x40,
  0xe5, 0xb7, 0x5b, 0xbf, 0x0d, 0x03, 0x01, 0xc0, 0x99, 0xea, 0xc5, 0x40,
  0xec, 0xc1, 0x6f, 0x3f, 0x87, 0xc9, 0x45, 0xc0, 0xe4, 0x92, 0xe6, 0x40,
  0xe6, 0x06, 0x0e, 0x41, 0x7b, 0x25, 0x78, 0xbf, 0x0e, 0xa8, 0xe8, 0x40,
  0x42, 0x2f, 0xe7, 0xc0, 0xcc, 0x0a, 0x30, 0x3e, 0x22, 0xbb, 0x2a, 0x41,
  0x67, 0xfc, 0xfc, 0xc0, 0x20, 0x24, 0xe4, 0x3f, 0x22, 0x55, 0x9a, 0x40,
  0x26, 0xc8, 0xf6, 0x3f, 0x50, 0x40, 0x81, 0xbf, 0x46, 0x06, 0xc5, 0x40,
  0x4a, 0x2f, 0x08, 0x41, 0x1d, 0xa5, 0x2d, 0xbf, 0x09, 0x80, 0x6a, 0x40,
  0x61, 0xb5, 0xc9, 0x3f, 0x7a, 0xa5, 0x44, 0xbf, 0x08, 0xc6, 0xe2, 0x40,
  0x1b, 0x9d, 0x03, 0x41, 0xf0, 0xc1, 0x64, 0xc0, 0x1e, 0xcd, 0xc7, 0x40,
  0xe4, 0x15, 0xa9, 0x3f, 0x14, 0x40, 0xea, 0xbf, 0x0a, 0x5f, 0xdc, 0x40,
  0x54, 0x73, 0xd2, 0xbd, 0x1c, 0xe0, 0xb5, 0x3f, 0xe8, 0x3f, 0x5d, 0x40,
  0xf1, 0xb4, 0x3c, 0x40, 0xcd, 0x42, 0xc1, 0xbe, 0x87, 0x64, 0x65, 0x40,
  0x31, 0xe4, 0xf7, 0x3f, 0xf7, 0x68, 0x83, 0x3f, 0xe0, 0x1b, 0x3b, 0x40,
  0x89, 0x94, 0xe5, 0x3f, 0xa5, 0xe8, 0xfe, 0xbf, 0x54, 0xf7, 0xc0, 0x40,
  0x26, 0x40, 0x13, 0x41, 0xd9, 0x2e, 0xb2, 0x3e, 0xed, 0x5a, 0xf2, 0x40,
  0xd6, 0x40, 0x1c, 0xc1, 0x03, 0x78, 0xae, 0xbc, 0x6d, 0x3d, 0x60, 0x40,
  0x3b, 0xca, 0x10, 0x40, 0xb1, 0x8c, 0xec, 0x3f, 0x49, 0x57, 0x54, 0x40,
  0xbe, 0x84, 0x09, 0x40, 0xc5, 0x74, 0x9e, 0x3f, 0xe6, 0xe5, 0x58, 0x40,
  0xdf, 0x76, 0x3a, 0x40, 0xcc, 0xfd, 0x53, 0xbe, 0x3f, 0x0a, 0x10, 0xc0,
  0x85, 0xa7, 0x94, 0x40, 0x4b, 0xfb, 0xef, 0xbf, 0xf6, 0x34, 0xde, 0x40,
  0xd9, 0x85, 0x0e, 0x41, 0xc2, 0xc3, 0xc0, 0xbf, 0xc9, 0xfc, 0xe1, 0x40,
  0xaa, 0xe2, 0x1a, 0x41, 0x54, 0xdb, 0x42, 0xbf, 0xb7, 0x6d, 0x8d, 0x40,
  0x56, 0xf0, 0x1a, 0x40, 0x25, 0x24, 0xc9, 0x3f, 0xc8, 0xc0, 0x10, 0x3e,
  0x04, 0x43, 0xc4, 0x3a, 0x47, 0x3a, 0xfe, 0x3f, 0x13, 0x82, 0x14, 0x41,
  0xf7, 0x7d, 0x0d, 0xc1, 0xe3, 0x46, 0x60, 0x3e, 0x1d, 0xf3, 0x8e, 0x40,
  0x76, 0xc7, 0x8e, 0x3f, 0xbb, 0x9f, 0x4e, 0x3f, 0xa9, 0x09, 0x06, 0x41,
  0xc1, 0x83, 0x03, 0xc1, 0x41, 0x8e, 0xd0, 0x3c, 0x56, 0x94, 0xf1, 0x40,
  0x30, 0xb6, 0x0c, 0xc1, 0x97, 0xde, 0x26, 0x3d, 0xe8, 0xea, 0x92, 0x40,
  0xbe, 0x9a, 0x1a, 0x40, 0xe7, 0x43, 0x65, 0xbd, 0x86, 0x9f, 0x96, 0x40,
  0xc1, 0x83, 0xaf, 0x3f, 0xef, 0x30, 0x0e, 0xc0, 0x19, 0x57, 0x09, 0x41,
  0xa8, 0xd4, 0x12, 0x41, 0xc6, 0x82, 0x0b, 0xc0, 0xf9, 0x7d, 0xbe, 0x40,
  0x17, 0x28, 0xd5, 0xbc, 0x93, 0x94, 0xca, 0x3f, 0x0d, 0xc7, 0x89, 0x40,
  0x70, 0x55, 0x88, 0x3f, 0xa6, 0xd0, 0x50, 0xbe, 0xb7, 0x0b, 0x90, 0x40,
  0xd7, 0x06, 0x1e, 0x40, 0xcb, 0xa8, 0x02, 0x3f, 0xd7, 0x2c, 0x0e, 0x41,
  0x86, 0xda, 0x07, 0xc1, 0xfe, 0xc1, 0x15, 0x3f, 0x2d, 0xa2, 0x05, 0x41,
  0xf0, 0xdb, 0x12, 0xc1, 0x75, 0x0b, 0x18, 0x40, 0xe8, 0x9d, 0x00, 0x41,
  0x4b, 0xe9, 0xe2, 0xc0, 0xb8, 0xf3, 0x26, 0x3e, 0xbb, 0xf1, 0xfe, 0x40,
  0xbd, 0xb3, 0x12, 0x41, 0x17, 0xcb, 0x49, 0x3f, 0x43, 0x92, 0x8c, 0x40,
  0xd6, 0x55, 0xe6, 0x3e, 0x9a, 0x1f, 0x2e, 0x3f, 0xa1, 0x77, 0x05, 0x40,
  0xfc, 0x95, 0xef, 0x3f, 0x7b, 0x9d, 0x95, 0xbf, 0x12, 0x26, 0x09, 0x41,
  0x06, 0x32, 0xfa, 0x40, 0xfc, 0xc1, 0xca, 0x3d, 0x63, 0xa0, 0x0c, 0xbf,
  0x61, 0xe6, 0x73, 0x40, 0x2b, 0x7c, 0x05, 0x40, 0xb3, 0x24, 0x05, 0x41,
  0xe0, 0xec, 0xda, 0xc0, 0x19, 0x74, 0x00, 0x40, 0x10, 0xb7, 0x41, 0x40,
  0xb4, 0x26, 0x39, 0x40, 0xec, 0x9b, 0xde, 0xbf, 0x88, 0x16, 0x91, 0x40,
  0xc9, 0x2e, 0x1b, 0x40, 0xc4, 0x46, 0xd8, 0x3f, 0xc1, 0xd8, 0x64, 0x40,
  0x24, 0x44, 0x39, 0x40, 0x02, 0x8d, 0x98, 0x3f, 0x88, 0x0c, 0x21, 0x41,
  0x92, 0xcb, 0x0d, 0xc1, 0x59, 0x2d, 0x2f, 0xc0, 0x0b, 0x52, 0xe8, 0x40,
  0x22, 0xca, 0x18, 0x41, 0xd7, 0x9e, 0xe3, 0x3a, 0x18, 0x50, 0xa6, 0xbe,
  0x4a, 0x1a, 0x2b, 0x40, 0x99, 0x74, 0xb1, 0xbd, 0x0b, 0xbe, 0x01, 0x41,
  0x20, 0x88, 0xfa, 0xc0, 0x53, 0xa5, 0x3e, 0xc0, 0xc6, 0x83, 0xf6, 0x40,
  0x3a, 0xb4, 0x11, 0x41, 0x48, 0xbe, 0x07, 0x40, 0x1d, 0x6e, 0xbf, 0x40,
  0xb0, 0x27, 0x22, 0x40, 0xe8, 0x41, 0x43, 0xbf, 0xd3, 0x72, 0xce, 0x40,
  0x98, 0xc2, 0xb8, 0x3f, 0xf4, 0x56, 0xf0, 0xbf, 0xa2, 0xcc, 0x02, 0x41,
  0x75, 0xed, 0x2f, 0x41, 0xd5, 0x13, 0xb3, 0x3d, 0xd5, 0xb1, 0x16, 0x41,
  0xb4, 0x49, 0x1c, 0x41, 0x49, 0x89, 0x11, 0xbf, 0xae, 0x66, 0xad, 0x40,
  0x66, 0x3a, 0x62, 0x3f, 0x3c, 0x9f, 0xd3, 0x3f, 0x7c, 0x4a, 0x97, 0x40,
  0x5f, 0xe8, 0xc8, 0x3f, 0xd1, 0xb4, 0xca, 0x3f, 0xd5, 0x62, 0x49, 0xc0,
  0xcd, 0x2e, 0x04, 0x40, 0x42, 0xe6, 0xa7, 0xbf, 0xe9, 0xa8, 0x02, 0x41,
  0xd0, 0x30, 0x0e, 0x41, 0x2f, 0x60, 0xaa, 0xbf, 0x47, 0xb3, 0xa8, 0x40,
  0x26, 0x46, 0x1f, 0xbe, 0x83, 0x50, 0x36, 0x40, 0xc0, 0x01, 0x82, 0x40,
  0x82, 0xf3, 0x06, 0x40, 0x30, 0x94, 0xa7, 0xbf, 0xda, 0xcb, 0x34, 0x40,
  0xb3, 0xba, 0x33, 0x3f, 0x32, 0xea, 0x16, 0x40, 0x86, 0xb0, 0xf9, 0x40,
  0x55, 0xb7, 0x1a, 0xc1, 0xe8, 0x16, 0x24, 0xc0, 0xb4, 0x12, 0xa8, 0x40,
  0xe6, 0x29, 0x95, 0x3f, 0x27, 0x35, 0x06, 0xbf, 0x78, 0x14, 0x1e, 0xc0,
  0xad, 0x2c, 0x82, 0x40, 0xa6, 0xf2, 0x2b, 0xc0, 0xb8, 0x70, 0xe6, 0x40,
  0x8e, 0xb1, 0x0d, 0x40, 0x6c, 0xc7, 0x02, 0x40, 0xdb, 0xd4, 0x00, 0x41,
  0x5d, 0x08, 0xf3, 0xc0, 0xee, 0x01, 0x02, 0x3f, 0x4d, 0x17, 0x0c, 0x41,
  0xa5, 0xc6, 0xcc, 0xc0, 0xad, 0x04, 0x67, 0xc0, 0x30, 0x2d, 0xc8, 0x40,
  0x7d, 0xf9, 0xac, 0x3e, 0x9c, 0x9e, 0x3d, 0xbf, 0x0c, 0xe2, 0x35, 0x40,
  0x22, 0xf9, 0xbd, 0x3f, 0x2b, 0xca, 0x86, 0x3f, 0x6a, 0xe8, 0x04, 0x41,
  0x9b, 0x16, 0x0e, 0xc1, 0x9c, 0xc4, 0x90, 0x3f, 0x79, 0x98, 0x08, 0x41,
  0xe1, 0xe1, 0x24, 0xc1, 0xc5, 0xe5, 0x8e, 0x3f, 0x42, 0x3c, 0x76, 0xbf,
  0x06, 0x67, 0xca, 0x3f, 0x86, 0x77, 0xc5, 0x3f, 0x68, 0x7f, 0x8e, 0x40,
  0xfc, 0x1b, 0x7a, 0x3f, 0x5a, 0x82, 0x62, 0x40, 0x83, 0xb2, 0x10, 0x41,
  0xd1, 0xf0, 0xfb, 0xc0, 0x02, 0x1b, 0xbe, 0x3f, 0x28, 0x98, 0xee, 0x40,
  0x38, 0x9f, 0x06, 0xc1, 0x1b, 0xea, 0x65, 0x3f, 0x3d, 0xcf, 0xae, 0xbf,
  0x16, 0x8a, 0xc2, 0x3f, 0x66, 0xeb, 0x2c, 0x3f, 0x59, 0x5d, 0xf5, 0x40,
  0xcb, 0xbb, 0xde, 0xc0, 0x49, 0xd9, 0xce, 0x3f, 0x44, 0xbf, 0x7a, 0x40,
  0xd3, 0xc6, 0xa3, 0x3f, 0xd4, 0x78, 0x32, 0x40, 0x1a, 0x9e, 0x00, 0x40,
  0xeb, 0x36, 0x2d, 0x40, 0x04, 0xd1, 0x88, 0xc0, 0x4f, 0x53, 0x98, 0x40,
  0xc1, 0x98, 0x42, 0x40, 0x18, 0x7b, 0x96, 0x3f, 0x23, 0x6c, 0x05, 0x41,
  0xe2, 0x92, 0x02, 0xc1, 0xd7, 0x74, 0xed, 0x3f, 0x35, 0x13, 0xe4, 0x40,
  0x2c, 0x7d, 0x01, 0xc1, 0xdb, 0x5d, 0xb2, 0xbf, 0xb1, 0xc1, 0x06, 0x41,
  0xb7, 0x86, 0x05, 0x41, 0x1a, 0x64, 0xde, 0xbd, 0xc4, 0x99, 0xde, 0xbf,
  0x03, 0xb3, 0xd9, 0x3f, 0x03, 0xfd, 0x7a, 0xc0, 0xe1, 0x32, 0xba, 0x40,
  0x50, 0x1b, 0xf4, 0x3f, 0xf3, 0x67, 0x7a, 0x3e, 0xff, 0x6e, 0x8c, 0xbf,
  0xb2, 0xa7, 0x2f, 0x40, 0x66, 0x27, 0xaa, 0x3f, 0x8e, 0x61, 0x10, 0xc0,
  0x5f, 0x1c, 0x42, 0x40, 0x67, 0xd8, 0x8b, 0x3f, 0x72, 0x06, 0x15, 0x41,
  0x20, 0x95, 0x23, 0xc1, 0x45, 0x69, 0x79, 0xc0, 0x0f, 0xea, 0xad, 0x40,
  0x8e, 0x71, 0x9a, 0x3f, 0x44, 0x10, 0x2c, 0x40, 0xba, 0x5d, 0x06, 0x41,
  0xd9, 0x52, 0x0e, 0xc1, 0x15, 0x28, 0x13, 0xc0, 0x8e, 0x9d, 0x8c, 0x40,
  0xcf, 0x7b, 0xaa, 0x3f, 0x59, 0xf8, 0xf4, 0x3f, 0xe0, 0x92, 0x81, 0x40,
  0xf2, 0xd8, 0x41, 0x40, 0xef, 0x6a, 0x90, 0xbf, 0x95, 0x29, 0xfc, 0x40,
  0x49, 0x1f, 0x15, 0x41, 0xf6, 0xdd, 0x7b, 0xc0, 0xea, 0x54, 0xd6, 0x40,
  0x87, 0x53, 0x9c, 0xbf, 0xcd, 0xd2, 0xd5, 0xbf, 0x77, 0xe6, 0xfe, 0x40,
  0x8c, 0xb0, 0x83, 0x3f, 0xe1, 0x8a, 0x56, 0xbf, 0x41, 0xc4, 0x01, 0x41,
  0x1f, 0xbe, 0x12, 0x41, 0x5f, 0x68, 0x0d, 0x3f, 0x2a, 0xfd, 0x49, 0x3f,
  0xe5, 0x4c, 0x36, 0x3f, 0x15, 0x7e, 0x19, 0x40, 0xca, 0x83, 0xc9, 0xbf,
  0xf4, 0xfe, 0x0a, 0x40, 0x2c, 0x6d, 0xda, 0x3e, 0xb0, 0x65, 0x9a, 0x40,
  0xb4, 0x78, 0x0a, 0x40, 0x66, 0xca, 0xff, 0xff, 0x10, 0x00, 0x00, 0x00,
  0x1f, 0x00, 0x00, 0x00, 0x14, 0x00, 0x00, 0x00, 0x1c, 0x00, 0x00, 0x00,
  0x02, 0x00, 0x00, 0x00, 0xbc, 0x02, 0x00, 0x00, 0x03, 0x00, 0x00, 0x00,
  0x06, 0x00, 0x00, 0x00, 0x43, 0x6f, 0x6e, 0x73, 0x74, 0x31, 0x00, 0x00,
  0x44, 0xca, 0xff, 0xff, 0xd6, 0xd5, 0xff, 0xff, 0x04, 0x00, 0x00, 0x00,
  0x04, 0x00, 0x00, 0x00, 0x00, 0x00, 0x00, 0x00, 0x42, 0xf7, 0xff, 0xff,
  0x00, 0x00, 0x00, 0x02, 0x10, 0x00, 0x00, 0x00, 0x1e, 0x00, 0x00, 0x00,
  0x10, 0x00, 0x00, 0x00, 0x28, 0x00, 0x00, 0x00, 0x01, 0x00, 0x00, 0x00,
  0x01, 0x00, 0x00, 0x00, 0x14, 0x00, 0x00, 0x00, 0x73, 0x74, 0x72, 0x69,
  0x64, 0x65, 0x64, 0x5f, 0x73, 0x6c, 0x69, 0x63, 0x65, 0x2f, 0x73, 0x74,
  0x61, 0x63, 0x6b, 0x31, 0x00, 0x00, 0x00, 0x00, 0x94, 0xca, 0xff, 0xff,
  0x26, 0xd6, 0xff, 0xff, 0x04, 0x00, 0x00, 0x00, 0x04, 0x00, 0x00, 0x00,
  0x01, 0x00, 0x00, 0x00, 0x92, 0xf7, 0xff, 0xff, 0x00, 0x00, 0x00, 0x02,
  0x10, 0x00, 0x00, 0x00, 0x1d, 0x00, 0x00, 0x00, 0x10, 0x00, 0x00, 0x00,
  0x28, 0x00, 0x00, 0x00, 0x01, 0x00, 0x00, 0x00, 0x01, 0x00, 0x00, 0x00,
  0x16, 0x00, 0x00, 0x00, 0x73, 0x74, 0x72, 0x69, 0x64, 0x65, 0x64, 0x5f,
  0x73, 0x6c, 0x69, 0x63, 0x65, 0x2f, 0x73, 0x74, 0x61, 0x63, 0x6b, 0x5f,
  0x32, 0x31, 0x00, 0x00, 0xe4, 0xca, 0xff, 0xff, 0x36, 0xcb, 0xff, 0xff,
  0x10, 0x00, 0x00, 0x00, 0x1c, 0x00, 0x00, 0x00, 0x10, 0x00, 0x00, 0x00,
  0x18, 0x00, 0x00, 0x00, 0x01, 0x00, 0x00, 0x00, 0x03, 0x00, 0x00, 0x00,
  0x04, 0x00, 0x00, 0x00, 0x61, 0x72, 0x67, 0x33, 0x00, 0x00, 0x00, 0x00,
  0x10, 0xcb, 0xff, 0xff, 0x62, 0xcb, 0xff, 0xff, 0x10, 0x00, 0x00, 0x00,
  0x1b, 0x00, 0x00, 0x00, 0x10, 0x00, 0x00, 0x00, 0x18, 0x00, 0x00, 0x00,
  0x01, 0x00, 0x00, 0x00, 0xbc, 0x02, 0x00, 0x00, 0x04, 0x00, 0x00, 0x00,
  0x61, 0x72, 0x67, 0x32, 0x00, 0x00, 0x00, 0x00, 0x3c, 0xcb, 0xff, 0xff,
  0x2a, 0xf8, 0xff, 0xff, 0x00, 0x00, 0x00, 0x02, 0x10, 0x00, 0x00, 0x00,
  0x1a, 0x00, 0x00, 0x00, 0x0c, 0x00, 0x00, 0x00, 0x14, 0x00, 0x00, 0x00,
  0x00, 0x00, 0x00, 0x00, 0x04, 0x00, 0x00, 0x00, 0x61, 0x72, 0x67, 0x31,
  0x00, 0x00, 0x00, 0x00, 0x68, 0xcb, 0xff, 0xff, 0x56, 0xf8, 0xff, 0xff,
  0x00, 0x00, 0x00, 0x02, 0x10, 0x00, 0x00, 0x00, 0x19, 0x00, 0x00, 0x00,
  0x0c, 0x00, 0x00, 0x00, 0x14, 0x00, 0x00, 0x00, 0x00, 0x00, 0x00, 0x00,
  0x04, 0x00, 0x00, 0x00, 0x61, 0x72, 0x67, 0x30, 0x00, 0x00, 0x00, 0x00,
  0x94, 0xcb, 0xff, 0xff, 0x46, 0xfd, 0xff, 0xff, 0x14, 0x00, 0x00, 0x00,
  0x34, 0x00, 0x00, 0x00, 0x44, 0x00, 0x00, 0x00, 0x48, 0x00, 0x00, 0x00,
  0x54, 0x00, 0x00, 0x00, 0x08, 0x00, 0x00, 0x00, 0x70, 0x02, 0x00, 0x00,
  0x40, 0x02, 0x00, 0x00, 0x10, 0x02, 0x00, 0x00, 0xe0, 0x01, 0x00, 0x00,
  0xa0, 0x01, 0x00, 0x00, 0x54, 0x01, 0x00, 0x00, 0xdc, 0x00, 0x00, 0x00,
  0x78, 0x00, 0x00, 0x00, 0x04, 0x00, 0x00, 0x00, 0x00, 0x00, 0x00, 0x00,
  0x01, 0x00, 0x00, 0x00, 0x02, 0x00, 0x00, 0x00, 0x03, 0x00, 0x00, 0x00,
  0x01, 0x00, 0x00, 0x00, 0x07, 0x00, 0x00, 0x00, 0x03, 0x00, 0x00, 0x00,
  0xf4, 0x00, 0x00, 0x00, 0x8c, 0x00, 0x00, 0x00, 0x18, 0x00, 0x00, 0x00,
  0x0e, 0x00, 0x00, 0x00, 0x6d, 0x61, 0x70, 0x2f, 0x77, 0x68, 0x69, 0x6c,
  0x65, 0x5f, 0x63, 0x6f, 0x6e, 0x64, 0x00, 0x00, 0x36, 0xff, 0xff, 0xff,
  0x05, 0x00, 0x00, 0x00, 0x10, 0x00, 0x00, 0x00, 0x04, 0x00, 0x00, 0x00,
  0x01, 0x00, 0x00, 0x00, 0x07, 0x00, 0x00, 0x00, 0x02, 0x00, 0x00, 0x00,
  0x05, 0x00, 0x00, 0x00, 0x06, 0x00, 0x00, 0x00, 0x38, 0xfb, 0xff, 0xff,
  0x56, 0x00, 0x00, 0x00, 0x00, 0x00, 0x00, 0x56, 0x01, 0x00, 0x00, 0x00,
  0x32, 0xf9, 0xff, 0xff, 0x00, 0x00, 0x00, 0x06, 0x10, 0x00, 0x00, 0x00,
  0x18, 0x00, 0x00, 0x00, 0x0c, 0x00, 0x00, 0x00, 0x24, 0x00, 0x00, 0x00,
  0x00, 0x00, 0x00, 0x00, 0x14, 0x00, 0x00, 0x00, 0x6d, 0x61, 0x70, 0x2f,
  0x77, 0x68, 0x69, 0x6c, 0x65, 0x2f, 0x4c, 0x6f, 0x67, 0x69, 0x63, 0x61,
  0x6c, 0x41, 0x6e, 0x64, 0x00, 0x00, 0x00, 0x00, 0x80, 0xcc, 0xff, 0xff,
  0xa6, 0xff, 0xff, 0xff, 0x04, 0x00, 0x00, 0x00, 0x10, 0x00, 0x00, 0x00,
  0x04, 0x00, 0x00, 0x00, 0x01, 0x00, 0x00, 0x00, 0x06, 0x00, 0x00, 0x00,
  0x02, 0x00, 0x00, 0x00, 0x01, 0x00, 0x00, 0x00, 0x04, 0x00, 0x00, 0x00,
  0x92, 0xf9, 0xff, 0xff, 0x00, 0x00, 0x00, 0x06, 0x10, 0x00, 0x00, 0x00,
  0x17, 0x00, 0x00, 0x00, 0x0c, 0x00, 0x00, 0x00, 0x1c, 0x00, 0x00, 0x00,
  0x00, 0x00, 0x00, 0x00, 0x0e, 0x00, 0x00, 0x00, 0x6d, 0x61, 0x70, 0x2f,
  0x77, 0x68, 0x69, 0x6c, 0x65, 0x2f, 0x4c, 0x65, 0x73, 0x73, 0x00, 0x00,
  0x30, 0xcd, 0xff, 0xff, 0x00, 0x00, 0x0a, 0x00, 0x10, 0x00, 0x04, 0x00,
  0x08, 0x00, 0x0c, 0x00, 0x0a, 0x00, 0x00, 0x00, 0x04, 0x00, 0x00, 0x00,
  0x10, 0x00, 0x00, 0x00, 0x04, 0x00, 0x00, 0x00, 0x01, 0x00, 0x00, 0x00,
  0x05, 0x00, 0x00, 0x00, 0x02, 0x00, 0x00, 0x00, 0x00, 0x00, 0x00, 0x00,
  0x04, 0x00, 0x00, 0x00, 0x0c, 0xfc, 0xff, 0xff, 0x3a, 0x00, 0x00, 0x00,
  0x00, 0x00, 0x00, 0x3a, 0x01, 0x00, 0x00, 0x00, 0x06, 0xfa, 0xff, 0xff,
  0x00, 0x00, 0x00, 0x06, 0x10, 0x00, 0x00, 0x00, 0x16, 0x00, 0x00, 0x00,
  0x0c, 0x00, 0x00, 0x00, 0x20, 0x00, 0x00, 0x00, 0x00, 0x00, 0x00, 0x00,
  0x10, 0x00, 0x00, 0x00, 0x6d, 0x61, 0x70, 0x2f, 0x77, 0x68, 0x69, 0x6c,
  0x65, 0x2f, 0x4c, 0x65, 0x73, 0x73, 0x5f, 0x31, 0x00, 0x00, 0x00, 0x00,
  0x50, 0xcd, 0xff, 0xff, 0xe2, 0xd8, 0xff, 0xff, 0x04, 0x00, 0x00, 0x00,
  0x04, 0x00, 0x00, 0x00, 0xbc, 0x02, 0x00, 0x00, 0x4e, 0xfa, 0xff, 0xff,
  0x00, 0x00, 0x00, 0x02, 0x10, 0x00, 0x00, 0x00, 0x15, 0x00, 0x00, 0x00,
  0x0c, 0x00, 0x00, 0x00, 0x24, 0x00, 0x00, 0x00, 0x00, 0x00, 0x00, 0x00,
  0x16, 0x00, 0x00, 0x00, 0x61, 0x72, 0x67, 0x73, 0x6f, 0x72, 0x74, 0x2f,
  0x73, 0x74, 0x72, 0x69, 0x64, 0x65, 0x64, 0x5f, 0x73, 0x6c, 0x69, 0x63,
  0x65, 0x31, 0x00, 0x00, 0x9c, 0xcd, 0xff, 0xff, 0xee, 0xcd, 0xff, 0xff,
  0x10, 0x00, 0x00, 0x00, 0x14, 0x00, 0x00, 0x00, 0x10, 0x00, 0x00, 0x00,
  0x18, 0x00, 0x00, 0x00, 0x01, 0x00, 0x00, 0x00, 0x03, 0x00, 0x00, 0x00,
  0x04, 0x00, 0x00, 0x00, 0x61, 0x72, 0x67, 0x33, 0x00, 0x00, 0x00, 0x00,
  0xc8, 0xcd, 0xff, 0xff, 0x1a, 0xce, 0xff, 0xff, 0x10, 0x00, 0x00, 0x00,
  0x13, 0x00, 0x00, 0x00, 0x10, 0x00, 0x00, 0x00, 0x18, 0x00, 0x00, 0x00,
  0x01, 0x00, 0x00, 0x00, 0xbc, 0x02, 0x00, 0x00, 0x04, 0x00, 0x00, 0x00,
  0x61, 0x72, 0x67, 0x32, 0x00, 0x00, 0x00, 0x00, 0xf4, 0xcd, 0xff, 0xff,
  0xe2, 0xfa, 0xff, 0xff, 0x00, 0x00, 0x00, 0x02, 0x10, 0x00, 0x00, 0x00,
  0x12, 0x00, 0x00, 0x00, 0x0c, 0x00, 0x00, 0x00, 0x14, 0x00, 0x00, 0x00,
  0x00, 0x00, 0x00, 0x00, 0x04, 0x00, 0x00, 0x00, 0x61, 0x72, 0x67, 0x31,
  0x00, 0x00, 0x00, 0x00, 0x20, 0xce, 0xff, 0xff, 0x0e, 0xfb, 0xff, 0xff,
  0x00, 0x00, 0x00, 0x02, 0x10, 0x00, 0x00, 0x00, 0x11, 0x00, 0x00, 0x00,
  0x0c, 0x00, 0x00, 0x00, 0x14, 0x00, 0x00, 0x00, 0x00, 0x00, 0x00, 0x00,
  0x04, 0x00, 0x00, 0x00, 0x61, 0x72, 0x67, 0x30, 0x00, 0x00, 0x00, 0x00,
  0xa4, 0xce, 0xff, 0xff, 0x00, 0x00, 0x0e, 0x00, 0x18, 0x00, 0x04, 0x00,
  0x08, 0x00, 0x0c, 0x00, 0x10, 0x00, 0x14, 0x00, 0x0e, 0x00, 0x00, 0x00,
  0x14, 0x00, 0x00, 0x00, 0x54, 0x00, 0x00, 0x00, 0x58, 0x00, 0x00, 0x00,
  0x5c, 0x00, 0x00, 0x00, 0x6c, 0x00, 0x00, 0x00, 0x10, 0x00, 0x00, 0x00,
  0x44, 0x31, 0x00, 0x00, 0xf4, 0x30, 0x00, 0x00, 0xbc, 0x25, 0x00, 0x00,
  0x9c, 0x04, 0x00, 0x00, 0x48, 0x04, 0x00, 0x00, 0xf8, 0x03, 0x00, 0x00,
  0xa8, 0x03, 0x00, 0x00, 0x54, 0x03, 0x00, 0x00, 0x10, 0x03, 0x00, 0x00,
  0xdc, 0x02, 0x00, 0x00, 0xa8, 0x02, 0x00, 0x00, 0x74, 0x02, 0x00, 0x00,
  0xc4, 0x01, 0x00, 0x00, 0x40, 0x01, 0x00, 0x00, 0x04, 0x01, 0x00, 0x00,
  0x80, 0x00, 0x00, 0x00, 0x01, 0x00, 0x00, 0x00, 0x00, 0x00, 0x00, 0x00,
  0x01, 0x00, 0x00, 0x00, 0x0f, 0x00, 0x00, 0x00, 0x04, 0x00, 0x00, 0x00,
  0xe0, 0x01, 0x00, 0x00, 0x60, 0x01, 0x00, 0x00, 0x9c, 0x00, 0x00, 0x00,
  0x10, 0x00, 0x00, 0x00, 0x04, 0x00, 0x00, 0x00, 0x6d, 0x61, 0x69, 0x6e,
  0x00, 0x00, 0x00, 0x00, 0xc6, 0xfe, 0xff, 0xff, 0x00, 0x00, 0x00, 0x20,
  0x03, 0x00, 0x00, 0x00, 0x1c, 0x00, 0x00, 0x00, 0x10, 0x00, 0x00, 0x00,
  0x04, 0x00, 0x00, 0x00, 0x92, 0xda, 0xff, 0xff, 0x01, 0x00, 0x00, 0x00,
  0x01, 0x00, 0x00, 0x00, 0x0f, 0x00, 0x00, 0x00, 0x04, 0x00, 0x00, 0x00,
  0x0e, 0x00, 0x00, 0x00, 0x06, 0x00, 0x00, 0x00, 0x03, 0x00, 0x00, 0x00,
  0x07, 0x00, 0x00, 0x00, 0x28, 0xfe, 0xff, 0xff, 0x2d, 0x00, 0x00, 0x00,
  0x00, 0x00, 0x00, 0x2d, 0x01, 0x00, 0x00, 0x00, 0x22, 0xfc, 0xff, 0xff,
  0x00, 0x00, 0x00, 0x02, 0x10, 0x00, 0x00, 0x00, 0x10, 0x00, 0x00, 0x00,
  0x10, 0x00, 0x00, 0x00, 0x24, 0x00, 0x00, 0x00, 0x01, 0x00, 0x00, 0x00,
  0x03, 0x00, 0x00, 0x00, 0x11, 0x00, 0x00, 0x00, 0x50, 0x61, 0x72, 0x74,
  0x69, 0x74, 0x69, 0x6f, 0x6e, 0x65, 0x64, 0x43, 0x61, 0x6c, 0x6c, 0x3a,
  0x30, 0x00, 0x00, 0x00, 0x70, 0xcf, 0xff, 0xff, 0x4e, 0xff, 0xff, 0xff,
  0x00, 0x00, 0x00, 0x22, 0x02, 0x00, 0x00, 0x00, 0x1c, 0x00, 0x00, 0x00,
  0x0c, 0x00, 0x00, 0x00, 0x04, 0x00, 0x00, 0x00, 0x8c, 0xcf, 0xff, 0xff,
  0x02, 0x00, 0x00, 0x00, 0x0d, 0x00, 0x00, 0x00, 0x0e, 0x00, 0x00, 0x00,
  0x02, 0x00, 0x00, 0x00, 0x0c, 0x00, 0x00, 0x00, 0x05, 0x00, 0x00, 0x00,
  0xa8, 0xfe, 0xff, 0xff, 0x30, 0x00, 0x00, 0x00, 0x00, 0x00, 0x00, 0x30,
  0x01, 0x00, 0x00, 0x00, 0xa2, 0xfc, 0xff, 0xff, 0x00, 0x00, 0x00, 0x02,
  0x10, 0x00, 0x00, 0x00, 0x0f, 0x00, 0x00, 0x00, 0x10, 0x00, 0x00, 0x00,
  0x20, 0x00, 0x00, 0x00, 0x01, 0x00, 0x00, 0x00, 0xbc, 0x02, 0x00, 0x00,
  0x0f, 0x00, 0x00, 0x00, 0x61, 0x72, 0x67, 0x73, 0x6f, 0x72, 0x74, 0x2f,
  0x54, 0x6f, 0x70, 0x4b, 0x56, 0x32, 0x31, 0x00, 0xec, 0xcf, 0xff, 0xff,
  0x3e, 0xd0, 0xff, 0xff, 0x10, 0x00, 0x00, 0x00, 0x0e, 0x00, 0x00, 0x00,
  0x10, 0x00, 0x00, 0x00, 0x20, 0x00, 0x00, 0x00, 0x01, 0x00, 0x00, 0x00,
  0xbc, 0x02, 0x00, 0x00, 0x0e, 0x00, 0x00, 0x00, 0x61, 0x72, 0x67, 0x73,
  0x6f, 0x72, 0x74, 0x2f, 0x54, 0x6f, 0x70, 0x4b, 0x56, 0x32, 0x00, 0x00,
  0x78, 0xd0, 0xff, 0xff, 0x00, 0x00, 0x0e, 0x00, 0x18, 0x00, 0x08, 0x00,
  0x0c, 0x00, 0x10, 0x00, 0x07, 0x00, 0x14, 0x00, 0x0e, 0x00, 0x00, 0x00,
  0x00, 0x00, 0x00, 0x2a, 0x01, 0x00, 0x00, 0x00, 0x18, 0x00, 0x00, 0x00,
  0x0c, 0x00, 0x00, 0x00, 0x04, 0x00, 0x00, 0x00, 0x4c, 0xd0, 0xff, 0xff,
  0x01, 0x00, 0x00, 0x00, 0x0c, 0x00, 0x00, 0x00, 0x01, 0x00, 0x00, 0x00,
  0x0a, 0x00, 0x00, 0x00, 0x60, 0xff, 0xff, 0xff, 0x3b, 0x00, 0x00, 0x00,
  0x00, 0x00, 0x00, 0x3b, 0x01, 0x00, 0x00, 0x00, 0xbe, 0xd0, 0xff, 0xff,
  0x10, 0x00, 0x00, 0x00, 0x0d, 0x00, 0x00, 0x00, 0x10, 0x00, 0x00, 0x00,
  0x1c, 0x00, 0x00, 0x00, 0x01, 0x00, 0x00, 0x00, 0xbc, 0x02, 0x00, 0x00,
  0x0b, 0x00, 0x00, 0x00, 0x61, 0x72, 0x67, 0x73, 0x6f, 0x72, 0x74, 0x2f,
  0x4e, 0x65, 0x67, 0x00, 0xf4, 0xd0, 0xff, 0xff, 0x00, 0x00, 0x0e, 0x00,
  0x14, 0x00, 0x00, 0x00, 0x08, 0x00, 0x0c, 0x00, 0x07, 0x00, 0x10, 0x00,
  0x0e, 0x00, 0x00, 0x00, 0x00, 0x00, 0x00, 0x5d, 0x20, 0x00, 0x00, 0x00,
  0x08, 0x00, 0x00, 0x00, 0x34, 0x00, 0x00, 0x00, 0x04, 0x00, 0x00, 0x00,
  0x08, 0x00, 0x00, 0x00, 0x09, 0x00, 0x00, 0x00, 0x0a, 0x00, 0x00, 0x00,
  0x0b, 0x00, 0x00, 0x00, 0x04, 0x00, 0x00, 0x00, 0x04, 0x00, 0x00, 0x00,
  0x04, 0x00, 0x00, 0x00, 0x01, 0x00, 0x00, 0x00, 0x00, 0x00, 0x00, 0x00,
  0x08, 0x00, 0x0c, 0x00, 0x04, 0x00, 0x08, 0x00, 0x08, 0x00, 0x00, 0x00,
  0x01, 0x00, 0x00, 0x00, 0x02, 0x00, 0x00, 0x00, 0x0c, 0x00, 0x10, 0x00,
  0x0b, 0x00, 0x00, 0x00, 0x0c, 0x00, 0x04, 0x00, 0x0c, 0x00, 0x00, 0x00,
  0x77, 0x00, 0x00, 0x00, 0x00, 0x00, 0x00, 0x77, 0x01, 0x00, 0x00, 0x00,
  0x6a, 0xd1, 0xff, 0xff, 0x10, 0x00, 0x00, 0x00, 0x0c, 0x00, 0x00, 0x00,
  0x10, 0x00, 0x00, 0x00, 0x1c, 0x00, 0x00, 0x00, 0x01, 0x00, 0x00, 0x00,
  0x03, 0x00, 0x00, 0x00, 0x0a, 0x00, 0x00, 0x00, 0x6d, 0x61, 0x70, 0x2f,
  0x77, 0x68, 0x69, 0x6c, 0x65, 0x33, 0x00, 0x00, 0x48, 0xd1, 0xff, 0xff,
  0x9a, 0xd1, 0xff, 0xff, 0x10, 0x00, 0x00, 0x00, 0x0b, 0x00, 0x00, 0x00,
  0x10, 0x00, 0x00, 0x00, 0x1c, 0x00, 0x00, 0x00, 0x01, 0x00, 0x00, 0x00,
  0xbc, 0x02, 0x00, 0x00, 0x0a, 0x00, 0x00, 0x00, 0x6d, 0x61, 0x70, 0x2f,
  0x77, 0x68, 0x69, 0x6c, 0x65, 0x32, 0x00, 0x00, 0x78, 0xd1, 0xff, 0xff,
  0x66, 0xfe, 0xff, 0xff, 0x00, 0x00, 0x00, 0x02, 0x10, 0x00, 0x00, 0x00,
  0x0a, 0x00, 0x00, 0x00, 0x0c, 0x00, 0x00, 0x00, 0x18, 0x00, 0x00, 0x00,
  0x00, 0x00, 0x00, 0x00, 0x0a, 0x00, 0x00, 0x00, 0x6d, 0x61, 0x70, 0x2f,
  0x77, 0x68, 0x69, 0x6c, 0x65, 0x31, 0x00, 0x00, 0xa8, 0xd1, 0xff, 0xff,
  0x96, 0xfe, 0xff, 0xff, 0x00, 0x00, 0x00, 0x02, 0x10, 0x00, 0x00, 0x00,
  0x09, 0x00, 0x00, 0x00, 0x0c, 0x00, 0x00, 0x00, 0x18, 0x00, 0x00, 0x00,
  0x00, 0x00, 0x00, 0x00, 0x09, 0x00, 0x00, 0x00, 0x6d, 0x61, 0x70, 0x2f,
  0x77, 0x68, 0x69, 0x6c, 0x65, 0x00, 0x00, 0x00, 0xd8, 0xd1, 0xff, 0xff,
  0x6a, 0xdd, 0xff, 0xff, 0x04, 0x00, 0x00, 0x00, 0x04, 0x00, 0x00, 0x00,
  0x01, 0x00, 0x00, 0x00, 0xd6, 0xfe, 0xff, 0xff, 0x00, 0x00, 0x00, 0x02,
  0x10, 0x00, 0x00, 0x00, 0x08, 0x00, 0x00, 0x00, 0x10, 0x00, 0x00, 0x00,
  0x28, 0x00, 0x00, 0x00, 0x01, 0x00, 0x00, 0x00, 0x01, 0x00, 0x00, 0x00,
  0x15, 0x00, 0x00, 0x00, 0x73, 0x74, 0x72, 0x69, 0x64, 0x65, 0x64, 0x5f,
  0x73, 0x6c, 0x69, 0x63, 0x65, 0x2f, 0x73, 0x74, 0x61, 0x63, 0x6b, 0x5f,
  0x32, 0x00, 0x00, 0x00, 0x28, 0xd2, 0xff, 0xff, 0xba, 0xdd, 0xff, 0xff,
  0x04, 0x00, 0x00, 0x00, 0x04, 0x00, 0x00, 0x00, 0x00, 0x00, 0x00, 0x00,
  0x26, 0xff, 0xff, 0xff, 0x00, 0x00, 0x00, 0x02, 0x10, 0x00, 0x00, 0x00,
  0x07, 0x00, 0x00, 0x00, 0x10, 0x00, 0x00, 0x00, 0x24, 0x00, 0x00, 0x00,
  0x01, 0x00, 0x00, 0x00, 0x01, 0x00, 0x00, 0x00, 0x13, 0x00, 0x00, 0x00,
  0x73, 0x74, 0x72, 0x69, 0x64, 0x65, 0x64, 0x5f, 0x73, 0x6c, 0x69, 0x63,
  0x65, 0x2f, 0x73, 0x74, 0x61, 0x63, 0x6b, 0x00, 0x74, 0xd2, 0xff, 0xff,
  0x06, 0xde, 0xff, 0xff, 0x04, 0x00, 0x00, 0x00, 0x04, 0x00, 0x00, 0x00,
  0xbc, 0x02, 0x00, 0x00, 0x72, 0xff, 0xff, 0xff, 0x00, 0x00, 0x00, 0x02,
  0x10, 0x00, 0x00, 0x00, 0x06, 0x00, 0x00, 0x00, 0x0c, 0x00, 0x00, 0x00,
  0x24, 0x00, 0x00, 0x00, 0x00, 0x00, 0x00, 0x00, 0x15, 0x00, 0x00, 0x00,
  0x61, 0x72, 0x67, 0x73, 0x6f, 0x72, 0x74, 0x2f, 0x73, 0x74, 0x72, 0x69,
  0x64, 0x65, 0x64, 0x5f, 0x73, 0x6c, 0x69, 0x63, 0x65, 0x00, 0x00, 0x00,
  0xc0, 0xd2, 0xff, 0xff, 0x52, 0xde, 0xff, 0xff, 0x04, 0x00, 0x00, 0x00,
  0x04, 0x00, 0x00, 0x00, 0x00, 0x00, 0x00, 0x00, 0xbe, 0xff, 0xff, 0xff,
  0x00, 0x00, 0x00, 0x02, 0x10, 0x00, 0x00, 0x00, 0x05, 0x00, 0x00, 0x00,
  0x0c, 0x00, 0x00, 0x00, 0x18, 0x00, 0x00, 0x00, 0x00, 0x00, 0x00, 0x00,
  0x09, 0x00, 0x00, 0x00, 0x6d, 0x61, 0x70, 0x2f, 0x43, 0x6f, 0x6e, 0x73,
  0x74, 0x00, 0x00, 0x00, 0x00, 0xd3, 0xff, 0xff, 0x92, 0xde, 0xff, 0xff,
  0x04, 0x00, 0x00, 0x00, 0x04, 0x00, 0x00, 0x00, 0x03, 0x00, 0x00, 0x00,
  0x00, 0x00, 0x0e, 0x00, 0x18, 0x00, 0x08, 0x00, 0x07, 0x00, 0x0c, 0x00,
  0x10, 0x00, 0x14, 0x00, 0x0e, 0x00, 0x00, 0x00, 0x00, 0x00, 0x00, 0x02,
  0x10, 0x00, 0x00, 0x00, 0x04, 0x00, 0x00, 0x00, 0x10, 0x00, 0x00, 0x00,
  0x28, 0x00, 0x00, 0x00, 0x01, 0x00, 0x00, 0x00, 0x01, 0x00, 0x00, 0x00,
  0x15, 0x00, 0x00, 0x00, 0x73, 0x74, 0x72, 0x69, 0x64, 0x65, 0x64, 0x5f,
  0x73, 0x6c, 0x69, 0x63, 0x65, 0x2f, 0x73, 0x74, 0x61, 0x63, 0x6b, 0x5f,
  0x31, 0x00, 0x00, 0x00, 0x60, 0xd3, 0xff, 0xff, 0xf2, 0xde, 0xff, 0xff,
  0x04, 0x00, 0x00, 0x00, 0xd0, 0x20, 0x00, 0x00, 0x59, 0xfa, 0x82, 0xc0,
  0x25, 0x14, 0xdb, 0x40, 0xbb, 0xcb, 0xc2, 0x3e, 0xe2, 0x52, 0xdd, 0xbe,
  0x46, 0x3a, 0xdd, 0x40, 0x87, 0x6e, 0x16, 0x41, 0x18, 0x18, 0xf5, 0x3f,
  0xc7, 0xeb, 0x94, 0xbf, 0x04, 0x5c, 0x55, 0x40, 0x24, 0xfd, 0x9b, 0xbf,
  0x60, 0x04, 0xb9, 0x40, 0xdf, 0x44, 0x15, 0x41, 0x43, 0xb9, 0xd9, 0xbd,
  0x1b, 0x1a, 0x0b, 0x41, 0x04, 0x0f, 0x13, 0x41, 0xbe, 0xb0, 0xe4, 0x3f,
  0x6c, 0x9a, 0x2c, 0x3e, 0x4f, 0xdf, 0x39, 0x40, 0x1f, 0x41, 0x1d, 0xbc,
  0x1b, 0x5b, 0x12, 0x41, 0xae, 0x91, 0x0e, 0xc1, 0x30, 0x00, 0x67, 0x3f,
  0x76, 0xdb, 0x73, 0x40, 0x7d, 0x04, 0xa5, 0x40, 0xfd, 0x6d, 0x90, 0x3f,
  0x54, 0x81, 0x11, 0x41, 0x1f, 0x10, 0x1d, 0x41, 0x7c, 0x69, 0x93, 0x3f,
  0x90, 0xd7, 0x75, 0x40, 0xfc, 0x2e, 0x78, 0x3f, 0xe0, 0xda, 0x04, 0x40,
  0x73, 0x44, 0x6b, 0x40, 0x8d, 0x85, 0xf6, 0x3f, 0x60, 0x0d, 0x8f, 0xc0,
  0xd3, 0x54, 0x06, 0x41, 0x5f, 0x60, 0x08, 0x41, 0x14, 0x21, 0xbf, 0x3f,
  0x99, 0x35, 0x0a, 0x41, 0x1f, 0x6f, 0xea, 0xc0, 0xf2, 0x9e, 0x4e, 0x3f,
  0x4a, 0x8d, 0x62, 0x40, 0x26, 0x52, 0xc7, 0x3f, 0x2b, 0x5f, 0xd1, 0x3f,
  0xdd, 0x29, 0xd8, 0x40, 0xd0, 0xe2, 0x08, 0xc1, 0x3c, 0x51, 0x4d, 0xc0,
  0xcd, 0xf5, 0xab, 0x40, 0x33, 0x66, 0xa2, 0x3e, 0x75, 0x48, 0x1c, 0xbe,
  0x5f, 0x91, 0x2c, 0xbf, 0x78, 0x62, 0x05, 0x40, 0xde, 0x75, 0x9d, 0x3f,
  0xe3, 0xb2, 0x0f, 0x41, 0xb8, 0x1b, 0x10, 0xc1, 0xe9, 0xa5, 0x14, 0xbf,
  0x3e, 0x58, 0x15, 0xc0, 0x73, 0x3b, 0x6c, 0x40, 0x30, 0x02, 0x0c, 0x40,
  0x6c, 0x99, 0x08, 0x40, 0x09, 0x31, 0xdc, 0x3f, 0xf6, 0xd1, 0x9b, 0x3f,
  0x7e, 0xde, 0x11, 0x41, 0x8c, 0xb9, 0x0d, 0xc1, 0xd1, 0xf0, 0xf3, 0xbf,
  0x99, 0xc2, 0xb5, 0x40, 0x3a, 0xb6, 0x6f, 0x3e, 0x49, 0xbb, 0xc4, 0x3f,
  0xfe, 0xae, 0x0d, 0x41, 0xe6, 0xcc, 0xef, 0xc0, 0x2d, 0xd1, 0xa4, 0x3f,
  0xef, 0xc6, 0x61, 0x40, 0x47, 0xbb, 0xdf, 0x3f, 0x29, 0x2c, 0x22, 0xc0,
  0x0b, 0x55, 0x02, 0x41, 0x05, 0x1c, 0x06, 0x41, 0x0d, 0xb8, 0x38, 0xc0,
  0xed, 0xa8, 0xe4, 0x40, 0x47, 0x4f, 0x01, 0x41, 0x02, 0xcd, 0x38, 0xc0,
  0x41, 0xfe, 0xc2, 0x40, 0x9c, 0x96, 0x04, 0xc0, 0x71, 0xd3, 0x90, 0x3f,
  0x6a, 0xfe, 0x6a, 0x40, 0xff, 0x37, 0x74, 0x3e, 0xcd, 0x97, 0x1d, 0xc0,
  0x3f, 0x33, 0xc6, 0x40, 0x46, 0x39, 0x2a, 0xbe, 0xed, 0x11, 0x82, 0x3c,
  0xd1, 0x96, 0xc8, 0x40, 0x40, 0x31, 0x31, 0xbf, 0x54, 0x04, 0x10, 0xc0,
  0x67, 0x0e, 0xef, 0x40, 0xb3, 0x0a, 0x13, 0x41, 0x8b, 0x55, 0x16, 0xbf,
  0x2d, 0xb6, 0x04, 0x41, 0xbf, 0xd2, 0xf9, 0xc0, 0x45, 0x51, 0x41, 0xc0,
  0xde, 0x65, 0xc3, 0x40, 0xb7, 0xbb, 0xb9, 0x3f, 0x42, 0x9b, 0x20, 0x40,
  0x91, 0x18, 0xe9, 0x40, 0xe1, 0x67, 0xf3, 0xc0, 0x5f, 0x9b, 0xeb, 0x3f,
  0x81, 0xcf, 0x07, 0x41, 0xb3, 0x2b, 0x07, 0xc1, 0x00, 0x4a, 0xf7, 0x3e,
  0xfe, 0xa4, 0xe2, 0x40, 0x9f, 0xe1, 0x03, 0xc1, 0xb6, 0xa0, 0xab, 0xbf,
  0xa5, 0x91, 0x00, 0x41, 0xff, 0x3f, 0x1c, 0x41, 0xbf, 0x90, 0xd5, 0x3f,
  0xb8, 0xc2, 0xf3, 0x40, 0xf4, 0xa0, 0xe0, 0xc0, 0xa5, 0x17, 0x63, 0xc0,
  0x04, 0xc9, 0x7b, 0x40, 0x0f, 0x06, 0x66, 0x3f, 0x8f, 0xc1, 0x6e, 0x3f,
  0xca, 0x20, 0xaa, 0x40, 0x6a, 0x38, 0xa0, 0x3e, 0xa3, 0x1a, 0x9b, 0x3f,
  0x60, 0x89, 0x10, 0x41, 0x26, 0xdd, 0xfe, 0xc0, 0xa1, 0x14, 0xa9, 0x3f,
  0x7e, 0x83, 0xce, 0xbf, 0xdc, 0xcc, 0xc2, 0x3f, 0x5b, 0x84, 0x91, 0x3f,
  0xda, 0x50, 0x16, 0x41, 0x21, 0xc0, 0xe7, 0xc0, 0x08, 0x5e, 0xfd, 0x3f,
  0xc9, 0x23, 0x1b, 0x41, 0x94, 0x9f, 0xd3, 0xc0, 0xc9, 0x29, 0x8f, 0xbf,
  0xa6, 0xfa, 0xe8, 0x3d, 0x37, 0xa9, 0x39, 0x40, 0x9a, 0x3f, 0x47, 0xc0,
  0x5d, 0xfa, 0x8f, 0x40, 0x95, 0x39, 0x9d, 0x3e, 0x27, 0x39, 0xc2, 0x3e,
  0xe4, 0x77, 0x47, 0xc0, 0xe0, 0x7c, 0x45, 0x40, 0xc0, 0x15, 0x70, 0x3f,
  0xea, 0x5b, 0x82, 0xbf, 0x4a, 0xce, 0x49, 0x40, 0x30, 0x9a, 0x89, 0x3e,
  0x53, 0xe6, 0x09, 0x40, 0xdd, 0x9e, 0x0b, 0x40, 0x2e, 0x78, 0x1d, 0xc0,
  0xce, 0xf3, 0xb0, 0x40, 0x5c, 0xa2, 0x0b, 0x3f, 0x66, 0xc3, 0xc6, 0xbf,
  0xcb, 0x60, 0x13, 0x41, 0x53, 0x7f, 0x14, 0x41, 0xa6, 0x91, 0xae, 0xbf,
  0x04, 0xba, 0xb0, 0x40, 0xbd, 0x64, 0xa6, 0x3f, 0x3a, 0x9d, 0xfc, 0x3f,
  0x57, 0x61, 0x6c, 0xbf, 0x00, 0x4d, 0x52, 0x40, 0xcd, 0x7b, 0xf2, 0x3f,
  0xc0, 0xe8, 0x04, 0xc0, 0x94, 0x86, 0x95, 0x3f, 0xa4, 0x0c, 0x56, 0x40,
  0x69, 0xe9, 0x0a, 0x41, 0x13, 0xda, 0xdc, 0xc0, 0xba, 0x37, 0xe5, 0xbf,
  0x0b, 0xb3, 0x07, 0x41, 0xce, 0x8f, 0x27, 0x41, 0x06, 0x43, 0xb1, 0x3e,
  0xc1, 0xdb, 0x11, 0xc0, 0x81, 0xa2, 0xed, 0x3f, 0x83, 0xdd, 0xf0, 0x3f,
  0x28, 0x52, 0xaa, 0x40, 0x00, 0x5e, 0xf8, 0x3f, 0x61, 0x80, 0xfb, 0x3e,
  0x28, 0x39, 0x34, 0xc0, 0xcd, 0x9c, 0x89, 0x40, 0x1c, 0xdb, 0xe0, 0xbf,
  0x94, 0x22, 0xa4, 0x40, 0x2c, 0x42, 0xbd, 0xbf, 0xa7, 0xea, 0x85, 0x3f,
  0xde, 0x20, 0xfb, 0x40, 0xf3, 0xc8, 0xfd, 0xc0, 0x17, 0x88, 0x68, 0x3f,
  0x3a, 0x5f, 0xaf, 0x40, 0xfb, 0x4d, 0x0a, 0x3f, 0xea, 0xf6, 0x7b, 0x3f,
  0x37, 0x8e, 0xac, 0x40, 0x7c, 0x97, 0x08, 0x40, 0x8f, 0x7f, 0xa0, 0x3e,
  0x5b, 0xa4, 0x03, 0xc0, 0xcb, 0xf9, 0x8c, 0x40, 0xf2, 0x21, 0x41, 0xc0,
  0x7a, 0xbf, 0xba, 0x40, 0x74, 0xa6, 0x4c, 0xbe, 0xd3, 0x27, 0x84, 0xc0,
  0x80, 0x45, 0xc7, 0x40, 0xa9, 0xd4, 0xa5, 0xbf, 0x2b, 0x81, 0xee, 0x3f,
  0xad, 0x44, 0x10, 0x41, 0x2b, 0xac, 0x03, 0xc1, 0x2e, 0x95, 0x02, 0x40,
  0xe2, 0xa4, 0xf8, 0x40, 0xfe, 0x4c, 0x05, 0xc1, 0x9b, 0x69, 0x12, 0xbf,
  0x04, 0x9e, 0x0b, 0x41, 0xe8, 0x9d, 0x37, 0x41, 0x01, 0x80, 0x9d, 0xbd,
  0x13, 0x84, 0x6a, 0x40, 0x14, 0x10, 0xf4, 0x3f, 0x27, 0xa0, 0xa3, 0x3f,
  0x07, 0x80, 0xe9, 0x40, 0xaa, 0x05, 0x03, 0xc1, 0xba, 0xdb, 0x43, 0xbe,
  0x05, 0xaa, 0x0d, 0x41, 0xf7, 0x12, 0x23, 0x41, 0x7f, 0x45, 0x9b, 0x3d,
  0xd2, 0x34, 0xe7, 0x40, 0x7a, 0x19, 0x29, 0xc1, 0xa7, 0x3b, 0xff, 0xbf,
  0x07, 0xd3, 0xea, 0x40, 0xba, 0x87, 0x1e, 0x41, 0x22, 0xbb, 0x58, 0xbe,
  0x0d, 0xa9, 0x97, 0xbf, 0xdd, 0xd2, 0x15, 0x40, 0x22, 0xc2, 0xc8, 0x3e,
  0x43, 0x8a, 0x0c, 0x41, 0xf6, 0x84, 0x1b, 0xc1, 0x44, 0xef, 0x2e, 0xc0,
  0x01, 0xd9, 0x90, 0x40, 0x3b, 0x08, 0x73, 0xbf, 0x5e, 0x23, 0xbe, 0x3f,
  0xcb, 0xa3, 0x10, 0x41, 0xde, 0x6d, 0x20, 0xc1, 0x53, 0x07, 0x9e, 0x3e,
  0xbf, 0xff, 0xc7, 0x40, 0x6d, 0x2e, 0x12, 0x41, 0x72, 0x6d, 0x04, 0x40,
  0x21, 0x0a, 0xba, 0xbf, 0x04, 0x7f, 0x2b, 0x40, 0x7a, 0xb4, 0x88, 0x3f,
  0x0b, 0x16, 0x8b, 0x40, 0x67, 0xd9, 0x5a, 0x40, 0x78, 0xe9, 0xe5, 0x3f,
  0x07, 0xc3, 0xa6, 0x40, 0xc3, 0x16, 0xbc, 0x3f, 0x30, 0xd8, 0x1b, 0x3f,
  0x64, 0xea, 0x0b, 0x41, 0xbe, 0x9a, 0x14, 0xc1, 0x87, 0xb2, 0x9a, 0x3f,
  0xe9, 0x90, 0xfb, 0x40, 0xe3, 0x77, 0x12, 0x41, 0xf6, 0x44, 0x87, 0x3e,
  0x91, 0xdb, 0x18, 0x41, 0xdc, 0x74, 0x09, 0xc1, 0x1d, 0xf8, 0x6d, 0xbf,
  0x22, 0xbf, 0x92, 0x40, 0x08, 0xf3, 0x6d, 0xbe, 0x09, 0x60, 0xe6, 0xbf,
  0x72, 0x8a, 0xe1, 0x40, 0x81, 0x8a, 0xb5, 0x3f, 0x8a, 0xf1, 0x44, 0x3e,
  0x2a, 0xf4, 0x6d, 0xc0, 0x98, 0xab, 0x40, 0x40, 0xa0, 0x0c, 0x88, 0x3f,
  0x07, 0x30, 0x24, 0x41, 0x7c, 0x05, 0xe6, 0xc0, 0xd4, 0xb6, 0xa9, 0x3e,
  0x65, 0xd4, 0xe6, 0xbf, 0x91, 0x9d, 0x46, 0x3f, 0x47, 0x2b, 0xa3, 0xbf,
  0x59, 0x8e, 0x27, 0x40, 0x5a, 0x76, 0x36, 0x40, 0x96, 0x9c, 0x97, 0xbf,
  0x24, 0x80, 0x4b, 0xc0, 0x26, 0x7b, 0x66, 0x40, 0x61, 0x39, 0x16, 0x40,
  0xd8, 0x7d, 0x92, 0x40, 0x83, 0x61, 0x1d, 0x40, 0x33, 0x56, 0x86, 0x3f,
  0x12, 0xb6, 0xa1, 0x40, 0xcb, 0x0c, 0x09, 0x40, 0x10, 0x39, 0x40, 0xbd,
  0x30, 0x34, 0x11, 0x41, 0x1e, 0xbe, 0x2e, 0x41, 0xb6, 0x85, 0x0b, 0x40,
  0xa2, 0x6f, 0xef, 0xbf, 0x09, 0x58, 0xe1, 0x3f, 0x94, 0x9a, 0x81, 0x3f,
  0x08, 0x52, 0x5f, 0x40, 0x42, 0x2b, 0x30, 0x40, 0xfc, 0x00, 0x19, 0x40,
  0x59, 0x36, 0x12, 0xc0, 0x5f, 0xb2, 0x7f, 0x40, 0xf6, 0x9d, 0xee, 0xbf,
  0x5f, 0x96, 0xb8, 0x40, 0xa3, 0x93, 0x53, 0x3e, 0x8e, 0x72, 0xc1, 0x3f,
  0xcf, 0x4c, 0xa4, 0x40, 0x55, 0x54, 0x46, 0x40, 0xa8, 0x00, 0x35, 0x40,
  0x28, 0x5f, 0x07, 0xbd, 0xa8, 0x72, 0x3b, 0x40, 0xdc, 0x13, 0xa7, 0xbf,
  0x66, 0xf5, 0x60, 0x40, 0xc0, 0x85, 0x4f, 0x40, 0x11, 0xba, 0x9f, 0x3f,
  0xf2, 0x89, 0x9d, 0x40, 0xf3, 0x91, 0xff, 0x3f, 0x8d, 0x40, 0x68, 0x3f,
  0x99, 0xfb, 0x8d, 0xbf, 0x3c, 0x59, 0x18, 0x40, 0x9a, 0xfd, 0x25, 0xbf,
  0xba, 0x31, 0xe3, 0x40, 0xcd, 0x53, 0x95, 0x3f, 0x41, 0xf7, 0xbf, 0x3f,
  0x5e, 0xae, 0x66, 0x40, 0xa9, 0x03, 0x3e, 0x40, 0x87, 0x9f, 0xca, 0x3e,
  0xc4, 0x10, 0x06, 0x41, 0x67, 0xfc, 0x1b, 0x41, 0xaa, 0x5e, 0xbb, 0x3f,
  0x78, 0x8c, 0x3f, 0xbf, 0xc9, 0x0a, 0x3a, 0x40, 0x72, 0x8c, 0x95, 0x3f,
  0x55, 0xba, 0xe2, 0xbf, 0x09, 0x85, 0x57, 0x40, 0x2b, 0x3b, 0xb0, 0x3f,
  0xb5, 0x85, 0xe2, 0x40, 0xa9, 0xe1, 0x13, 0xc1, 0xb4, 0x1f, 0x1f, 0x3e,
  0xa7, 0x51, 0xdb, 0xbe, 0x76, 0xc0, 0xcf, 0x3f, 0xb7, 0x50, 0xad, 0x3f,
  0x58, 0x18, 0x14, 0x41, 0x50, 0xc3, 0x06, 0xc1, 0xe9, 0xc6, 0xbf, 0x3f,
  0x94, 0x08, 0xb0, 0x40, 0xb3, 0x1d, 0xd6, 0x3f, 0x80, 0x4a, 0xa7, 0x3f,
  0x7f, 0x00, 0xf7, 0x40, 0x3a, 0x69, 0x13, 0xc1, 0x01, 0x34, 0x33, 0x3f,
  0x4d, 0xab, 0x97, 0xbf, 0xef, 0xe8, 0x2a, 0x40, 0xa9, 0x38, 0x04, 0x3f,
  0x83, 0xbe, 0x4d, 0x40, 0x48, 0x85, 0x42, 0x40, 0x4a, 0xf1, 0x93, 0xbf,
  0x51, 0x41, 0xb5, 0x40, 0x71, 0x96, 0x2a, 0x41, 0x8e, 0x58, 0x72, 0x3f,
  0xad, 0xdd, 0x21, 0x41, 0xea, 0x84, 0x0e, 0xc1, 0xf2, 0x54, 0x06, 0x40,
  0x24, 0x25, 0xce, 0xbf, 0x6e, 0x86, 0xea, 0x3f, 0xb0, 0x19, 0x04, 0x40,
  0xfa, 0x6f, 0xeb, 0x40, 0x08, 0x51, 0x0b, 0xc1, 0xcf, 0x34, 0x14, 0x40,
  0x9e, 0x53, 0x22, 0x40, 0x14, 0xb3, 0x1e, 0x40, 0xf8, 0xa2, 0xb1, 0xbf,
  0x85, 0xb1, 0xc5, 0x40, 0x49, 0x9b, 0x80, 0x3f, 0xcf, 0xaf, 0x28, 0x40,
  0x43, 0x5b, 0x55, 0x40, 0x1e, 0x3f, 0x56, 0x40, 0x5b, 0xf2, 0x08, 0x40,
  0xa0, 0xb5, 0x3f, 0xc0, 0x29, 0xd4, 0x70, 0x40, 0xed, 0x5e, 0x06, 0x40,
  0x52, 0x05, 0x02, 0x41, 0x05, 0xdf, 0x03, 0xc1, 0x76, 0x28, 0xef, 0xbf,
  0x88, 0xbc, 0xff, 0x40, 0xc4, 0xca, 0x0a, 0x41, 0xe3, 0x69, 0xfc, 0x3f,
  0xa0, 0xb7, 0x17, 0x40, 0x6e, 0x71, 0x13, 0x40, 0x45, 0xc7, 0x30, 0x3d,
  0x4d, 0x5a, 0x78, 0xbf, 0x25, 0xf4, 0xe2, 0x3f, 0x72, 0xcd, 0x0d, 0xc0,
  0x1a, 0xd1, 0xd5, 0x40, 0x01, 0x02, 0x86, 0x3e, 0x00, 0xbc, 0x18, 0x40,
  0xe8, 0x79, 0x7b, 0x40, 0x5a, 0x26, 0x15, 0x40, 0xdd, 0x44, 0x5b, 0x3f,
  0x2c, 0x65, 0xf8, 0x40, 0xac, 0x17, 0x19, 0xc1, 0xf6, 0xff, 0x3d, 0xc0,
  0x9a, 0x4a, 0xe2, 0x40, 0xdd, 0xa4, 0x9e, 0x3e, 0xa8, 0x49, 0x1d, 0xc0,
  0xc3, 0x1d, 0x0c, 0x41, 0xbe, 0x12, 0x17, 0x41, 0x92, 0x74, 0xc3, 0xbf,
  0xd4, 0xe8, 0xdd, 0x40, 0x40, 0xff, 0x35, 0x41, 0x0e, 0x07, 0x99, 0xbf,
  0x86, 0x77, 0x1c, 0x41, 0xd8, 0x44, 0x0e, 0x41, 0x50, 0xe8, 0xf2, 0xbf,
  0xf3, 0x3c, 0xe0, 0x40, 0x1a, 0xeb, 0x4b, 0x40, 0x14, 0xb0, 0x8b, 0xbf,
  0x1d, 0x38, 0xe6, 0xbf, 0x31, 0x05, 0x44, 0x40, 0x98, 0xf9, 0x20, 0xbf,
  0x1b, 0xca, 0xbe, 0x40, 0x69, 0x0c, 0x17, 0x41, 0x0e, 0x64, 0x6a, 0x3f,
  0xba, 0xee, 0x29, 0x41, 0xb1, 0x25, 0x05, 0xc1, 0x09, 0x8f, 0x88, 0x3e,
  0x9e, 0x9e, 0x3c, 0xc0, 0xb2, 0x99, 0xb0, 0x40, 0x9d, 0x8c, 0x46, 0xc0,
  0x4d, 0xe2, 0xaf, 0x40, 0x4c, 0x51, 0x9d, 0x3f, 0x5a, 0x86, 0x49, 0xbf,
  0x16, 0x71, 0x0a, 0x41, 0xb0, 0x28, 0x1d, 0x41, 0x88, 0x2d, 0x34, 0xc0,
  0x28, 0x66, 0xa2, 0x40, 0xd5, 0x26, 0x65, 0xbf, 0xf6, 0xcb, 0x98, 0x3f,
  0xf8, 0x96, 0xb4, 0xbf, 0xcd, 0xef, 0x4b, 0x40, 0xfa, 0x02, 0xa2, 0x3f,
  0x8c, 0xb4, 0x13, 0x41, 0xbf, 0xef, 0x18, 0xc1, 0xd4, 0x0f, 0x03, 0x40,
  0x45, 0x34, 0x13, 0x41, 0xc3, 0x5a, 0x0a, 0xc1, 0xc3, 0x0e, 0xfd, 0x3e,
  0x28, 0x8d, 0x05, 0x41, 0x06, 0x21, 0xf6, 0xc0, 0xde, 0x60, 0xb7, 0x3f,
  0x80, 0x6c, 0xe1, 0x40, 0xf1, 0xec, 0x1c, 0xc1, 0x50, 0x03, 0xb8, 0x3f,
  0x6e, 0x8c, 0x29, 0x40, 0x77, 0x7a, 0x2b, 0x3f, 0x43, 0xc5, 0x87, 0xbe,
  0x9d, 0xeb, 0xf8, 0x40, 0xdb, 0xb9, 0x06, 0xc1, 0x1c, 0x90, 0xd6, 0x3f,
  0xd9, 0xf1, 0x01, 0x41, 0x3e, 0x7d, 0x20, 0xc1, 0xd2, 0x8f, 0x95, 0xc0,
  0xb3, 0x1e, 0xa5, 0x40, 0x97, 0x86, 0x27, 0xbf, 0x8f, 0x79, 0x0e, 0xbf,
  0xb0, 0x46, 0x03, 0x41, 0xfa, 0x93, 0x14, 0x41, 0x28, 0x09, 0x2e, 0x40,
  0x95, 0xd7, 0x7e, 0x40, 0x32, 0xa1, 0x38, 0x40, 0xa6, 0x82, 0x03, 0x40,
  0x50, 0x3e, 0x72, 0x40, 0xf3, 0x09, 0xe3, 0x3f, 0x6a, 0xd7, 0x22, 0xbf,
  0x74, 0x35, 0xf1, 0x40, 0x95, 0xa9, 0x1e, 0xc1, 0x37, 0xd3, 0xb9, 0x3f,
  0xab, 0x84, 0x5f, 0xbf, 0xe1, 0x38, 0xdf, 0x3f, 0xd1, 0xcb, 0x58, 0xc0,
  0x51, 0xec, 0xd2, 0x40, 0x2f, 0x46, 0xec, 0x3e, 0xf0, 0x91, 0x9c, 0x3f,
  0xa9, 0x25, 0x92, 0xbf, 0x5c, 0xc3, 0x50, 0x40, 0x79, 0xc9, 0x82, 0x3f,
  0xf3, 0x1f, 0xfc, 0x40, 0x90, 0xce, 0x28, 0xc1, 0x6a, 0x01, 0xfe, 0xbf,
  0x14, 0xdb, 0x01, 0x41, 0x6b, 0x8d, 0x18, 0x41, 0x91, 0x2d, 0xaf, 0x3f,
  0x19, 0x74, 0x91, 0x40, 0x64, 0x30, 0x0a, 0x40, 0x04, 0x56, 0xac, 0xc0,
  0xc6, 0xfe, 0x7f, 0x40, 0x59, 0x94, 0xfa, 0x3f, 0xa5, 0x4b, 0x01, 0xc0,
  0x4a, 0xc4, 0x05, 0x41, 0xf0, 0x45, 0x23, 0x41, 0xd0, 0xfc, 0x67, 0x3f,
  0x4a, 0x00, 0xe5, 0x40, 0x28, 0x22, 0x1d, 0x41, 0xde, 0x11, 0xf4, 0xbf,
  0xff, 0x48, 0xd3, 0x40, 0x17, 0xde, 0x55, 0xbe, 0x22, 0x6c, 0xdc, 0x3f,
  0x29, 0xcb, 0xe9, 0xbf, 0xfd, 0xb0, 0xf8, 0x3f, 0x9e, 0x71, 0x2b, 0x3f,
  0x26, 0x08, 0xb5, 0xbf, 0x86, 0x5d, 0x52, 0x40, 0xc9, 0x34, 0xd8, 0xbf,
  0x53, 0xfe, 0xbc, 0x40, 0x3a, 0xa6, 0xa1, 0x3f, 0x4a, 0x33, 0xc4, 0xbf,
  0xe8, 0xa8, 0x0f, 0x41, 0x29, 0x43, 0x20, 0x41, 0x9b, 0x38, 0x20, 0x3f,
  0x85, 0xcc, 0x19, 0x41, 0x21, 0xe4, 0xd6, 0xc0, 0x11, 0x30, 0x46, 0xc0,
  0x84, 0xa3, 0x93, 0x40, 0x0a, 0xa2, 0x8d, 0x3f, 0x6e, 0x0d, 0x0c, 0xc0,
  0x4d, 0xf4, 0xec, 0x40, 0x74, 0x95, 0x1f, 0x41, 0x0b, 0x92, 0xba, 0x3d,
  0xc3, 0x86, 0xfa, 0x3e, 0x21, 0x68, 0x27, 0x40, 0x55, 0x1e, 0x45, 0x40,
  0x7e, 0xc5, 0x10, 0x41, 0x55, 0x05, 0x0d, 0xc1, 0x14, 0xe7, 0xcf, 0xbf,
  0xbe, 0xd8, 0xd3, 0x40, 0xe8, 0x2a, 0x1d, 0x41, 0x33, 0x23, 0xe4, 0xbf,
  0x1d, 0x90, 0x05, 0x41, 0x89, 0x10, 0x1e, 0x41, 0x52, 0x3a, 0x28, 0x40,
  0x86, 0x81, 0x00, 0x41, 0x0e, 0x6c, 0x1e, 0xc1, 0x9a, 0x1f, 0x3d, 0x40,
  0x86, 0x8c, 0x05, 0x41, 0xa7, 0x3e, 0xe9, 0xc0, 0xd3, 0xf5, 0x35, 0xbf,
  0x4a, 0x22, 0x05, 0x41, 0x0f, 0x31, 0x16, 0x41, 0xfb, 0xc8, 0xf7, 0xbf,
  0x6c, 0x5e, 0x0b, 0x41, 0xf4, 0x7d, 0x0a, 0x41, 0x63, 0x38, 0x79, 0xbd,
  0xbf, 0xe7, 0x1f, 0x40, 0x7d, 0xfc, 0x73, 0x3f, 0xc4, 0x0c, 0xde, 0xbf,
  0x7b, 0x21, 0xb5, 0x40, 0x77, 0x8b, 0x94, 0x3e, 0x76, 0x3a, 0x20, 0xc0,
  0x69, 0x8b, 0xbc, 0x40, 0xe4, 0x98, 0x24, 0x40, 0xa8, 0x00, 0x63, 0x3f,
  0xaa, 0x5a, 0xed, 0xbf, 0xf1, 0x96, 0x69, 0x40, 0x17, 0x6f, 0x31, 0x3e,
  0x55, 0x6f, 0xaa, 0x40, 0x8b, 0x0a, 0x64, 0x40, 0x37, 0x27, 0xc6, 0xbe,
  0x11, 0x58, 0xf6, 0x40, 0xb5, 0x87, 0xf1, 0x40, 0xa5, 0x66, 0x97, 0x3f,
  0xd2, 0x85, 0x59, 0x40, 0xcd, 0x6c, 0x2d, 0x40, 0x32, 0x50, 0x09, 0xbe,
  0xab, 0x48, 0x01, 0x41, 0xb5, 0x51, 0xff, 0x40, 0xd8, 0x45, 0x43, 0xbf,
  0xaf, 0x8d, 0xb3, 0x40, 0x36, 0xf0, 0x30, 0x41, 0xe8, 0x46, 0xbf, 0x3f,
  0x88, 0x20, 0x44, 0xbf, 0x6a, 0x99, 0x78, 0x40, 0x41, 0x66, 0x90, 0xbf,
  0xd6, 0x9a, 0x10, 0x41, 0xaf, 0x0a, 0xf3, 0x40, 0x07, 0xdc, 0xe4, 0xbf,
  0xc9, 0xc6, 0x00, 0x41, 0x36, 0x43, 0x28, 0x41, 0x4c, 0x37, 0x38, 0xbf,
  0x26, 0x45, 0x11, 0x41, 0x77, 0xa1, 0x10, 0x41, 0xaa, 0x22, 0x29, 0x40,
  0x0e, 0x15, 0xef, 0x40, 0x62, 0x7d, 0x15, 0xc1, 0x33, 0x2c, 0x99, 0x3f,
  0x4c, 0x09, 0x75, 0x40, 0x9c, 0xcf, 0x12, 0x40, 0x6e, 0x02, 0x52, 0xbf,
  0x0b, 0xa2, 0xae, 0x40, 0xe7, 0x1b, 0x26, 0x3f, 0x4b, 0x53, 0x33, 0xc0,
  0x66, 0x62, 0xe1, 0x40, 0x54, 0x2c, 0xe5, 0xbe, 0x0a, 0x99, 0x8d, 0x3f,
  0xeb, 0x49, 0x08, 0x41, 0x56, 0x5b, 0xdf, 0xc0, 0x00, 0x58, 0x1f, 0x40,
  0x57, 0xfd, 0x0c, 0x40, 0x00, 0xed, 0x43, 0x40, 0x7d, 0xfa, 0x27, 0xc0,
  0x5a, 0x08, 0x08, 0x41, 0x84, 0x03, 0x0a, 0x41, 0x70, 0xa6, 0xb4, 0x3f,
  0x84, 0x25, 0x8a, 0xbf, 0x1c, 0x3d, 0x7d, 0x40, 0x1b, 0x8b, 0x03, 0xbf,
  0xd9, 0xf2, 0x4e, 0x40, 0x48, 0x4e, 0xec, 0x3f, 0x57, 0xf2, 0xbc, 0xbe,
  0x6e, 0xc9, 0xf7, 0x40, 0x5a, 0xf5, 0x30, 0x41, 0x38, 0x2e, 0x25, 0xbe,
  0x02, 0xac, 0x22, 0x40, 0x67, 0x21, 0xe2, 0x3f, 0x4b, 0x00, 0x53, 0xc0,
  0x9e, 0xdb, 0x0e, 0x41, 0x39, 0x44, 0x15, 0x41, 0xdd, 0x2c, 0x75, 0x3f,
  0x22, 0xec, 0x8c, 0x40, 0x2e, 0xef, 0x1e, 0x40, 0x5b, 0x97, 0x83, 0xbf,
  0x2f, 0x41, 0x03, 0x41, 0xed, 0x14, 0xf1, 0x40, 0xa2, 0x42, 0x5a, 0x3f,
  0x64, 0x59, 0xdf, 0xbf, 0x7b, 0x2d, 0x54, 0x40, 0xe8, 0x2d, 0x50, 0xc0,
  0x05, 0x78, 0x98, 0x40, 0xcd, 0x7c, 0xd7, 0x3e, 0x8a, 0xa5, 0x12, 0xc0,
  0x9a, 0x11, 0xcc, 0x40, 0x6c, 0x07, 0x5c, 0x40, 0x8d, 0x80, 0x4f, 0xbe,
  0x04, 0x60, 0xd9, 0x40, 0x85, 0xee, 0xff, 0x40, 0x2e, 0x06, 0x10, 0xc0,
  0x32, 0xcd, 0xf8, 0x40, 0xb6, 0x99, 0x01, 0x41, 0x12, 0x60, 0xbd, 0xbe,
  0xc1, 0x9b, 0x01, 0x41, 0x3d, 0xfa, 0x0d, 0x41, 0xbf, 0x90, 0xa8, 0xbd,
  0x12, 0x9a, 0xa0, 0xbf, 0x82, 0x27, 0x82, 0x40, 0x54, 0x90, 0x8f, 0xbf,
  0xb2, 0x5e, 0x84, 0xbf, 0x87, 0x30, 0x5b, 0x40, 0xde, 0xbd, 0xeb, 0xbf,
  0x6f, 0xe1, 0xde, 0x40, 0xea, 0xd8, 0x05, 0x41, 0xc6, 0x84, 0x00, 0xbf,
  0xcb, 0x4b, 0xfc, 0x40, 0x24, 0x00, 0x0f, 0x41, 0xbb, 0xdc, 0x2b, 0x40,
  0x01, 0xa5, 0x00, 0x41, 0xb6, 0xea, 0xeb, 0xc0, 0x22, 0x77, 0x89, 0xbf,
  0xa9, 0xbe, 0x08, 0xbf, 0x86, 0x25, 0x84, 0x40, 0x54, 0x78, 0xf6, 0xbe,
  0x08, 0x9a, 0x41, 0xc0, 0x04, 0x75, 0x9a, 0x40, 0xf9, 0xf1, 0x1b, 0xc0,
  0xac, 0x07, 0xe5, 0x40, 0x95, 0x30, 0x01, 0x3e, 0x9b, 0x15, 0x82, 0xbd,
  0x5e, 0x0a, 0x93, 0x40, 0xfc, 0x2a, 0x03, 0x40, 0x98, 0xa7, 0x56, 0xc0,
  0x02, 0x3d, 0x07, 0x41, 0x3e, 0x2c, 0x2c, 0x41, 0xbc, 0xc1, 0x1b, 0xc0,
  0xa6, 0x8b, 0xbb, 0x40, 0xe6, 0xfd, 0x49, 0x3f, 0xad, 0x42, 0x15, 0x3f,
  0x4f, 0x12, 0x00, 0x41, 0x44, 0xbf, 0x13, 0xc1, 0x8f, 0x43, 0x09, 0x3e,
  0x5a, 0x2a, 0x16, 0x41, 0x25, 0x2c, 0xe3, 0xc0, 0xb1, 0x8a, 0x74, 0xc0,
  0x77, 0xad, 0x13, 0x41, 0x3b, 0xc9, 0x10, 0x41, 0x85, 0xed, 0x1d, 0xbe,
  0x34, 0xb1, 0x61, 0x40, 0x0a, 0xf5, 0x4a, 0x40, 0x5f, 0x63, 0xb6, 0x3f,
  0x48, 0xed, 0x53, 0x40, 0x6a, 0x27, 0xea, 0x3f, 0x72, 0xb5, 0x1c, 0x3e,
  0x78, 0x4a, 0x0f, 0x41, 0xeb, 0x28, 0x14, 0xc1, 0x2f, 0x3f, 0x16, 0x40,
  0xbe, 0xb0, 0x0c, 0x41, 0xb5, 0x86, 0x18, 0xc1, 0xac, 0x50, 0xbe, 0x3f,
  0x6d, 0x49, 0x5b, 0x3f, 0x8c, 0x9e, 0x68, 0x40, 0xad, 0xd6, 0x0a, 0xbf,
  0xb2, 0x23, 0x15, 0x41, 0x27, 0xa4, 0x14, 0x41, 0xdf, 0xb2, 0x8f, 0xc0,
  0x60, 0x79, 0xbf, 0x40, 0xd2, 0x7b, 0xcd, 0x3e, 0x35, 0x72, 0xe2, 0xbf,
  0x2a, 0x44, 0xb5, 0x40, 0x86, 0x25, 0x5d, 0x3f, 0x5c, 0xf4, 0xba, 0x3f,
  0xf2, 0x40, 0x9c, 0x40, 0xe9, 0xd4, 0xef, 0x3f, 0x17, 0xe5, 0xfc, 0x3f,
  0x34, 0xbd, 0x19, 0x41, 0xee, 0x61, 0xf6, 0xc0, 0x6c, 0xe5, 0xd8, 0xbf,
