#ifndef TEST_MODEL_H
#define test_model_H


unsigned int test_model_len = 9452;
unsigned char test_model[] = {
 0x1c, 0x00, 0x00, 0x00, 0x54, 0x46, 0x4c, 0x33, 0x14, 0x00, 0x20, 0x00,
  0x04, 0x00, 0x08, 0x00, 0x0c, 0x00, 0x10, 0x00, 0x14, 0x00, 0x00, 0x00,
  0x18, 0x00, 0x1c, 0x00, 0x14, 0x00, 0x00, 0x00, 0x03, 0x00, 0x00, 0x00,
  0x18, 0x00, 0x00, 0x00, 0x1c, 0x00, 0x00, 0x00, 0x40, 0x01, 0x00, 0x00,
  0x1c, 0x00, 0x00, 0x00, 0xe8, 0x00, 0x00, 0x00, 0x60, 0x00, 0x00, 0x00,
  0x01, 0x00, 0x00, 0x00, 0x0c, 0x05, 0x00, 0x00, 0x01, 0x00, 0x00, 0x00,
  0x48, 0x01, 0x00, 0x00, 0x12, 0x00, 0x00, 0x00, 0x98, 0x24, 0x00, 0x00,
  0x94, 0x24, 0x00, 0x00, 0xac, 0x23, 0x00, 0x00, 0x0c, 0x23, 0x00, 0x00,
  0x78, 0x22, 0x00, 0x00, 0xe4, 0x21, 0x00, 0x00, 0x50, 0x21, 0x00, 0x00,
  0x4c, 0x1c, 0x00, 0x00, 0xb8, 0x15, 0x00, 0x00, 0x24, 0x0f, 0x00, 0x00,
  0x90, 0x08, 0x00, 0x00, 0x6c, 0x05, 0x00, 0x00, 0x68, 0x24, 0x00, 0x00,
  0x64, 0x24, 0x00, 0x00, 0x60, 0x24, 0x00, 0x00, 0x5c, 0x24, 0x00, 0x00,
  0x58, 0x24, 0x00, 0x00, 0xbc, 0x00, 0x00, 0x00, 0x01, 0x00, 0x00, 0x00,
  0x10, 0x00, 0x00, 0x00, 0x00, 0x00, 0x0a, 0x00, 0x10, 0x00, 0x0c, 0x00,
  0x08, 0x00, 0x04, 0x00, 0x0a, 0x00, 0x00, 0x00, 0x0c, 0x00, 0x00, 0x00,
  0x1c, 0x00, 0x00, 0x00, 0x20, 0x00, 0x00, 0x00, 0x0f, 0x00, 0x00, 0x00,
  0x73, 0x65, 0x72, 0x76, 0x69, 0x6e, 0x67, 0x5f, 0x64, 0x65, 0x66, 0x61,
  0x75, 0x6c, 0x74, 0x00, 0x01, 0x00, 0x00, 0x00, 0x14, 0x00, 0x00, 0x00,
  0x01, 0x00, 0x00, 0x00, 0x24, 0x00, 0x00, 0x00, 0x08, 0x00, 0x0c, 0x00,
  0x08, 0x00, 0x04, 0x00, 0x08, 0x00, 0x00, 0x00, 0x0f, 0x00, 0x00, 0x00,
  0x04, 0x00, 0x00, 0x00, 0x07, 0x00, 0x00, 0x00, 0x64, 0x65, 0x6e, 0x73,
  0x65, 0x5f, 0x39, 0x00, 0x02, 0xdd, 0xff, 0xff, 0x04, 0x00, 0x00, 0x00,
  0x0d, 0x00, 0x00, 0x00, 0x64, 0x65, 0x6e, 0x73, 0x65, 0x5f, 0x35, 0x5f,
  0x69, 0x6e, 0x70, 0x75, 0x74, 0x00, 0x00, 0x00, 0x01, 0x00, 0x00, 0x00,
  0x0c, 0x00, 0x00, 0x00, 0x08, 0x00, 0x0c, 0x00, 0x04, 0x00, 0x08, 0x00,
  0x08, 0x00, 0x00, 0x00, 0x08, 0x00, 0x00, 0x00, 0x11, 0x00, 0x00, 0x00,
  0x13, 0x00, 0x00, 0x00, 0x6d, 0x69, 0x6e, 0x5f, 0x72, 0x75, 0x6e, 0x74,
  0x69, 0x6d, 0x65, 0x5f, 0x76, 0x65, 0x72, 0x73, 0x69, 0x6f, 0x6e, 0x00,
  0x52, 0xdd, 0xff, 0xff, 0x04, 0x00, 0x00, 0x00, 0x10, 0x00, 0x00, 0x00,
  0x31, 0x2e, 0x35, 0x2e, 0x30, 0x00, 0x00, 0x00, 0x00, 0x00, 0x00, 0x00,
  0x00, 0x00, 0x00, 0x00, 0x0f, 0x00, 0x00, 0x00, 0x4d, 0x4c, 0x49, 0x52,
  0x20, 0x43, 0x6f, 0x6e, 0x76, 0x65, 0x72, 0x74, 0x65, 0x64, 0x2e, 0x00,
  0x00, 0x00, 0x0e, 0x00, 0x18, 0x00, 0x04, 0x00, 0x08, 0x00, 0x0c, 0x00,
  0x10, 0x00, 0x14, 0x00, 0x0e, 0x00, 0x00, 0x00, 0x14, 0x00, 0x00, 0x00,
  0x54, 0x00, 0x00, 0x00, 0x58, 0x00, 0x00, 0x00, 0x5c, 0x00, 0x00, 0x00,
  0x70, 0x00, 0x00, 0x00, 0x10, 0x00, 0x00, 0x00, 0xe0, 0x22, 0x00, 0x00,
  0x94, 0x22, 0x00, 0x00, 0x10, 0x22, 0x00, 0x00, 0x7c, 0x21, 0x00, 0x00,
  0xe8, 0x20, 0x00, 0x00, 0x54, 0x20, 0x00, 0x00, 0xb0, 0x1f, 0x00, 0x00,
  0xac, 0x1a, 0x00, 0x00, 0x18, 0x14, 0x00, 0x00, 0x84, 0x0d, 0x00, 0x00,
  0xf0, 0x06, 0x00, 0x00, 0x84, 0x03, 0x00, 0x00, 0x8c, 0x02, 0x00, 0x00,
  0xb8, 0x01, 0x00, 0x00, 0xf4, 0x00, 0x00, 0x00, 0x68, 0x00, 0x00, 0x00,
  0x01, 0x00, 0x00, 0x00, 0x00, 0x00, 0x00, 0x00, 0x01, 0x00, 0x00, 0x00,
  0x0f, 0x00, 0x00, 0x00, 0x05, 0x00, 0x00, 0x00, 0x04, 0x03, 0x00, 0x00,
  0x30, 0x02, 0x00, 0x00, 0x5c, 0x01, 0x00, 0x00, 0x98, 0x00, 0x00, 0x00,
  0x10, 0x00, 0x00, 0x00, 0x04, 0x00, 0x00, 0x00, 0x6d, 0x61, 0x69, 0x6e,
  0x00, 0x00, 0x00, 0x00, 0xfa, 0xfd, 0xff, 0xff, 0x00, 0x00, 0x00, 0x08,
  0x18, 0x00, 0x00, 0x00, 0x0c, 0x00, 0x00, 0x00, 0x04, 0x00, 0x00, 0x00,
  0x50, 0xdd, 0xff, 0xff, 0x01, 0x00, 0x00, 0x00, 0x0f, 0x00, 0x00, 0x00,
  0x03, 0x00, 0x00, 0x00, 0x0e, 0x00, 0x00, 0x00, 0x0a, 0x00, 0x00, 0x00,
  0x01, 0x00, 0x00, 0x00, 0xd8, 0xdd, 0xff, 0xff, 0x14, 0x00, 0x00, 0x00,
  0x10, 0x00, 0x00, 0x00, 0x18, 0x00, 0x00, 0x00, 0x40, 0x00, 0x00, 0x00,
  0x30, 0x00, 0x00, 0x00, 0x02, 0x00, 0x00, 0x00, 0x01, 0x00, 0x00, 0x00,
  0x09, 0x00, 0x00, 0x00, 0x19, 0x00, 0x00, 0x00, 0x53, 0x74, 0x61, 0x74,
  0x65, 0x66, 0x75, 0x6c, 0x50, 0x61, 0x72, 0x74, 0x69, 0x74, 0x69, 0x6f,
  0x6e, 0x65, 0x64, 0x43, 0x61, 0x6c, 0x6c, 0x3a, 0x30, 0x00, 0x00, 0x00,
  0x02, 0x00, 0x00, 0x00, 0xff, 0xff, 0xff, 0xff, 0x09, 0x00, 0x00, 0x00,
  0xbc, 0xdd, 0xff, 0xff, 0x7e, 0xfe, 0xff, 0xff, 0x00, 0x00, 0x00, 0x08,
  0x1c, 0x00, 0x00, 0x00, 0x10, 0x00, 0x00, 0x00, 0x04, 0x00, 0x00, 0x00,
  0x9e, 0xfd, 0xff, 0xff, 0x00, 0x00, 0x00, 0x01, 0x01, 0x00, 0x00, 0x00,
  0x0e, 0x00, 0x00, 0x00, 0x03, 0x00, 0x00, 0x00, 0x0d, 0x00, 0x00, 0x00,
  0x09, 0x00, 0x00, 0x00, 0x02, 0x00, 0x00, 0x00, 0x60, 0xde, 0xff, 0xff,
  0x14, 0x00, 0x00, 0x00, 0x0f, 0x00, 0x00, 0x00, 0x18, 0x00, 0x00, 0x00,
  0x78, 0x00, 0x00, 0x00, 0x68, 0x00, 0x00, 0x00, 0x02, 0x00, 0x00, 0x00,
  0x01, 0x00, 0x00, 0x00, 0x14, 0x00, 0x00, 0x00, 0x52, 0x00, 0x00, 0x00,
  0x73, 0x65, 0x71, 0x75, 0x65, 0x6e, 0x74, 0x69, 0x61, 0x6c, 0x5f, 0x31,
  0x2f, 0x64, 0x65, 0x6e, 0x73, 0x65, 0x5f, 0x38, 0x2f, 0x4d, 0x61, 0x74,
  0x4d, 0x75, 0x6c, 0x3b, 0x73, 0x65, 0x71, 0x75, 0x65, 0x6e, 0x74, 0x69,
  0x61, 0x6c, 0x5f, 0x31, 0x2f, 0x64, 0x65, 0x6e, 0x73, 0x65, 0x5f, 0x38,
  0x2f, 0x52, 0x65, 0x6c, 0x75, 0x3b, 0x73, 0x65, 0x71, 0x75, 0x65, 0x6e,
  0x74, 0x69, 0x61, 0x6c, 0x5f, 0x31, 0x2f, 0x64, 0x65, 0x6e, 0x73, 0x65,
  0x5f, 0x38, 0x2f, 0x42, 0x69, 0x61, 0x73, 0x41, 0x64, 0x64, 0x00, 0x00,
  0x02, 0x00, 0x00, 0x00, 0xff, 0xff, 0xff, 0xff, 0x14, 0x00, 0x00, 0x00,
  0x7c, 0xde, 0xff, 0xff, 0x3e, 0xff, 0xff, 0xff, 0x00, 0x00, 0x00, 0x08,
  0x1c, 0x00, 0x00, 0x00, 0x10, 0x00, 0x00, 0x00, 0x04, 0x00, 0x00, 0x00,
  0x5e, 0xfe, 0xff, 0xff, 0x00, 0x00, 0x00, 0x01, 0x01, 0x00, 0x00, 0x00,
  0x0d, 0x00, 0x00, 0x00, 0x03, 0x00, 0x00, 0x00, 0x0c, 0x00, 0x00, 0x00,
  0x08, 0x00, 0x00, 0x00, 0x03, 0x00, 0x00, 0x00, 0x20, 0xdf, 0xff, 0xff,
  0x14, 0x00, 0x00, 0x00, 0x0e, 0x00, 0x00, 0x00, 0x18, 0x00, 0x00, 0x00,
  0x78, 0x00, 0x00, 0x00, 0x68, 0x00, 0x00, 0x00, 0x02, 0x00, 0x00, 0x00,
  0x01, 0x00, 0x00, 0x00, 0x14, 0x00, 0x00, 0x00, 0x52, 0x00, 0x00, 0x00,
  0x73, 0x65, 0x71, 0x75, 0x65, 0x6e, 0x74, 0x69, 0x61, 0x6c, 0x5f, 0x31,
  0x2f, 0x64, 0x65, 0x6e, 0x73, 0x65, 0x5f, 0x37, 0x2f, 0x4d, 0x61, 0x74,
  0x4d, 0x75, 0x6c, 0x3b, 0x73, 0x65, 0x71, 0x75, 0x65, 0x6e, 0x74, 0x69,
  0x61, 0x6c, 0x5f, 0x31, 0x2f, 0x64, 0x65, 0x6e, 0x73, 0x65, 0x5f, 0x37,
  0x2f, 0x52, 0x65, 0x6c, 0x75, 0x3b, 0x73, 0x65, 0x71, 0x75, 0x65, 0x6e,
  0x74, 0x69, 0x61, 0x6c, 0x5f, 0x31, 0x2f, 0x64, 0x65, 0x6e, 0x73, 0x65,
  0x5f, 0x37, 0x2f, 0x42, 0x69, 0x61, 0x73, 0x41, 0x64, 0x64, 0x00, 0x00,
  0x02, 0x00, 0x00, 0x00, 0xff, 0xff, 0xff, 0xff, 0x14, 0x00, 0x00, 0x00,
  0x2c, 0xe0, 0xff, 0xff, 0x00, 0x00, 0x0e, 0x00, 0x14, 0x00, 0x00, 0x00,
  0x08, 0x00, 0x0c, 0x00, 0x07, 0x00, 0x10, 0x00, 0x0e, 0x00, 0x00, 0x00,
  0x00, 0x00, 0x00, 0x08, 0x1c, 0x00, 0x00, 0x00, 0x10, 0x00, 0x00, 0x00,
  0x04, 0x00, 0x00, 0x00, 0x2e, 0xff, 0xff, 0xff, 0x00, 0x00, 0x00, 0x01,
  0x01, 0x00, 0x00, 0x00, 0x0c, 0x00, 0x00, 0x00, 0x03, 0x00, 0x00, 0x00,
  0x0b, 0x00, 0x00, 0x00, 0x07, 0x00, 0x00, 0x00, 0x04, 0x00, 0x00, 0x00,
  0xf0, 0xdf, 0xff, 0xff, 0x14, 0x00, 0x00, 0x00, 0x0d, 0x00, 0x00, 0x00,
  0x18, 0x00, 0x00, 0x00, 0x78, 0x00, 0x00, 0x00, 0x68, 0x00, 0x00, 0x00,
  0x02, 0x00, 0x00, 0x00, 0x01, 0x00, 0x00, 0x00, 0x14, 0x00, 0x00, 0x00,
  0x52, 0x00, 0x00, 0x00, 0x73, 0x65, 0x71, 0x75, 0x65, 0x6e, 0x74, 0x69,
  0x61, 0x6c, 0x5f, 0x31, 0x2f, 0x64, 0x65, 0x6e, 0x73, 0x65, 0x5f, 0x36,
  0x2f, 0x4d, 0x61, 0x74, 0x4d, 0x75, 0x6c, 0x3b, 0x73, 0x65, 0x71, 0x75,
  0x65, 0x6e, 0x74, 0x69, 0x61, 0x6c, 0x5f, 0x31, 0x2f, 0x64, 0x65, 0x6e,
  0x73, 0x65, 0x5f, 0x36, 0x2f, 0x52, 0x65, 0x6c, 0x75, 0x3b, 0x73, 0x65,
  0x71, 0x75, 0x65, 0x6e, 0x74, 0x69, 0x61, 0x6c, 0x5f, 0x31, 0x2f, 0x64,
  0x65, 0x6e, 0x73, 0x65, 0x5f, 0x36, 0x2f, 0x42, 0x69, 0x61, 0x73, 0x41,
  0x64, 0x64, 0x00, 0x00, 0x02, 0x00, 0x00, 0x00, 0xff, 0xff, 0xff, 0xff,
  0x14, 0x00, 0x00, 0x00, 0xfc, 0xe0, 0xff, 0xff, 0x00, 0x00, 0x0e, 0x00,
  0x16, 0x00, 0x00, 0x00, 0x08, 0x00, 0x0c, 0x00, 0x07, 0x00, 0x10, 0x00,
  0x0e, 0x00, 0x00, 0x00, 0x00, 0x00, 0x00, 0x08, 0x24, 0x00, 0x00, 0x00,
  0x18, 0x00, 0x00, 0x00, 0x0c, 0x00, 0x00, 0x00, 0x00, 0x00, 0x06, 0x00,
  0x08, 0x00, 0x07, 0x00, 0x06, 0x00, 0x00, 0x00, 0x00, 0x00, 0x00, 0x01,
  0x01, 0x00, 0x00, 0x00, 0x0b, 0x00, 0x00, 0x00, 0x03, 0x00, 0x00, 0x00,
  0x00, 0x00, 0x00, 0x00, 0x06, 0x00, 0x00, 0x00, 0x05, 0x00, 0x00, 0x00,
  0x0c, 0x00, 0x10, 0x00, 0x0b, 0x00, 0x00, 0x00, 0x0c, 0x00, 0x04, 0x00,
  0x0c, 0x00, 0x00, 0x00, 0x09, 0x00, 0x00, 0x00, 0x00, 0x00, 0x00, 0x09,
  0x01, 0x00, 0x00, 0x00, 0xe4, 0xe0, 0xff, 0xff, 0x14, 0x00, 0x00, 0x00,
  0x0c, 0x00, 0x00, 0x00, 0x18, 0x00, 0x00, 0x00, 0x78, 0x00, 0x00, 0x00,
  0x68, 0x00, 0x00, 0x00, 0x02, 0x00, 0x00, 0x00, 0x01, 0x00, 0x00, 0x00,
  0x14, 0x00, 0x00, 0x00, 0x52, 0x00, 0x00, 0x00, 0x73, 0x65, 0x71, 0x75,
  0x65, 0x6e, 0x74, 0x69, 0x61, 0x6c, 0x5f, 0x31, 0x2f, 0x64, 0x65, 0x6e,
  0x73, 0x65, 0x5f, 0x35, 0x2f, 0x4d, 0x61, 0x74, 0x4d, 0x75, 0x6c, 0x3b,
  0x73, 0x65, 0x71, 0x75, 0x65, 0x6e, 0x74, 0x69, 0x61, 0x6c, 0x5f, 0x31,
  0x2f, 0x64, 0x65, 0x6e, 0x73, 0x65, 0x5f, 0x35, 0x2f, 0x52, 0x65, 0x6c,
  0x75, 0x3b, 0x73, 0x65, 0x71, 0x75, 0x65, 0x6e, 0x74, 0x69, 0x61, 0x6c,
  0x5f, 0x31, 0x2f, 0x64, 0x65, 0x6e, 0x73, 0x65, 0x5f, 0x35, 0x2f, 0x42,
  0x69, 0x61, 0x73, 0x41, 0x64, 0x64, 0x00, 0x00, 0x02, 0x00, 0x00, 0x00,
  0xff, 0xff, 0xff, 0xff, 0x14, 0x00, 0x00, 0x00, 0x00, 0xe1, 0xff, 0xff,
  0xea, 0xe1, 0xff, 0xff, 0x04, 0x00, 0x00, 0x00, 0xd0, 0x02, 0x00, 0x00,
  0x34, 0x50, 0x89, 0xbf, 0xf5, 0xed, 0x02, 0x3e, 0x14, 0x79, 0xc5, 0xbe,
  0x90, 0x16, 0x4a, 0xc0, 0x42, 0xb9, 0x68, 0x3e, 0x11, 0x2b, 0xab, 0xbe,
  0x7f, 0x3d, 0x29, 0x3f, 0x66, 0x86, 0xea, 0xbe, 0x49, 0x40, 0x03, 0xc0,
  0x95, 0x89, 0xfc, 0xbf, 0x75, 0x6f, 0xcd, 0xbb, 0x39, 0x71, 0xa8, 0x3e,
  0x2d, 0x1d, 0x9e, 0xbf, 0xb2, 0x79, 0xd5, 0x3e, 0xdc, 0x9b, 0xa6, 0xbf,
  0x25, 0xa8, 0xe3, 0xbd, 0x50, 0xc9, 0xef, 0x3e, 0xdd, 0x6b, 0x0e, 0x3f,
  0xba, 0x5f, 0xee, 0xbd, 0xaf, 0xb5, 0xe5, 0xbf, 0xaf, 0x68, 0x97, 0xbf,
  0xb4, 0x36, 0x7e, 0xbf, 0x3c, 0xfa, 0xe6, 0xbd, 0xf1, 0x2c, 0xd9, 0xbf,
  0xb4, 0x8f, 0x6c, 0x3e, 0xf7, 0xf3, 0xe3, 0xbe, 0x9d, 0xca, 0x3a, 0x3d,
  0xe1, 0x01, 0x4a, 0x3e, 0x55, 0xcf, 0x22, 0xc0, 0xe9, 0xc0, 0x29, 0xc0,
  0xef, 0x2d, 0xe1, 0xbe, 0x4e, 0x46, 0x7e, 0xbd, 0xb1, 0x28, 0x1d, 0xbf,
  0x81, 0x4d, 0x1f, 0xbf, 0xbe, 0xdd, 0xac, 0xbe, 0xcd, 0xec, 0x81, 0x3e,
  0xdb, 0x72, 0x3e, 0x3f, 0xf1, 0xbe, 0x29, 0x3f, 0x20, 0x3c, 0xfe, 0xbe,
  0x81, 0x68, 0x0a, 0xc0, 0xe0, 0x72, 0xb1, 0x3e, 0x57, 0x4e, 0x50, 0xbf,
  0xa3, 0x67, 0xca, 0x3d, 0xf9, 0x03, 0xd2, 0xbf, 0x4d, 0x3a, 0x38, 0x3e,
  0x0c, 0x90, 0x2d, 0x3f, 0x2a, 0x59, 0xf2, 0xbf, 0x23, 0x62, 0x3f, 0xc0,
  0x7f, 0xec, 0x39, 0xbf, 0x6c, 0x25, 0x2d, 0xbd, 0x2f, 0x56, 0x6e, 0xbf,
  0xbb, 0x08, 0x46, 0xbe, 0x9c, 0x6c, 0xeb, 0x3e, 0xa2, 0x73, 0x19, 0xc0,
  0xfd, 0x92, 0xed, 0xbd, 0x0c, 0x59, 0x37, 0xc0, 0x3a, 0x2f, 0xa9, 0xbf,
  0xf6, 0xcc, 0x06, 0xc0, 0x14, 0x90, 0x68, 0xbf, 0x3b, 0x88, 0x5e, 0xbf,
  0xea, 0xd0, 0x15, 0x3e, 0xf4, 0x56, 0x37, 0xbd, 0x37, 0xb5, 0x0d, 0xbc,
  0xc0, 0x70, 0x49, 0x3e, 0x16, 0xff, 0x10, 0x3f, 0x15, 0x88, 0x6c, 0xbf,
  0x4a, 0xca, 0xc6, 0xbd, 0x38, 0x4c, 0xe4, 0x3e, 0x8e, 0x1f, 0xd1, 0xbf,
  0xc1, 0x3e, 0x52, 0xbf, 0x93, 0xc8, 0x4a, 0xbf, 0x1a, 0x31, 0xc3, 0x3e,
  0xe2, 0x89, 0x85, 0xbd, 0x56, 0x86, 0xac, 0x3e, 0x56, 0x69, 0xfa, 0xbe,
  0xfa, 0x27, 0x9f, 0x3e, 0x41, 0x1e, 0xae, 0xbf, 0xc5, 0x86, 0xc3, 0x3e,
  0x0a, 0xf7, 0xa9, 0x3f, 0x66, 0x19, 0x30, 0x3f, 0xde, 0xeb, 0xd5, 0x3e,
  0x9c, 0x26, 0x6d, 0x3d, 0x61, 0x2b, 0x93, 0x3d, 0x4a, 0x74, 0x6b, 0xbf,
  0x7f, 0x5c, 0x14, 0xbf, 0x13, 0x33, 0x88, 0x3e, 0x2f, 0x2d, 0xe0, 0xbf,
  0xfe, 0x8f, 0xb8, 0xbd, 0xe5, 0x01, 0xb3, 0x3e, 0xfd, 0x5b, 0xe6, 0x3e,
  0x13, 0x5c, 0xd5, 0x3e, 0xd6, 0x7b, 0x69, 0xbf, 0xf7, 0x3b, 0xfe, 0xbe,
  0x8f, 0x0b, 0x1f, 0xbe, 0xf2, 0xbb, 0x6b, 0xbe, 0xae, 0xdf, 0xb6, 0xbf,
  0x3d, 0xc6, 0xc4, 0xbf, 0x33, 0x67, 0x80, 0xbf, 0xbe, 0x51, 0x17, 0xc0,
  0xe4, 0x32, 0xd1, 0x3e, 0xa7, 0x04, 0xf8, 0x3e, 0x0a, 0xd5, 0x8b, 0x3e,
  0x64, 0x40, 0x0d, 0x3f, 0x27, 0xa8, 0x8d, 0xbf, 0xc1, 0xea, 0x94, 0xbe,
  0x69, 0xc3, 0xa6, 0x3e, 0xb8, 0x83, 0x9f, 0xbf, 0x30, 0xd4, 0xb5, 0x3d,
  0x15, 0xac, 0x57, 0x3e, 0x5d, 0xd8, 0x60, 0x3e, 0xfa, 0xac, 0x8e, 0x3e,
  0x70, 0x2e, 0x98, 0xbf, 0x5f, 0x70, 0x47, 0x3e, 0xc1, 0x04, 0xe0, 0xbc,
  0x07, 0xef, 0x4e, 0xbe, 0x6c, 0x1a, 0x45, 0xbd, 0x00, 0x7a, 0x9a, 0xbf,
  0xa7, 0x5e, 0x8c, 0xbc, 0x5c, 0xff, 0x7f, 0xbf, 0xd6, 0xef, 0xca, 0x3e,
  0xd8, 0x3f, 0x67, 0x3c, 0xf3, 0x51, 0xd7, 0x3e, 0xe6, 0x10, 0x9d, 0x3e,
  0xaf, 0x6b, 0x90, 0xbf, 0x92, 0xa7, 0x9f, 0xbf, 0x2c, 0x6e, 0x4b, 0xbe,
  0xff, 0x97, 0xb8, 0xbf, 0x0e, 0xd5, 0x41, 0x3e, 0x66, 0xe4, 0x39, 0x3e,
  0xc5, 0xd5, 0xa8, 0xbd, 0xc6, 0x71, 0xd0, 0x3e, 0x53, 0x91, 0x97, 0xbf,
  0x46, 0x15, 0x9d, 0x3e, 0x0f, 0x76, 0x3a, 0xbf, 0xeb, 0x7a, 0x91, 0x3e,
  0xb1, 0xfb, 0xfa, 0xbe, 0x09, 0x9e, 0x1d, 0xc0, 0x59, 0xdd, 0xa3, 0xbe,
  0x84, 0x30, 0xf5, 0xbf, 0x30, 0x5c, 0x1b, 0xbd, 0x23, 0xbe, 0x35, 0x3d,
  0x9d, 0x37, 0xdc, 0xbe, 0x98, 0xa5, 0xd9, 0xbd, 0x7b, 0x83, 0x05, 0x3f,
  0xef, 0x6d, 0x07, 0xbe, 0xb3, 0x00, 0x1b, 0x3d, 0xe7, 0x5a, 0x0b, 0xbe,
  0xa9, 0xcf, 0x9f, 0xbe, 0x05, 0xee, 0x25, 0xbe, 0x14, 0xef, 0x11, 0xbe,
  0xdd, 0x9a, 0x8a, 0x3e, 0x28, 0xcd, 0x8b, 0xbf, 0x59, 0xa2, 0x58, 0xbe,
  0x16, 0x37, 0xb4, 0xbf, 0x8c, 0x66, 0x3e, 0x3f, 0x7e, 0x9f, 0x59, 0xbe,
  0x26, 0xed, 0x2d, 0xc0, 0x84, 0x23, 0x2f, 0xc0, 0xc1, 0xe2, 0x30, 0xc0,
  0x8c, 0xea, 0x06, 0xbf, 0x26, 0xa9, 0x23, 0xbf, 0x48, 0x3f, 0x78, 0xbf,
  0xe6, 0xad, 0xd9, 0xbe, 0x51, 0x2a, 0xf5, 0x3e, 0xb7, 0x12, 0xb2, 0xbd,
  0xf2, 0x4a, 0xc2, 0xbf, 0x68, 0xd5, 0x3d, 0xbe, 0x91, 0x60, 0x6d, 0xbf,
  0x95, 0x2c, 0xb2, 0xbf, 0x6d, 0x0b, 0xc0, 0xbf, 0x6e, 0x7a, 0xad, 0xbe,
  0xdc, 0xa5, 0x6d, 0xbf, 0x17, 0x5c, 0xab, 0x3e, 0x92, 0xfa, 0x51, 0xc0,
  0x61, 0x0e, 0xdd, 0x3e, 0x0f, 0x74, 0x4b, 0xbf, 0x4f, 0x52, 0xa3, 0xbf,
  0xc2, 0xbb, 0x3c, 0xc0, 0xd0, 0x05, 0x13, 0xc0, 0xe1, 0x83, 0xb8, 0x3c,
  0x8e, 0xe4, 0xff, 0xff, 0x10, 0x00, 0x00, 0x00, 0x0b, 0x00, 0x00, 0x00,
  0x14, 0x00, 0x00, 0x00, 0x30, 0x00, 0x00, 0x00, 0x02, 0x00, 0x00, 0x00,
  0x09, 0x00, 0x00, 0x00, 0x14, 0x00, 0x00, 0x00, 0x1b, 0x00, 0x00, 0x00,
  0x73, 0x65, 0x71, 0x75, 0x65, 0x6e, 0x74, 0x69, 0x61, 0x6c, 0x5f, 0x31,
  0x2f, 0x64, 0x65, 0x6e, 0x73, 0x65, 0x5f, 0x39, 0x2f, 0x4d, 0x61, 0x74,
  0x4d, 0x75, 0x6c, 0x00, 0x20, 0xe4, 0xff, 0xff, 0x0a, 0xe5, 0xff, 0xff,
  0x04, 0x00, 0x00, 0x00, 0x40, 0x06, 0x00, 0x00, 0x2e, 0x4c, 0x4e, 0x3d,
  0x16, 0xa0, 0x47, 0xbf, 0x92, 0x7b, 0xbb, 0xbe, 0x42, 0x62, 0x74, 0xbf,
  0x59, 0x1b, 0xba, 0xbd, 0x01, 0xd8, 0x07, 0xbf, 0x8e, 0x6b, 0x2d, 0xbe,
  0x26, 0xa8, 0x2c, 0x3f, 0x3a, 0xcb, 0xde, 0xbf, 0x3e, 0x88, 0xa4, 0xbd,
  0x44, 0x6f, 0x80, 0xbf, 0x1e, 0x0e, 0xbe, 0xbf, 0x2f, 0x61, 0x1f, 0x3f,
  0xfc, 0x68, 0xb9, 0xbf, 0x79, 0x3d, 0x86, 0xbd, 0xf1, 0xbd, 0x4b, 0x3f,
  0x7a, 0x9e, 0x3e, 0x3f, 0x3b, 0xdf, 0xf6, 0x3c, 0x5f, 0x00, 0x2a, 0xbe,
  0x77, 0xa6, 0x69, 0xbf, 0x6e, 0xa1, 0x8a, 0xbf, 0x27, 0xb6, 0x0d, 0xbf,
  0x4e, 0x26, 0x3e, 0xbf, 0xd7, 0x79, 0x4f, 0x3f, 0xe3, 0x56, 0x88, 0x3e,
  0xd2, 0xc7, 0xff, 0xbc, 0x11, 0x0e, 0x8c, 0xbf, 0x3a, 0xdf, 0xf8, 0xbe,
  0x91, 0x9c, 0x78, 0xbe, 0xcb, 0x98, 0x64, 0xbe, 0xb4, 0xe2, 0x76, 0xbe,
  0x8f, 0xef, 0x2e, 0x3e, 0x66, 0xf1, 0xa4, 0x3e, 0x6a, 0x9c, 0x35, 0x3f,
  0x11, 0xe1, 0x8a, 0xbf, 0x65, 0xd3, 0x46, 0xbe, 0x17, 0xf6, 0x7e, 0xbf,
  0xc7, 0xcd, 0x95, 0x3d, 0x38, 0x17, 0xe5, 0x3e, 0x1c, 0x47, 0xd5, 0xbd,
  0x28, 0x40, 0x05, 0x3f, 0x16, 0x37, 0x8c, 0xbf, 0x77, 0x12, 0x9c, 0x3e,
  0xec, 0x62, 0xfd, 0xbd, 0xa9, 0x41, 0xce, 0x3e, 0x15, 0x38, 0x02, 0xbf,
  0xc6, 0x92, 0xfe, 0x3e, 0xc0, 0x12, 0x84, 0x3f, 0x85, 0x3b, 0x6d, 0xbf,
  0xab, 0x3b, 0xe9, 0xbb, 0xee, 0xe9, 0x18, 0x3e, 0x73, 0x47, 0xf3, 0xbe,
  0xaf, 0xdf, 0x5d, 0x3f, 0x12, 0xc9, 0xc9, 0xbe, 0x45, 0xa9, 0xa8, 0xbe,
  0x64, 0x14, 0xae, 0xbe, 0xa9, 0xb9, 0x8b, 0x3f, 0x16, 0xc3, 0xfc, 0xbe,
  0x8c, 0x4b, 0x1a, 0xbf, 0x6a, 0xbf, 0xa3, 0x3e, 0xca, 0xbc, 0x9f, 0x3e,
  0xf3, 0xcc, 0x18, 0xbf, 0x2a, 0xba, 0xd0, 0xbf, 0xa6, 0xa0, 0x42, 0xbe,
  0xe2, 0xe4, 0x51, 0xbf, 0x96, 0x8d, 0x8d, 0xbf, 0x84, 0xc7, 0xc5, 0x3e,
  0x66, 0x24, 0x63, 0x3e, 0xbb, 0xcc, 0xd4, 0xbe, 0x6d, 0xf5, 0xfb, 0x3e,
  0x34, 0x27, 0x30, 0xbf, 0x8f, 0xc4, 0x3f, 0x3e, 0x96, 0x03, 0x00, 0xbe,
  0x1a, 0x04, 0x94, 0xbf, 0x6c, 0xd0, 0x05, 0xbf, 0x93, 0xa4, 0x71, 0x3f,
  0x57, 0xfb, 0x38, 0x3e, 0xa8, 0x0e, 0xaf, 0x3e, 0xb7, 0xe0, 0xde, 0x3f,
  0x8b, 0xf9, 0x0b, 0xc0, 0xdf, 0x03, 0xa1, 0x3c, 0x20, 0xe9, 0x88, 0x3e,
  0x49, 0x81, 0xac, 0x3d, 0x98, 0x38, 0x89, 0xbe, 0xb3, 0x18, 0x95, 0xbf,
  0xb3, 0x4d, 0xdb, 0xbc, 0x36, 0x1d, 0x23, 0xbf, 0x26, 0x93, 0xe1, 0xbe,
  0x50, 0x49, 0xf4, 0x3d, 0x93, 0xb0, 0xad, 0xbe, 0x78, 0xbc, 0x7e, 0xbf,
  0x57, 0xac, 0x81, 0x3e, 0x6e, 0xc4, 0xa5, 0xbe, 0x51, 0x8c, 0x9a, 0xbe,
  0xd6, 0x44, 0x8f, 0xbf, 0x8a, 0xa9, 0xc7, 0xbe, 0x12, 0xf9, 0xc8, 0x3c,
  0x38, 0x4c, 0xd1, 0xbe, 0xf8, 0x0c, 0xec, 0xbe, 0x96, 0x11, 0xfe, 0xbd,
  0x2f, 0xb3, 0x9d, 0xbe, 0x8a, 0x5a, 0xba, 0x3e, 0x8b, 0x50, 0x53, 0xbf,
  0x36, 0xab, 0x30, 0xbf, 0x5a, 0xae, 0x1f, 0xbe, 0x70, 0xdb, 0xfe, 0x3c,
  0x63, 0xef, 0xa4, 0xbf, 0xb9, 0x98, 0x65, 0xbe, 0xca, 0xa6, 0xc2, 0x3e,
  0xc6, 0x89, 0x1a, 0x3f, 0x32, 0xdb, 0xeb, 0x3e, 0x35, 0xed, 0xc4, 0xbe,
  0xe1, 0xf4, 0xb8, 0x3e, 0x60, 0xee, 0xeb, 0xbe, 0x73, 0x48, 0x82, 0x3e,
  0x01, 0x8c, 0x4d, 0x3e, 0x82, 0xe2, 0xdd, 0x3e, 0x60, 0xdd, 0x3e, 0xbf,
  0x11, 0x9f, 0x8f, 0xbf, 0xf0, 0x97, 0x09, 0x3e, 0x6a, 0xcf, 0x38, 0x3e,
  0x08, 0xd7, 0x4a, 0xbf, 0x44, 0x6d, 0xbe, 0xbf, 0x05, 0x80, 0x29, 0xbe,
  0xad, 0xf7, 0xd6, 0xbf, 0x65, 0x7a, 0xfd, 0xbd, 0x9e, 0x32, 0xba, 0x3e,
  0x73, 0xc4, 0xf5, 0x3d, 0xb1, 0xad, 0xed, 0xbe, 0xf4, 0x0f, 0x19, 0xbf,
  0x11, 0x7a, 0x57, 0x3f, 0xdf, 0x8d, 0xc4, 0xbe, 0xc5, 0x4a, 0x9b, 0xbe,
  0x0c, 0x20, 0x9b, 0xbf, 0x2f, 0x95, 0x63, 0xbc, 0x13, 0x2f, 0x1e, 0x3e,
  0x25, 0xda, 0x37, 0xbf, 0xc9, 0xe2, 0xa0, 0xbe, 0xd7, 0xe4, 0x39, 0xbf,
  0x84, 0xdd, 0x0d, 0x3f, 0xcc, 0xc6, 0x17, 0xbe, 0x30, 0x48, 0x60, 0xbf,
  0x9a, 0x93, 0x87, 0xbd, 0x4a, 0xf5, 0xcd, 0x3d, 0x73, 0x01, 0x3a, 0x3e,
  0xad, 0x97, 0x68, 0xbe, 0xdc, 0xfb, 0xe3, 0xbe, 0xbc, 0xe8, 0x41, 0xbf,
  0xb4, 0x0c, 0xd1, 0xbc, 0x3e, 0x1f, 0xd2, 0x3f, 0xcc, 0xcc, 0xdc, 0xbe,
  0x2f, 0xba, 0xcf, 0xbe, 0x4a, 0x1e, 0xa2, 0xbe, 0x5e, 0xc3, 0xfa, 0x3e,
  0x8a, 0x11, 0x2a, 0xbf, 0x1b, 0x80, 0xc0, 0xbd, 0x8c, 0xa9, 0x04, 0xbf,
  0x82, 0x9f, 0xc7, 0x3e, 0x8c, 0x4a, 0x45, 0x3e, 0x7a, 0xaa, 0x8a, 0xbe,
  0xcc, 0xe7, 0x03, 0x3e, 0x1d, 0x71, 0x80, 0xbf, 0xc9, 0x6f, 0xe1, 0xbd,
  0x30, 0x31, 0x8f, 0xbd, 0x8e, 0x2a, 0xd0, 0x3e, 0x04, 0xb9, 0xd7, 0x3e,
  0x35, 0x40, 0xc8, 0xbf, 0x53, 0x9a, 0x01, 0xbf, 0x19, 0x7b, 0x5f, 0xbc,
  0x87, 0x24, 0x11, 0xbf, 0xca, 0x58, 0xe5, 0x3e, 0x8c, 0x75, 0xab, 0xbe,
  0x04, 0xf0, 0x1e, 0xbf, 0x56, 0x06, 0x36, 0xbf, 0xb7, 0xab, 0x46, 0x3e,
  0xee, 0x24, 0x37, 0xbe, 0x94, 0x15, 0x7c, 0xbf, 0xea, 0x9e, 0xb2, 0xbe,
  0xa7, 0xbd, 0x1b, 0xbf, 0xa4, 0x97, 0xb0, 0xbe, 0x03, 0x97, 0x00, 0xbf,
  0x93, 0xd2, 0x88, 0xbf, 0x5a, 0x25, 0x11, 0xbe, 0xf5, 0xc7, 0x51, 0xbf,
  0x63, 0xad, 0x2d, 0x3e, 0x27, 0x04, 0x63, 0xbf, 0xdf, 0x73, 0x01, 0xbf,
  0x0c, 0x1e, 0x3d, 0xbf, 0xa5, 0xa7, 0x02, 0xbf, 0x56, 0x04, 0x8d, 0x3d,
  0x49, 0x54, 0x0e, 0x3f, 0xf5, 0xae, 0xe8, 0xbf, 0x45, 0x81, 0xd0, 0xbf,
  0x82, 0xd2, 0xa0, 0x3d, 0x38, 0x2e, 0x00, 0x3e, 0x31, 0xe0, 0x90, 0xbf,
  0xfe, 0x79, 0xc2, 0xbe, 0xfa, 0xe1, 0x9a, 0x3d, 0x21, 0x54, 0x99, 0xbf,
  0x8c, 0xfe, 0x26, 0xbf, 0x79, 0xa6, 0x7e, 0xbf, 0xeb, 0xb2, 0xa8, 0xbf,
  0x96, 0x66, 0x90, 0x3c, 0x24, 0xed, 0x75, 0xbe, 0x11, 0xd2, 0x0c, 0xbe,
  0x3c, 0x87, 0xd6, 0x3c, 0x5f, 0x12, 0xeb, 0xbe, 0xa2, 0x80, 0x57, 0xbd,
  0xc6, 0x76, 0x08, 0x3f, 0xfe, 0x2d, 0xb5, 0xbe, 0x67, 0x09, 0xdf, 0x3e,
  0xc6, 0x7f, 0x24, 0xbf, 0xe8, 0x08, 0xe2, 0x3e, 0xbe, 0x40, 0xfc, 0x3e,
  0x9f, 0x7c, 0xbb, 0x3e, 0x8e, 0xce, 0xd7, 0x3e, 0x6b, 0x86, 0x95, 0xbf,
  0x2a, 0x89, 0x72, 0x3e, 0x9e, 0xb9, 0x69, 0xbe, 0x9f, 0x1c, 0x09, 0xbf,
  0x51, 0x67, 0x03, 0xbe, 0x37, 0x33, 0x08, 0xbe, 0x0a, 0x66, 0xe8, 0x3b,
  0xca, 0x6f, 0x62, 0xbf, 0xcd, 0x18, 0xf9, 0xbf, 0xc7, 0xb9, 0xba, 0xbe,
  0x03, 0x66, 0xa8, 0xbe, 0xd0, 0xa6, 0xa4, 0xbe, 0x21, 0xa7, 0x01, 0x3e,
  0x49, 0xc6, 0x67, 0x3e, 0x34, 0x47, 0x0a, 0xbf, 0x7b, 0x15, 0xcb, 0x3d,
  0xe4, 0x94, 0x91, 0x3e, 0x60, 0x69, 0x62, 0xbf, 0xd3, 0xda, 0x3d, 0xbf,
  0x0b, 0x83, 0x94, 0xbe, 0x59, 0x96, 0x0a, 0xbe, 0xa3, 0x70, 0x7e, 0xbe,
  0x04, 0x6d, 0xcb, 0xbe, 0x50, 0xe0, 0x0e, 0xbe, 0xe9, 0xc5, 0x18, 0xbf,
  0x75, 0xbb, 0x5c, 0x3f, 0x86, 0x4d, 0x40, 0x3e, 0x04, 0xe3, 0x80, 0x3e,
  0x5a, 0x4d, 0x41, 0xbe, 0x27, 0x4c, 0xdd, 0x3e, 0xe7, 0xac, 0xc3, 0x3c,
  0x27, 0x3f, 0x41, 0x3f, 0xd4, 0x6d, 0x6b, 0xbe, 0xb6, 0x38, 0x1a, 0xbf,
  0x06, 0xdb, 0x0d, 0x3e, 0x73, 0xea, 0x32, 0x3f, 0x84, 0xa9, 0xa8, 0xbc,
  0xb9, 0xcb, 0x52, 0x3f, 0x2a, 0x6f, 0x1b, 0xbf, 0xc9, 0xfc, 0x0f, 0xbf,
  0xad, 0xd7, 0x42, 0x3f, 0x08, 0x38, 0xc2, 0x3e, 0xcd, 0x7f, 0xcd, 0x3d,
  0x5d, 0x90, 0xb8, 0xbf, 0xf7, 0xea, 0x2b, 0xbf, 0xe2, 0xbc, 0x97, 0xbe,
  0x4a, 0xe1, 0xc4, 0x3d, 0x8f, 0x43, 0x75, 0x3e, 0xf9, 0x53, 0xdf, 0xbe,
  0x11, 0x74, 0xfb, 0x3e, 0xff, 0xfc, 0x58, 0xbf, 0x31, 0x4f, 0xa5, 0x3f,
  0x20, 0xf7, 0xf9, 0xbe, 0x9e, 0xec, 0x6d, 0xbe, 0xd2, 0x08, 0x05, 0x3f,
  0x0a, 0xf4, 0x0c, 0x3f, 0x18, 0x7f, 0xbd, 0xbf, 0xab, 0xc8, 0xd9, 0x3d,
  0x2d, 0xf2, 0x85, 0x3e, 0x43, 0x14, 0x6f, 0x3c, 0xbd, 0x33, 0x95, 0xbf,
  0xa2, 0x76, 0xbc, 0xbf, 0x8d, 0x27, 0xad, 0x3f, 0xf6, 0xe7, 0x19, 0x3f,
  0x3c, 0x3f, 0x6e, 0xbf, 0x26, 0xe8, 0xe7, 0xbe, 0x07, 0x6a, 0x9a, 0xbe,
  0xff, 0x42, 0x14, 0x3f, 0x8d, 0x2a, 0x09, 0xbf, 0x18, 0x58, 0x8c, 0xbc,
  0xf4, 0x7d, 0x58, 0xbf, 0x19, 0x15, 0xee, 0x3e, 0x1f, 0x08, 0x83, 0xbe,
  0xaf, 0xb8, 0x02, 0xbf, 0x99, 0x1a, 0x21, 0xbf, 0x8e, 0xe9, 0x18, 0xbe,
  0x2e, 0x44, 0x1b, 0x3f, 0x78, 0xbf, 0xf0, 0xbe, 0x34, 0x30, 0xba, 0x3e,
  0x0e, 0x6f, 0x2a, 0x3f, 0x3a, 0x7f, 0x70, 0x3e, 0x34, 0x37, 0x05, 0x3f,
  0x3f, 0x10, 0xe2, 0x3f, 0x2c, 0x4d, 0x92, 0xbf, 0x3d, 0x9e, 0xf9, 0x3e,
  0x2c, 0x31, 0xd6, 0xbe, 0xc6, 0xd4, 0x9a, 0x3e, 0x8a, 0x82, 0x09, 0xbe,
  0xfd, 0xe7, 0xb4, 0xbe, 0x17, 0x94, 0x8d, 0xbf, 0x14, 0x8c, 0x86, 0xbe,
  0x6c, 0xb2, 0x31, 0x3f, 0x04, 0x87, 0x59, 0xbf, 0x46, 0x18, 0x30, 0x3f,
  0xa9, 0x0f, 0x7c, 0xbf, 0x12, 0xfa, 0xa4, 0x3d, 0x31, 0x94, 0x3a, 0xbf,
  0x97, 0x9f, 0xb1, 0x3d, 0x0b, 0x74, 0x0a, 0xbf, 0x5e, 0x86, 0x5d, 0x3f,
  0x5b, 0x0d, 0xb0, 0xbf, 0x0f, 0x5d, 0x3e, 0xbf, 0xa0, 0x75, 0xa2, 0x3f,
  0x9c, 0xb3, 0x2f, 0xbe, 0xe7, 0xa7, 0x3e, 0x3f, 0x6b, 0x61, 0xb3, 0xbe,
  0x5b, 0xe6, 0xee, 0xbe, 0xc4, 0x9b, 0xf3, 0xbf, 0xaa, 0x0f, 0x67, 0xbf,
  0x53, 0x82, 0x89, 0xbe, 0xe0, 0x58, 0x50, 0x3d, 0xb5, 0xbb, 0xed, 0xbd,
  0x4b, 0x10, 0x3e, 0xbe, 0x41, 0x7c, 0x46, 0x3f, 0x8a, 0xb3, 0xbe, 0xbe,
  0xfc, 0xd5, 0x77, 0xbf, 0x6d, 0x30, 0xc6, 0x3e, 0x24, 0xab, 0xe7, 0xbf,
  0x45, 0x89, 0x8d, 0xbf, 0x2e, 0xcc, 0x0d, 0xbf, 0x22, 0x6c, 0x2a, 0xbe,
  0xac, 0x2c, 0x17, 0xbf, 0x9f, 0x13, 0x94, 0x3d, 0x0a, 0x60, 0xba, 0x3d,
  0x11, 0x62, 0xbd, 0x3e, 0x62, 0x4b, 0x8a, 0xbe, 0xb3, 0x87, 0xa6, 0x3e,
  0x38, 0xb7, 0x85, 0x3e, 0x43, 0xab, 0xbd, 0xbe, 0xbf, 0xfb, 0x07, 0x3f,
  0x45, 0x65, 0xa1, 0xbf, 0xb7, 0xaa, 0x83, 0x3e, 0x25, 0x13, 0xb8, 0xbe,
  0x1b, 0x1c, 0x1c, 0xbf, 0x9f, 0x92, 0xeb, 0x3e, 0x8b, 0x5b, 0x63, 0x3d,
  0xe5, 0x6f, 0x02, 0xbd, 0x8e, 0xd4, 0x1a, 0xbf, 0x72, 0xdf, 0xe1, 0xbe,
  0x8a, 0xbe, 0x7b, 0xbe, 0x60, 0x12, 0x3b, 0xbf, 0x1d, 0xb0, 0x3e, 0xbf,
  0xcb, 0x2f, 0x95, 0xbe, 0x59, 0x8c, 0x02, 0x3f, 0xc3, 0x15, 0xbf, 0xbf,
  0x57, 0x74, 0xe7, 0xbd, 0xb6, 0x15, 0x3c, 0x3e, 0x1e, 0x5c, 0x3e, 0x3d,
  0x85, 0xeb, 0x3a, 0xbf, 0x42, 0xa2, 0xab, 0xbf, 0xfe, 0xbb, 0xd0, 0xbf,
  0x03, 0x5a, 0x96, 0x3e, 0xff, 0xb7, 0xd1, 0xbd, 0x06, 0x3e, 0xd1, 0x3d,
  0x9f, 0x7a, 0x69, 0xbf, 0x10, 0xae, 0x69, 0xbe, 0x7a, 0x97, 0x03, 0xbb,
  0x59, 0x7b, 0xff, 0xbe, 0x58, 0x22, 0xd2, 0xbf, 0xd9, 0x6b, 0x2f, 0xbf,
  0xc9, 0xa6, 0x9b, 0xbe, 0x57, 0x24, 0xf4, 0xbf, 0x38, 0x5b, 0x70, 0x3f,
  0x15, 0x9c, 0x25, 0x3f, 0x45, 0x5c, 0x06, 0x3f, 0x7d, 0x70, 0x8b, 0x3e,
  0x7e, 0xd5, 0xbd, 0xbc, 0xca, 0xc0, 0x21, 0xbd, 0x66, 0xb0, 0xba, 0xbd,
  0x9e, 0xea, 0x1e, 0xbf, 0x8e, 0xe3, 0x03, 0x3f, 0xb1, 0xdb, 0xb1, 0x3c,
  0xf0, 0xff, 0x4b, 0x3e, 0xb9, 0x7e, 0x25, 0x3e, 0x86, 0x89, 0xb4, 0x3e,
  0x91, 0xe3, 0x3a, 0xbf, 0x7d, 0x3e, 0x2c, 0x3f, 0x15, 0x96, 0x38, 0xbf,
  0xcf, 0x51, 0xf4, 0xbf, 0x2e, 0x35, 0x32, 0x3f, 0x9a, 0x54, 0xb2, 0x3e,
  0xe0, 0x07, 0x37, 0xbf, 0x2f, 0xe5, 0x26, 0xbe, 0x86, 0x76, 0xfa, 0xbf,
  0x1e, 0xeb, 0xff, 0xff, 0x10, 0x00, 0x00, 0x00, 0x0a, 0x00, 0x00, 0x00,
  0x14, 0x00, 0x00, 0x00, 0x30, 0x00, 0x00, 0x00, 0x02, 0x00, 0x00, 0x00,
  0x14, 0x00, 0x00, 0x00, 0x14, 0x00, 0x00, 0x00, 0x1b, 0x00, 0x00, 0x00,
  0x73, 0x65, 0x71, 0x75, 0x65, 0x6e, 0x74, 0x69, 0x61, 0x6c, 0x5f, 0x31,
  0x2f, 0x64, 0x65, 0x6e, 0x73, 0x65, 0x5f, 0x38, 0x2f, 0x4d, 0x61, 0x74,
  0x4d, 0x75, 0x6c, 0x00, 0xb0, 0xea, 0xff, 0xff, 0x9a, 0xeb, 0xff, 0xff,
  0x04, 0x00, 0x00, 0x00, 0x40, 0x06, 0x00, 0x00, 0x56, 0x0d, 0xb6, 0xbc,
  0x08, 0xaa, 0xec, 0x3e, 0xb4, 0xed, 0x6b, 0x3f, 0x07, 0xbd, 0x47, 0x3f,
  0x7b, 0x8e, 0xf6, 0xbd, 0x83, 0x9a, 0x50, 0xbf, 0x93, 0x7f, 0x94, 0x3e,
  0xd7, 0x1b, 0x84, 0xbd, 0x44, 0x3c, 0xb1, 0x3e, 0x9e, 0xe4, 0xbe, 0xbf,
  0x33, 0x1d, 0x39, 0x3f, 0x53, 0x5d, 0x3f, 0x3f, 0x8c, 0x68, 0x16, 0x3f,
  0x63, 0x21, 0xc8, 0xbf, 0x78, 0x77, 0x59, 0x3f, 0x03, 0xd1, 0x00, 0xc0,
  0x5c, 0x94, 0xb5, 0xbf, 0x98, 0xec, 0x5c, 0xbe, 0x32, 0xb9, 0x05, 0x3f,
  0xe7, 0xd2, 0x3c, 0x3e, 0x1e, 0x8b, 0x7a, 0xbf, 0xdd, 0x5b, 0x36, 0xbf,
  0x37, 0x5d, 0x90, 0xbd, 0x3e, 0x9c, 0xf6, 0x3e, 0xd4, 0x46, 0x83, 0xbf,
  0xc8, 0x11, 0xa4, 0xbf, 0xce, 0xad, 0xbc, 0x3c, 0x33, 0xf4, 0x8e, 0xbf,
  0x39, 0x90, 0x22, 0x3f, 0x81, 0x3d, 0x77, 0x3f, 0x9d, 0x29, 0x7a, 0xc0,
  0x5c, 0xed, 0xb2, 0xbf, 0x3b, 0x72, 0x9e, 0xbf, 0xd8, 0x50, 0x96, 0x3e,
  0xee, 0x84, 0xf4, 0xbf, 0x09, 0x1e, 0xc7, 0xbf, 0x63, 0x84, 0xb2, 0xbf,
  0xf0, 0x41, 0x43, 0xc0, 0x84, 0xb0, 0xe5, 0xbf, 0xd9, 0x97, 0xcb, 0xbd,
  0xb7, 0x9f, 0xc5, 0x3e, 0x74, 0xd3, 0xcb, 0x3e, 0x0b, 0x16, 0xb0, 0x3e,
  0x8e, 0x1c, 0x3c, 0x3e, 0xfa, 0x30, 0x8d, 0xbf, 0xbf, 0x00, 0xbf, 0xbe,
  0xbf, 0x56, 0x04, 0x3d, 0x99, 0x88, 0x98, 0x3e, 0x09, 0xc8, 0x1d, 0xbf,
  0x08, 0x67, 0x99, 0xbe, 0xa4, 0x55, 0x72, 0xbe, 0x2f, 0x05, 0xf4, 0x3d,
  0x10, 0x51, 0x2e, 0x3f, 0x32, 0x8b, 0xd7, 0xbe, 0xc3, 0x68, 0x43, 0x3f,
  0xe4, 0x22, 0xab, 0xbe, 0xb7, 0xc8, 0x20, 0x3f, 0xe5, 0x06, 0x9e, 0xbf,
  0x83, 0x51, 0x51, 0xbf, 0x26, 0x78, 0x82, 0xbf, 0xc2, 0xe2, 0xbd, 0xbd,
  0xb0, 0x3c, 0xaf, 0xbf, 0x15, 0x88, 0x88, 0xbf, 0x6a, 0x75, 0xca, 0x3d,
  0x45, 0x59, 0x00, 0xbf, 0xa2, 0x1e, 0x8a, 0xbf, 0xc5, 0x33, 0x07, 0x3e,
  0x61, 0x8f, 0xaf, 0x3f, 0x1a, 0x6d, 0x67, 0x3f, 0x4b, 0x2b, 0x04, 0xbe,
  0x27, 0x4b, 0x1b, 0x3f, 0x2b, 0xad, 0xe0, 0x3e, 0x99, 0x60, 0x76, 0x3e,
  0x9b, 0x34, 0xfc, 0xbe, 0x2b, 0xb3, 0x31, 0xbf, 0x75, 0x8c, 0x67, 0xbe,
  0xe5, 0xaa, 0x0e, 0x3f, 0x19, 0xb7, 0x54, 0x3f, 0xc0, 0xa5, 0xd1, 0xbe,
  0xed, 0x6d, 0xf1, 0xbe, 0xf9, 0x28, 0xa5, 0xbe, 0x73, 0xda, 0x5f, 0x3e,
  0xf7, 0xff, 0x64, 0x3f, 0xfd, 0x99, 0xb6, 0x3e, 0x95, 0xce, 0x47, 0x3d,
  0x2e, 0xf3, 0x03, 0xbf, 0xbb, 0xbe, 0x17, 0xbd, 0x6f, 0x7a, 0xbc, 0x3e,
  0xef, 0xe6, 0x5a, 0x3e, 0xa5, 0xf4, 0x06, 0xbf, 0x4a, 0xf7, 0x50, 0x3f,
  0x88, 0x28, 0x86, 0x3e, 0x18, 0xbd, 0x33, 0x3f, 0x1e, 0x1e, 0xb7, 0x3e,
  0x48, 0x00, 0x58, 0x3f, 0x55, 0xf2, 0x7c, 0x3f, 0xb4, 0x5c, 0xaa, 0xbe,
  0x84, 0x61, 0xcc, 0x3f, 0xf4, 0xfb, 0x5e, 0x3e, 0xac, 0xfa, 0x98, 0x3e,
  0xf9, 0xce, 0x99, 0xbe, 0x03, 0xe3, 0x5a, 0xbf, 0xf9, 0xa1, 0x3b, 0xbf,
  0x5c, 0xd3, 0x0f, 0xbf, 0x4e, 0xae, 0x0e, 0x3f, 0xd1, 0x23, 0x78, 0xbe,
  0xaf, 0x6f, 0x1a, 0xbe, 0x87, 0x34, 0xf8, 0x3e, 0x3a, 0xda, 0x11, 0xbf,
  0x9d, 0x1f, 0x5f, 0xbf, 0xcf, 0x6d, 0xfb, 0x3e, 0x18, 0xda, 0x0e, 0x3f,
  0x55, 0x57, 0x6c, 0x3e, 0x70, 0x2a, 0x89, 0xbe, 0x7d, 0x25, 0x22, 0x3f,
  0x87, 0x44, 0x57, 0x3e, 0x6c, 0xfa, 0x7c, 0x3f, 0x10, 0x27, 0x36, 0x3f,
  0x22, 0x85, 0xd6, 0xbf, 0x3a, 0x63, 0x3d, 0x3d, 0x29, 0xe8, 0x36, 0x3e,
  0xf8, 0x5b, 0x91, 0x3f, 0x02, 0xaa, 0x6e, 0xbf, 0x7f, 0x5d, 0x1a, 0xc0,
  0x1c, 0xdc, 0x39, 0x3f, 0xfb, 0x5c, 0xa1, 0x3e, 0x25, 0xfa, 0x94, 0xbf,
  0xf8, 0x7d, 0xbd, 0xbe, 0xc4, 0x17, 0x0d, 0x3f, 0xa6, 0x19, 0x9e, 0x3e,
  0x17, 0x49, 0x3d, 0x3f, 0xbd, 0x99, 0xf4, 0xbe, 0x98, 0x8a, 0x07, 0x3e,
  0xc9, 0x8b, 0x35, 0xc0, 0x2c, 0xa1, 0x3b, 0x3f, 0xda, 0xd8, 0x84, 0x3e,
  0xcb, 0x9d, 0x2f, 0xc0, 0xc3, 0x2b, 0x24, 0xbf, 0xa4, 0x3b, 0x88, 0xbe,
  0x3c, 0xca, 0x45, 0x3f, 0x36, 0xfe, 0xc2, 0xbf, 0xa1, 0x8b, 0x2b, 0x3e,
  0x70, 0xe8, 0x15, 0x3e, 0x65, 0x77, 0x1c, 0x3e, 0x74, 0x89, 0x81, 0xbf,
  0x87, 0xd3, 0x30, 0xbf, 0xf6, 0x3a, 0x4c, 0xbf, 0x9e, 0x37, 0x48, 0xbe,
  0x1b, 0x47, 0xb0, 0xbd, 0xaf, 0x65, 0x4f, 0x3e, 0xee, 0x9e, 0x06, 0xbf,
  0xf0, 0x14, 0x56, 0xbe, 0xf0, 0x61, 0x89, 0xbf, 0x3f, 0x6f, 0x91, 0xbf,
  0x10, 0x50, 0x9f, 0xbf, 0x95, 0xe1, 0x43, 0x3e, 0x97, 0xff, 0xb9, 0x3c,
  0x6d, 0x60, 0xb5, 0xbd, 0x3f, 0xf5, 0x00, 0xc0, 0xe8, 0x33, 0x16, 0xbf,
  0xb0, 0x27, 0x96, 0xbf, 0xa2, 0xe1, 0x73, 0x3f, 0x8e, 0x12, 0x5c, 0x3d,
  0x80, 0x88, 0x7b, 0xbf, 0x0e, 0x95, 0x2d, 0xbe, 0x7f, 0xe5, 0xc4, 0x3d,
  0x63, 0x57, 0xa5, 0x3d, 0x41, 0x4e, 0x92, 0x3e, 0xdf, 0x0d, 0xb1, 0xbf,
  0x83, 0x09, 0x90, 0x3e, 0x0e, 0x03, 0xef, 0xbc, 0x17, 0xca, 0x19, 0x3e,
  0xa5, 0xc4, 0x4e, 0x3e, 0x4a, 0x00, 0x21, 0x3e, 0x4b, 0x77, 0xa1, 0x3e,
  0x28, 0xe6, 0x34, 0x3f, 0xc2, 0x01, 0x44, 0xc0, 0x3b, 0xe8, 0x0f, 0xc0,
  0x86, 0x17, 0x5a, 0xbf, 0x41, 0xe2, 0x84, 0x3e, 0x41, 0x54, 0x86, 0x3d,
  0x8b, 0x8a, 0x11, 0x3f, 0x2a, 0x45, 0xc8, 0xbe, 0xf3, 0x38, 0x2f, 0x3e,
  0x0f, 0xfd, 0x1e, 0x3f, 0xa5, 0x02, 0x8b, 0xbe, 0x60, 0xac, 0xe8, 0xbe,
  0x86, 0x5b, 0xee, 0xbf, 0xb0, 0x0d, 0x4b, 0xbf, 0xcf, 0xf6, 0x43, 0xbf,
  0xc1, 0x79, 0xd0, 0x3f, 0x62, 0x89, 0xd8, 0xbf, 0x13, 0x0b, 0xa5, 0xbf,
  0x0f, 0xc4, 0xcd, 0xbe, 0x9f, 0x1a, 0xdc, 0xbe, 0x93, 0xa9, 0x9a, 0x3f,
  0xe5, 0x94, 0x1a, 0xbf, 0x3b, 0x36, 0x17, 0xbf, 0xb4, 0x6a, 0x5f, 0xbe,
  0x4e, 0xe7, 0x9f, 0xbf, 0x70, 0xeb, 0xae, 0xbf, 0xba, 0x3f, 0xbc, 0x3d,
  0xbd, 0x65, 0x15, 0xbf, 0x3d, 0xbc, 0x4a, 0x3f, 0x00, 0x36, 0x41, 0xbf,
  0xcd, 0x27, 0x69, 0xbf, 0x5d, 0xcd, 0x71, 0xbe, 0x3d, 0xc2, 0x19, 0xbf,
  0x86, 0xd7, 0x7e, 0xbf, 0x4e, 0xaa, 0xfe, 0x3e, 0x9d, 0x50, 0x06, 0x3e,
  0x14, 0xf6, 0x91, 0xbf, 0x26, 0xf2, 0x54, 0xbf, 0x53, 0xb0, 0x9d, 0xbd,
  0x63, 0x8c, 0x8a, 0xbf, 0xe1, 0x37, 0xb0, 0xbf, 0x2a, 0x4b, 0x1e, 0x3f,
  0x06, 0xbb, 0x57, 0x3f, 0x97, 0xd4, 0xc5, 0xbd, 0xd3, 0x90, 0x1d, 0x3d,
  0x1f, 0x21, 0xa7, 0x3d, 0x8f, 0x48, 0xb4, 0xbf, 0x45, 0xc6, 0x55, 0xbf,
  0x74, 0xe0, 0x0b, 0x3f, 0x73, 0x43, 0x50, 0xbd, 0x20, 0xa9, 0xde, 0x3e,
  0xdd, 0x95, 0x4a, 0xbf, 0xd1, 0x5d, 0x84, 0xbe, 0xae, 0xe6, 0xc8, 0xbc,
  0x5b, 0xba, 0xa3, 0xbf, 0x0f, 0xf9, 0x0f, 0xc0, 0x67, 0x58, 0x20, 0x3e,
  0x72, 0xe9, 0x91, 0xbf, 0x08, 0x8a, 0xa9, 0xbf, 0x7d, 0x73, 0xae, 0xbe,
  0x2f, 0x3d, 0x0d, 0x3f, 0xce, 0x60, 0xae, 0x3e, 0xb6, 0xc1, 0x5e, 0xbe,
  0x40, 0x58, 0x95, 0xbf, 0x04, 0x43, 0xbc, 0xbe, 0x6b, 0x66, 0xa4, 0xbe,
  0x45, 0x4b, 0x55, 0x3f, 0x36, 0xa8, 0xce, 0xbd, 0x01, 0x67, 0xd7, 0xbf,
  0x15, 0x47, 0x05, 0xbe, 0x80, 0xdb, 0x20, 0xbe, 0x2b, 0x26, 0xcb, 0xbe,
  0x5a, 0xb3, 0x7e, 0xbe, 0xda, 0xb3, 0x48, 0x3e, 0x81, 0xab, 0x67, 0x3f,
  0xaa, 0x4c, 0xea, 0xbd, 0xa0, 0xb3, 0x31, 0xbd, 0x2b, 0xe1, 0xb6, 0x3e,
  0xb9, 0xb8, 0xb4, 0xbf, 0x2a, 0xd2, 0x8b, 0x3a, 0xe9, 0x6c, 0x02, 0xbf,
  0xd4, 0x9b, 0x82, 0xbe, 0xa9, 0xa4, 0xbd, 0x3f, 0x76, 0x39, 0x3d, 0xbf,
  0xbd, 0x41, 0xce, 0xbf, 0x2e, 0x81, 0xb4, 0xbf, 0x56, 0x91, 0x4a, 0xbf,
  0x42, 0xd2, 0x82, 0xbe, 0x8c, 0xd9, 0x9d, 0xbf, 0xf9, 0x26, 0x91, 0x3f,
  0x02, 0x69, 0xa5, 0xbe, 0x49, 0x2d, 0x0f, 0xbf, 0xf6, 0xdf, 0x1b, 0xbf,
  0x31, 0x28, 0xa8, 0x3d, 0xeb, 0xf4, 0xe0, 0xbe, 0x6b, 0xcc, 0x26, 0x3f,
  0x5e, 0xf1, 0x92, 0xbf, 0x54, 0xf4, 0x96, 0xbf, 0xf0, 0xe7, 0x5a, 0xbf,
  0xf8, 0x9a, 0xa0, 0x3f, 0x35, 0x24, 0x15, 0x3e, 0xe3, 0xd8, 0x90, 0xbf,
  0xaa, 0x18, 0x42, 0x3f, 0x97, 0x66, 0x49, 0xbf, 0x92, 0xed, 0x6c, 0xbf,
  0x23, 0xa3, 0x9d, 0xbf, 0x9b, 0x2d, 0x49, 0xbe, 0x94, 0x45, 0x97, 0xbe,
  0x62, 0x78, 0x17, 0x3f, 0x83, 0x7c, 0x8f, 0x3e, 0x07, 0x09, 0x1c, 0x3f,
  0x07, 0x3d, 0x29, 0x3d, 0xc4, 0xd0, 0x43, 0xbe, 0x88, 0x86, 0x16, 0xc0,
  0x21, 0x87, 0xad, 0x3e, 0x90, 0x37, 0xb5, 0x3e, 0xe7, 0xd5, 0x72, 0xbe,
  0x65, 0x9c, 0x54, 0x3f, 0xfb, 0xd0, 0x02, 0x3f, 0x61, 0xb7, 0x44, 0xbf,
  0x74, 0x6c, 0x03, 0xbf, 0xec, 0x8b, 0x15, 0xbe, 0x7a, 0x4b, 0x95, 0x3e,
  0xd3, 0x34, 0xb4, 0x3e, 0x1e, 0xdf, 0xf9, 0x3d, 0xff, 0x71, 0x38, 0xbf,
  0xaa, 0x99, 0xa0, 0xbf, 0x67, 0xcd, 0xe2, 0xbd, 0x0e, 0x13, 0x08, 0x3e,
  0x51, 0x80, 0x41, 0xbf, 0x28, 0x60, 0x3b, 0x3f, 0xaa, 0x8a, 0x7a, 0xbd,
  0x57, 0xec, 0x6a, 0x3e, 0xd8, 0xe9, 0xec, 0xbd, 0x93, 0xa7, 0x5a, 0x3f,
  0xfe, 0x17, 0x7c, 0x3f, 0x08, 0xfe, 0xb0, 0xbf, 0x11, 0xc8, 0x8d, 0xbd,
  0xa0, 0x40, 0x5a, 0xbf, 0x85, 0x21, 0xca, 0xbf, 0x95, 0xb9, 0x5a, 0x3e,
  0x8a, 0x89, 0x9e, 0x3e, 0xf2, 0xf0, 0x0e, 0x3e, 0xff, 0x56, 0x2a, 0x3f,
  0x68, 0x03, 0x1a, 0xc0, 0x30, 0xa9, 0x7f, 0xbf, 0xc2, 0x69, 0xbe, 0xbf,
  0xc3, 0xf2, 0xeb, 0xbb, 0x37, 0x6d, 0x61, 0x3e, 0x45, 0x52, 0x72, 0xbf,
  0xf7, 0x7e, 0x2d, 0xbf, 0x2e, 0x73, 0xd9, 0x3d, 0xab, 0x11, 0xce, 0xbf,
  0x14, 0x7e, 0x53, 0x3f, 0x40, 0x93, 0x10, 0x3f, 0xe5, 0x5d, 0x3e, 0xbf,
  0xc4, 0x2a, 0x8b, 0xbf, 0xf9, 0x11, 0xdb, 0xbf, 0xff, 0x52, 0x2b, 0x3f,
  0x9b, 0x30, 0x44, 0xbf, 0x2f, 0x6e, 0x40, 0x3e, 0xab, 0xbc, 0x19, 0xc0,
  0x8f, 0xbf, 0x27, 0xc0, 0x5a, 0x72, 0xd4, 0xbf, 0x6f, 0x13, 0x13, 0xbe,
  0xd9, 0x0e, 0x14, 0xbe, 0x48, 0x38, 0xbe, 0xbf, 0x56, 0x3e, 0x13, 0xbf,
  0x24, 0x73, 0x60, 0xbf, 0x37, 0xb2, 0xc5, 0xbe, 0x96, 0x9f, 0x38, 0x3f,
  0xaa, 0xc2, 0x02, 0xbf, 0xe8, 0xce, 0x67, 0x3f, 0xb1, 0x89, 0xcc, 0x3e,
  0x8c, 0xcf, 0x26, 0x3c, 0x7b, 0x8d, 0x0c, 0xbf, 0x42, 0x73, 0x95, 0xbe,
  0x8a, 0xe6, 0xf6, 0x3e, 0x79, 0x2a, 0xb9, 0x3d, 0x60, 0x44, 0xfd, 0x3c,
  0x08, 0x96, 0xe2, 0x3e, 0x13, 0x1e, 0xf4, 0x3d, 0xfe, 0xa4, 0x97, 0x3f,
  0x84, 0xf9, 0xb2, 0xbf, 0x8b, 0xa1, 0x0d, 0xbd, 0xc4, 0xba, 0xb2, 0xbf,
  0x9d, 0x4d, 0x2b, 0xbf, 0x42, 0x2c, 0x21, 0xbf, 0xa4, 0x3c, 0x23, 0x3f,
  0x07, 0xb3, 0x51, 0xbf, 0x45, 0x8a, 0xc1, 0xbf, 0x60, 0xe7, 0x54, 0xbf,
  0x13, 0xf6, 0xea, 0xbe, 0xc9, 0xa8, 0xee, 0xbe, 0x71, 0xd9, 0xaa, 0x3d,
  0x5b, 0xa3, 0x95, 0xbe, 0x22, 0x86, 0x8d, 0xbf, 0x17, 0x29, 0x3e, 0xbf,
  0x6a, 0x01, 0xbf, 0xbf, 0x6f, 0xaa, 0x39, 0xbf, 0x53, 0x3e, 0x3f, 0x3f,
  0x1d, 0xe6, 0xd1, 0x3d, 0x16, 0x49, 0x86, 0xbf, 0x13, 0xd0, 0xc1, 0xbf,
  0x49, 0x4a, 0x59, 0xbf, 0x42, 0xf4, 0x88, 0x3d, 0x54, 0x9b, 0xcb, 0xbe,
  0x89, 0x2b, 0xf0, 0xbd, 0x6e, 0x51, 0xd3, 0xbe, 0xb2, 0x84, 0x91, 0x3f,
  0x1c, 0xc1, 0x1d, 0xbf, 0xa4, 0x45, 0x32, 0xbe, 0x5b, 0xf8, 0x16, 0x3e,
  0x5e, 0xc5, 0x8c, 0xbf, 0x14, 0xb7, 0x6f, 0xbf, 0x0a, 0x9b, 0xef, 0xbe,
  0x8e, 0x7c, 0xdf, 0xbe, 0xa9, 0x05, 0x9a, 0x3e, 0xa1, 0xcf, 0xd1, 0xbe,
  0xac, 0x7a, 0x36, 0xbd, 0x99, 0x4f, 0x95, 0xbf, 0xc3, 0xa3, 0x3c, 0x3f,
  0x44, 0x69, 0x62, 0xbf, 0x10, 0x52, 0x27, 0x3f, 0x92, 0x85, 0x34, 0x3e,
  0xae, 0xf1, 0xff, 0xff, 0x10, 0x00, 0x00, 0x00, 0x09, 0x00, 0x00, 0x00,
  0x14, 0x00, 0x00, 0x00, 0x30, 0x00, 0x00, 0x00, 0x02, 0x00, 0x00, 0x00,
  0x14, 0x00, 0x00, 0x00, 0x14, 0x00, 0x00, 0x00, 0x1b, 0x00, 0x00, 0x00,
  0x73, 0x65, 0x71, 0x75, 0x65, 0x6e, 0x74, 0x69, 0x61, 0x6c, 0x5f, 0x31,
  0x2f, 0x64, 0x65, 0x6e, 0x73, 0x65, 0x5f, 0x37, 0x2f, 0x4d, 0x61, 0x74,
  0x4d, 0x75, 0x6c, 0x00, 0x40, 0xf1, 0xff, 0xff, 0x2a, 0xf2, 0xff, 0xff,
  0x04, 0x00, 0x00, 0x00, 0x40, 0x06, 0x00, 0x00, 0x20, 0xe1, 0x8a, 0xbe,
  0xc2, 0xef, 0x50, 0x3f, 0xbc, 0x78, 0x3e, 0xbe, 0xe5, 0x30, 0x0f, 0x3f,
  0x59, 0x5a, 0x7a, 0xbf, 0x2b, 0x61, 0x45, 0x3f, 0x0c, 0xfd, 0xc0, 0x3d,
  0xed, 0xae, 0x0c, 0xbe, 0xc1, 0xd2, 0xd6, 0x3c, 0x8e, 0x3d, 0x07, 0x3f,
  0x44, 0x1e, 0xdb, 0x3e, 0x63, 0xbb, 0xc0, 0xbe, 0xf5, 0x6a, 0x12, 0xbd,
  0x8d, 0xcb, 0xe1, 0xbf, 0x61, 0x59, 0x88, 0x3e, 0xb1, 0x1b, 0xa3, 0xbe,
  0x2b, 0x63, 0xf3, 0xbe, 0x00, 0x9b, 0x84, 0xbf, 0xef, 0xe8, 0x0b, 0xbf,
  0xfe, 0x8a, 0x04, 0x3f, 0x7b, 0x8c, 0x07, 0xbf, 0xbc, 0x1d, 0xce, 0x3f,
  0x1b, 0xca, 0xfd, 0xbe, 0x2c, 0x54, 0x37, 0xbf, 0x9f, 0xd3, 0x82, 0xbe,
  0xda, 0xfa, 0x1f, 0x3c, 0x35, 0x78, 0x91, 0x3e, 0xc1, 0x36, 0x21, 0xbf,
  0xa2, 0x0f, 0x29, 0x40, 0x8a, 0x5d, 0xd2, 0xbf, 0xfc, 0xde, 0x1c, 0xbe,
  0x90, 0xd4, 0x9a, 0xbe, 0x3f, 0x83, 0xc3, 0xbe, 0x7b, 0xd2, 0xb8, 0x3f,
  0xfc, 0x89, 0xc8, 0xbf, 0x17, 0x9d, 0x4e, 0x3f, 0x75, 0xcf, 0x96, 0xbe,
  0x38, 0x59, 0x26, 0x3f, 0x7e, 0x70, 0x18, 0x3f, 0xec, 0x34, 0x9e, 0xbf,
  0x24, 0x27, 0xac, 0xbe, 0x50, 0x03, 0xcf, 0xbe, 0x32, 0x5e, 0x91, 0xbd,
  0x30, 0x25, 0xb4, 0xbe, 0x41, 0xf4, 0x49, 0x3e, 0x78, 0x5c, 0x1b, 0xbe,
  0xf8, 0xd9, 0x24, 0xc0, 0x38, 0x6c, 0xd8, 0x3c, 0x92, 0x99, 0x2d, 0x3e,
  0xec, 0x7a, 0x8d, 0x3e, 0x54, 0x91, 0x34, 0xbc, 0x21, 0x92, 0x0f, 0x3f,
  0xa5, 0x8a, 0xb2, 0xbf, 0x0f, 0xbf, 0x8c, 0xbf, 0x18, 0xde, 0xe4, 0x3e,
  0xb3, 0x49, 0x72, 0x3e, 0xc6, 0x47, 0x21, 0x3f, 0xf9, 0xa5, 0xb8, 0xbe,
  0xbe, 0xc9, 0x57, 0xbf, 0x6d, 0x0b, 0x53, 0xbf, 0x6a, 0x3f, 0x3d, 0xbf,
  0x63, 0xa7, 0xbb, 0xbd, 0x35, 0x79, 0x3b, 0x3f, 0x65, 0xb7, 0x11, 0xbf,
  0x54, 0xcf, 0xc0, 0x3e, 0xd1, 0x72, 0x0a, 0xbf, 0x36, 0x06, 0xab, 0xbf,
  0x5f, 0x1a, 0x92, 0x3e, 0xbf, 0x81, 0x79, 0xbe, 0x50, 0x4e, 0x21, 0x3f,
  0x85, 0x36, 0x94, 0x3e, 0xf4, 0x29, 0x40, 0xbf, 0xa9, 0x0f, 0xc3, 0xbf,
  0x3c, 0xf4, 0xcc, 0xbe, 0x24, 0xf3, 0x9b, 0xbf, 0x33, 0xca, 0xb8, 0xbd,
  0x21, 0xaa, 0xff, 0xbe, 0x64, 0x82, 0x1d, 0x3f, 0xcb, 0xa2, 0x3f, 0xbd,
  0xe2, 0x99, 0xa4, 0x3e, 0x7e, 0x85, 0x2f, 0x3f, 0x18, 0xdd, 0xe9, 0x3e,
  0x90, 0xca, 0x3c, 0xbf, 0x73, 0xd2, 0xe3, 0xbf, 0x16, 0x97, 0x57, 0xbb,
  0xe5, 0xfa, 0xca, 0x3e, 0x83, 0x28, 0x1a, 0x3f, 0x60, 0xa5, 0x55, 0xbf,
  0x68, 0x64, 0x55, 0xbf, 0x10, 0x79, 0x33, 0x3c, 0xc5, 0xaf, 0x17, 0xbf,
  0x0d, 0x7e, 0x21, 0x3f, 0x03, 0x77, 0xbd, 0x3d, 0x3a, 0x2a, 0x0e, 0xbf,
  0x79, 0xef, 0xde, 0xbe, 0x8f, 0xa6, 0x20, 0x3f, 0xb3, 0xd0, 0x57, 0x3f,
  0xb0, 0x9b, 0x7b, 0xbf, 0x28, 0x63, 0xce, 0x3e, 0x31, 0x0b, 0x20, 0xc0,
  0xf1, 0x6b, 0x73, 0x3d, 0xba, 0x86, 0xf1, 0x3c, 0x04, 0xf4, 0x06, 0xbf,
  0xa6, 0xc6, 0x9d, 0x3e, 0x37, 0x5d, 0x19, 0x3f, 0x71, 0x16, 0xcc, 0xbf,
  0xad, 0x99, 0xab, 0x3e, 0x82, 0x5b, 0x24, 0x3e, 0xd6, 0xa9, 0xf9, 0xbb,
  0x4d, 0x11, 0xfb, 0xbe, 0x4f, 0x83, 0x42, 0x3e, 0x76, 0x87, 0x5f, 0x3e,
  0xc2, 0xc8, 0x95, 0x3f, 0xd7, 0x2c, 0x28, 0xbf, 0x1d, 0x85, 0x4e, 0xbe,
  0x5e, 0x60, 0xcd, 0x3c, 0xad, 0xde, 0x5a, 0xbe, 0xd7, 0x73, 0x7c, 0xbf,
  0x0e, 0x8c, 0x8c, 0x3d, 0x2c, 0xd1, 0x80, 0x3f, 0x11, 0x9b, 0x99, 0xbe,
  0x68, 0x71, 0x16, 0xbd, 0x1a, 0x1f, 0x17, 0x3d, 0x85, 0xf3, 0x8c, 0xbe,
  0xb0, 0x99, 0xec, 0xbb, 0x9e, 0x51, 0x1b, 0x3b, 0xcb, 0x94, 0x36, 0xbf,
  0xf8, 0x90, 0x25, 0x3c, 0x04, 0x3e, 0x56, 0x3d, 0xb8, 0x83, 0x67, 0xbf,
  0x4d, 0x7e, 0xe0, 0xbe, 0xbc, 0xcc, 0x85, 0xbe, 0x92, 0x5a, 0x35, 0xbf,
  0xaa, 0xb6, 0x34, 0xb9, 0x93, 0xbb, 0x14, 0x3f, 0x5c, 0x09, 0xa2, 0xbe,
  0xc3, 0x05, 0x9f, 0xbe, 0xf3, 0xba, 0xa7, 0xbd, 0xd2, 0x37, 0x3f, 0x3e,
  0xe8, 0x97, 0x08, 0xbd, 0xc5, 0x3c, 0x9c, 0x3e, 0xd7, 0x7d, 0xc9, 0x3e,
  0xb1, 0x27, 0xff, 0xbb, 0xc1, 0xf7, 0x3e, 0x3e, 0x86, 0x33, 0xe3, 0xbf,
  0xc5, 0x5e, 0x5c, 0xbd, 0x8c, 0xcc, 0x0f, 0xc0, 0x63, 0x59, 0x80, 0x3f,
  0x51, 0x88, 0x9d, 0x3f, 0x2e, 0x9a, 0x85, 0xbe, 0xe0, 0x74, 0x20, 0xbf,
  0x02, 0x9a, 0x3c, 0x3f, 0x83, 0xdb, 0x26, 0x3f, 0x1e, 0x42, 0x79, 0x3f,
  0x45, 0xca, 0x69, 0xbd, 0x46, 0x1e, 0xfe, 0x3e, 0x40, 0x69, 0xef, 0x3e,
  0xa6, 0xa6, 0xb2, 0x3e, 0x7f, 0xb4, 0xa9, 0x3e, 0x06, 0x67, 0xa6, 0x3e,
  0xea, 0x27, 0x57, 0xbd, 0x5d, 0xdc, 0xb7, 0x3d, 0x76, 0xe3, 0x5e, 0xbf,
  0x8c, 0x3b, 0xcd, 0xbe, 0xec, 0x0f, 0x86, 0xbf, 0x08, 0x17, 0x6a, 0xbf,
  0x39, 0x1e, 0x88, 0x3f, 0xa2, 0x03, 0xf7, 0xbe, 0xb3, 0x74, 0x89, 0x3f,
  0xb7, 0x70, 0x4b, 0x3f, 0x77, 0x90, 0x4e, 0xbe, 0x29, 0xe4, 0xe1, 0x3e,
  0xb4, 0xfe, 0x92, 0xbf, 0x3b, 0x19, 0xc0, 0xbe, 0x47, 0x80, 0x1f, 0xbe,
  0xc2, 0xb6, 0xd9, 0x3a, 0xf8, 0x49, 0xbe, 0xbd, 0x07, 0x7a, 0xf0, 0xbe,
  0xcc, 0x7e, 0xd5, 0xbf, 0xad, 0xeb, 0xc6, 0x3e, 0xc7, 0xa6, 0x72, 0x3f,
  0x30, 0xa0, 0x6d, 0xbf, 0x05, 0xe0, 0x74, 0xbf, 0xef, 0x1d, 0x81, 0xbf,
  0x78, 0x53, 0x69, 0x3e, 0xb2, 0xcf, 0x6b, 0xbf, 0xcd, 0x21, 0xb7, 0xbf,
  0xba, 0x28, 0x1e, 0xbe, 0x73, 0xa0, 0x48, 0xbf, 0x60, 0xeb, 0x49, 0xbf,
  0xed, 0xbc, 0x43, 0x3e, 0x09, 0x66, 0xc2, 0xbe, 0xce, 0x01, 0x43, 0xbf,
  0xaf, 0xee, 0x6a, 0x3f, 0xfc, 0x97, 0x0a, 0xc0, 0x36, 0x0e, 0x84, 0x3f,
  0x84, 0x2a, 0x26, 0x3d, 0x2c, 0x88, 0x20, 0xc0, 0x2c, 0x43, 0x58, 0xbe,
  0xd9, 0xb0, 0x5a, 0x3f, 0xac, 0xa4, 0xd4, 0xbe, 0xa1, 0x9b, 0x1e, 0xbe,
  0x63, 0x1e, 0xb4, 0xbf, 0x9f, 0x76, 0x96, 0x3e, 0x4e, 0xa4, 0x18, 0xbf,
  0xc2, 0x35, 0x94, 0x3d, 0x6b, 0xac, 0xed, 0xbd, 0x68, 0xf7, 0x1f, 0xbf,
  0x66, 0x9a, 0x42, 0xbc, 0xaf, 0xdd, 0x10, 0xc0, 0x0e, 0xd9, 0xd8, 0xbf,
  0x9b, 0xb4, 0x01, 0x3e, 0x03, 0xcd, 0x05, 0xbf, 0x93, 0x16, 0x50, 0xbe,
  0xd3, 0x03, 0x46, 0xbf, 0x3e, 0x72, 0xa3, 0x3f, 0xd3, 0x41, 0x77, 0x3f,
  0xb9, 0x78, 0x01, 0xc0, 0x71, 0x9a, 0xae, 0xbf, 0xbd, 0x04, 0xd4, 0x3e,
  0xb7, 0x83, 0x83, 0x3f, 0x27, 0x0f, 0x33, 0xbc, 0xe5, 0xf7, 0x96, 0xbe,
  0xb8, 0xd4, 0x73, 0xbf, 0xe6, 0xad, 0xaf, 0xbe, 0xaf, 0x97, 0x5a, 0xbf,
  0xfd, 0x16, 0x77, 0xbf, 0x06, 0xc3, 0x8b, 0xbe, 0xdd, 0x2d, 0x98, 0x3f,
  0x70, 0x81, 0xf3, 0xbe, 0xa9, 0xc8, 0x8a, 0xbc, 0xa3, 0x0a, 0xf7, 0xbd,
  0x68, 0xc4, 0x05, 0x3f, 0x64, 0xb9, 0x41, 0xbf, 0x1d, 0xca, 0xb2, 0x3f,
  0xb1, 0x5c, 0x0c, 0x3f, 0xcf, 0x3f, 0x29, 0x3d, 0x67, 0xa9, 0x50, 0x3b,
  0x6c, 0x02, 0x7d, 0x3f, 0x07, 0x6a, 0xab, 0xbf, 0xbe, 0xff, 0x06, 0x3f,
  0x1d, 0x6f, 0x92, 0x3e, 0xd6, 0x6a, 0x3f, 0xbe, 0xad, 0x0b, 0xb2, 0x3f,
  0xe0, 0x00, 0xff, 0xbc, 0xf7, 0x24, 0xb1, 0x3e, 0x8b, 0xb8, 0x9e, 0xbe,
  0x9f, 0x22, 0x95, 0x3f, 0x00, 0x2f, 0x65, 0x3f, 0xa5, 0x9b, 0x30, 0x3f,
  0x7d, 0x9a, 0x97, 0x3e, 0x34, 0x5d, 0x5b, 0xbf, 0x4a, 0xe1, 0x86, 0x3e,
  0xec, 0xbd, 0x36, 0x3f, 0xb6, 0x30, 0x26, 0x3f, 0x71, 0xea, 0x91, 0xbf,
  0xf1, 0x0d, 0x97, 0xbe, 0x65, 0xa6, 0x4c, 0xbf, 0xf6, 0x2d, 0xc3, 0xbf,
  0x92, 0xec, 0x9f, 0x3e, 0x08, 0x28, 0xb2, 0xbf, 0x78, 0xee, 0x33, 0x3d,
  0x57, 0x06, 0x54, 0x3e, 0x1c, 0x11, 0x96, 0xbf, 0x9a, 0xa2, 0xb2, 0x3f,
  0x4a, 0x7c, 0xab, 0xbe, 0x85, 0x07, 0xde, 0xbf, 0xa7, 0xa7, 0xaf, 0x3f,
  0x40, 0x7e, 0x29, 0x3f, 0x66, 0xc7, 0xdd, 0xbe, 0xb5, 0x01, 0x0c, 0xc0,
  0x07, 0x82, 0xa1, 0xbd, 0x5d, 0xcc, 0x20, 0xbf, 0x6c, 0xbc, 0x09, 0x3c,
  0x7f, 0x29, 0xde, 0xbd, 0xff, 0xf4, 0xc3, 0xbd, 0x32, 0x39, 0x27, 0x3e,
  0x7a, 0xff, 0x15, 0xbe, 0x67, 0x5c, 0x95, 0x3e, 0x5f, 0xde, 0xf6, 0xbb,
  0x6c, 0xd8, 0xca, 0x3f, 0x38, 0xfd, 0xf1, 0x3e, 0x53, 0xce, 0x0a, 0x3f,
  0x98, 0x4c, 0xf4, 0x3e, 0x83, 0x74, 0xbd, 0x3f, 0xd4, 0x1f, 0xd9, 0xbe,
  0xe5, 0x39, 0xb5, 0xbd, 0xff, 0xda, 0x11, 0xbf, 0x67, 0xfd, 0xb9, 0x3d,
  0x56, 0xc9, 0x22, 0xbe, 0x86, 0xd6, 0x95, 0xbe, 0xd3, 0x50, 0xc2, 0x3f,
  0x70, 0xe6, 0x89, 0xbf, 0x90, 0x1e, 0xc5, 0x3f, 0xc5, 0x23, 0xde, 0x3f,
  0xb6, 0x7e, 0xc4, 0xbe, 0xf9, 0xf6, 0x8b, 0xbe, 0x29, 0x15, 0xfb, 0x3d,
  0xe2, 0x3d, 0x18, 0xbf, 0x38, 0x5b, 0x0c, 0xbf, 0x1b, 0xd0, 0x21, 0xbf,
  0x81, 0xca, 0x20, 0xbf, 0xf6, 0x85, 0xd9, 0x3e, 0x59, 0x70, 0x60, 0xbf,
  0xee, 0xc4, 0xe6, 0xbc, 0x2a, 0x0a, 0x42, 0xbf, 0xbf, 0x30, 0x07, 0x3f,
  0xb2, 0x48, 0x4d, 0x3e, 0x54, 0xd2, 0x4c, 0x3f, 0x35, 0xc7, 0x66, 0x3f,
  0xbe, 0xb9, 0x18, 0x3f, 0x03, 0xc7, 0xc6, 0xbc, 0x51, 0xf2, 0x54, 0x3f,
  0xff, 0x69, 0x8d, 0xbe, 0xbc, 0x4e, 0x93, 0xbf, 0x7d, 0xbc, 0x80, 0xc0,
  0x9e, 0x78, 0x60, 0xbf, 0x58, 0xe0, 0x64, 0x3e, 0xc5, 0xa3, 0x6d, 0xbd,
  0xe7, 0x0f, 0x2a, 0xbf, 0x64, 0xb4, 0x8f, 0xbf, 0x1d, 0xde, 0xdd, 0xbe,
  0x4f, 0xf6, 0x02, 0x3f, 0xe3, 0xbb, 0xc2, 0x3d, 0xc8, 0x5f, 0x37, 0x3f,
  0xdd, 0x9b, 0x2b, 0xbe, 0xd1, 0x9d, 0x74, 0x3f, 0x94, 0xd3, 0x77, 0xbf,
  0xbf, 0x80, 0x4c, 0xbe, 0x13, 0xee, 0x40, 0xbf, 0x80, 0x69, 0x7b, 0x3f,
  0x2f, 0x43, 0xa5, 0xbf, 0x62, 0xa7, 0x88, 0xbf, 0x80, 0xa5, 0x3c, 0xbf,
  0xee, 0x6c, 0x08, 0x3e, 0x2e, 0xbe, 0xdf, 0xbf, 0x71, 0x62, 0xb0, 0xbf,
  0xa3, 0x55, 0x4d, 0x3f, 0x4c, 0x7f, 0x93, 0xbd, 0x09, 0xf0, 0xe0, 0xbe,
  0x34, 0x82, 0xc5, 0xbf, 0x9d, 0xac, 0x97, 0x3d, 0x6e, 0xd4, 0x6b, 0xbf,
  0xe5, 0x93, 0xb9, 0xbf, 0x65, 0xe8, 0x6d, 0xbc, 0x1e, 0x1b, 0xf3, 0xbf,
  0x8f, 0x74, 0xb4, 0x3c, 0x93, 0x5d, 0x0f, 0xbf, 0xb8, 0xd8, 0xf7, 0x3e,
  0xa6, 0x09, 0x87, 0x3f, 0x8c, 0x9c, 0xa7, 0xbe, 0x66, 0x63, 0x0c, 0x3f,
  0x67, 0xc3, 0xbd, 0xbf, 0xec, 0x45, 0xcc, 0xbe, 0x1c, 0x7f, 0x16, 0x3e,
  0xac, 0xca, 0xc6, 0xbb, 0x3f, 0xbe, 0x2a, 0xbf, 0xc9, 0xf3, 0x01, 0xbf,
  0xfb, 0x14, 0x8c, 0x3e, 0xc4, 0x68, 0x1c, 0x3e, 0x73, 0x0e, 0x03, 0x3f,
  0x07, 0xbc, 0x9d, 0x3f, 0xcb, 0xcf, 0x7a, 0x3f, 0xa5, 0x70, 0xd1, 0x3f,
  0x4f, 0x3b, 0x6b, 0xbe, 0x07, 0xea, 0x8e, 0x3f, 0x8c, 0x06, 0x5b, 0xbf,
  0x0b, 0x06, 0x61, 0x3e, 0x10, 0xa7, 0x55, 0x3f, 0xb5, 0x22, 0xfa, 0xbe,
  0x05, 0x3a, 0xc0, 0xbf, 0x94, 0x87, 0x13, 0x3f, 0xd9, 0xd4, 0x7d, 0x3f,
  0xbd, 0x27, 0x05, 0x3f, 0xaf, 0xba, 0x36, 0xbf, 0x87, 0xc5, 0xa4, 0x3e,
  0xc1, 0x65, 0x5b, 0x3f, 0x35, 0x48, 0x3b, 0x3f, 0xb0, 0xc7, 0x91, 0xbf,
  0xf5, 0xb9, 0xad, 0x3d, 0xce, 0x51, 0x11, 0xbe, 0x33, 0xbe, 0x24, 0x3f,
  0xb8, 0x1f, 0x67, 0xbe, 0x0d, 0x27, 0x6b, 0xbf, 0x27, 0xbe, 0xae, 0x3e,
  0x8f, 0xe8, 0x34, 0xbe, 0x89, 0xd4, 0x7d, 0xbe, 0xe6, 0xbb, 0x8f, 0x3f,
  0xd4, 0x75, 0xd7, 0xbe, 0x20, 0xa7, 0x40, 0x3f, 0x77, 0xe2, 0xd3, 0xbf,
  0xaf, 0xbd, 0x13, 0xbf, 0xc8, 0xdc, 0x91, 0xbf, 0x0f, 0xcd, 0x1c, 0x3f,
  0x5a, 0x26, 0xab, 0xbf, 0x4f, 0xbc, 0xb3, 0x3e, 0xef, 0x6b, 0x0a, 0x3f,
  0x52, 0x72, 0x58, 0xbf, 0x06, 0xb6, 0x6e, 0xbf, 0x2a, 0xe4, 0x2b, 0xbe,
  0x3e, 0xf8, 0xff, 0xff, 0x10, 0x00, 0x00, 0x00, 0x08, 0x00, 0x00, 0x00,
  0x14, 0x00, 0x00, 0x00, 0x30, 0x00, 0x00, 0x00, 0x02, 0x00, 0x00, 0x00,
  0x14, 0x00, 0x00, 0x00, 0x14, 0x00, 0x00, 0x00, 0x1b, 0x00, 0x00, 0x00,
  0x73, 0x65, 0x71, 0x75, 0x65, 0x6e, 0x74, 0x69, 0x61, 0x6c, 0x5f, 0x31,
  0x2f, 0x64, 0x65, 0x6e, 0x73, 0x65, 0x5f, 0x36, 0x2f, 0x4d, 0x61, 0x74,
  0x4d, 0x75, 0x6c, 0x00, 0xd0, 0xf7, 0xff, 0xff, 0xba, 0xf8, 0xff, 0xff,
  0x04, 0x00, 0x00, 0x00, 0xb0, 0x04, 0x00, 0x00, 0xcc, 0xd8, 0xff, 0xbd,
  0x9a, 0x2b, 0x50, 0xbf, 0x7b, 0x5e, 0xb7, 0xbe, 0x5e, 0x31, 0x8f, 0xbe,
  0xa1, 0xa5, 0xdb, 0xbe, 0x3e, 0x7a, 0x1a, 0x3f, 0x83, 0xde, 0xaa, 0xbf,
  0x3b, 0xbd, 0x0e, 0xbf, 0x26, 0x0e, 0x6c, 0x3f, 0xcd, 0xac, 0xdb, 0xbf,
  0xdb, 0x72, 0x9a, 0xbe, 0xb7, 0x5d, 0x4a, 0x3f, 0xcd, 0x2e, 0xc0, 0x3e,
  0xe0, 0x81, 0x65, 0x3f, 0x5a, 0xfe, 0x26, 0xbf, 0xfc, 0x9c, 0xa5, 0x3e,
  0xe2, 0x6b, 0x21, 0x3f, 0xf5, 0xc1, 0x02, 0xc0, 0x7c, 0x5c, 0x01, 0xbc,
  0x85, 0x85, 0x30, 0xbb, 0x13, 0x4a, 0x0e, 0x3f, 0x54, 0x3f, 0x88, 0x3d,
  0x30, 0x03, 0x22, 0xbf, 0x78, 0xdc, 0xba, 0x3f, 0xea, 0xd6, 0x04, 0x3f,
  0x32, 0xfb, 0xd3, 0xbc, 0x05, 0xeb, 0xb5, 0x3f, 0x18, 0x62, 0xa0, 0xbe,
  0xf3, 0xe5, 0x9c, 0x3e, 0x4c, 0x2c, 0x04, 0xc0, 0x7b, 0xd7, 0x70, 0x3e,
  0x42, 0x78, 0x7b, 0xbe, 0xcd, 0x26, 0x41, 0x3f, 0x45, 0x7a, 0x88, 0xbe,
  0x92, 0xed, 0x9a, 0x3d, 0x61, 0xcf, 0xb9, 0x3e, 0x0a, 0x66, 0x79, 0xbe,
  0x5d, 0xbc, 0xee, 0x3e, 0x42, 0x6b, 0x67, 0x3f, 0x36, 0x3d, 0x1d, 0xbf,
  0xf7, 0xc5, 0x80, 0x3f, 0x10, 0x14, 0x73, 0x3f, 0x4e, 0x9a, 0x91, 0xbf,
  0xab, 0x60, 0x90, 0x3f, 0xd1, 0x5d, 0xc0, 0x3e, 0xe7, 0x07, 0xb2, 0xbf,
  0xae, 0x79, 0x76, 0xbe, 0xcb, 0x82, 0x17, 0xc0, 0x3f, 0x45, 0x95, 0xbf,
  0x60, 0x9d, 0x60, 0xbf, 0xd3, 0xa3, 0x16, 0xbf, 0x65, 0xf7, 0xdb, 0xbe,
  0x71, 0x44, 0x85, 0x3e, 0xc5, 0x4f, 0x9f, 0xbe, 0x0d, 0x89, 0xe3, 0x3e,
  0xf5, 0xa9, 0x57, 0xbf, 0x6a, 0x57, 0x7a, 0xbd, 0x61, 0x47, 0xe0, 0xbe,
  0x8f, 0xfb, 0x13, 0xbe, 0x8b, 0xf4, 0xd0, 0x3e, 0xc3, 0x4a, 0x0a, 0x40,
  0x51, 0x95, 0x9e, 0xbe, 0x35, 0x2b, 0x19, 0x3f, 0xa0, 0xdb, 0x06, 0x3f,
  0x48, 0xa8, 0xb8, 0xbe, 0xb0, 0x7a, 0x24, 0x3e, 0x79, 0x12, 0xbc, 0xbd,
  0x32, 0x42, 0xb3, 0x3d, 0x5f, 0xe6, 0x33, 0x3f, 0xce, 0x8f, 0x27, 0xbf,
  0x3f, 0xed, 0x09, 0xbd, 0xee, 0xfd, 0xfe, 0xbb, 0x1d, 0xd6, 0x07, 0x3f,
  0xe2, 0x5d, 0x63, 0x3e, 0xe3, 0xfe, 0xdb, 0xbd, 0xe7, 0xae, 0x45, 0xbe,
  0xc1, 0x97, 0x10, 0x3f, 0x48, 0x8e, 0x16, 0xbf, 0x70, 0xa3, 0x14, 0x3f,
  0x28, 0x30, 0xee, 0x3e, 0x3b, 0xb5, 0xd8, 0xbe, 0xc6, 0xe9, 0x4e, 0x3e,
  0x8b, 0x7b, 0x2b, 0x3f, 0x19, 0x33, 0x4a, 0xbf, 0xf3, 0x08, 0x0e, 0x3f,
  0xb5, 0x53, 0x8a, 0x3e, 0x62, 0x0f, 0x99, 0x3d, 0x51, 0xa1, 0x27, 0x3f,
  0xed, 0x18, 0xa7, 0x3f, 0x8a, 0xda, 0x1c, 0x3f, 0x54, 0x72, 0x81, 0xbf,
  0xcf, 0xf9, 0x3d, 0x3c, 0x92, 0x58, 0x97, 0x3c, 0xb0, 0xa8, 0xbe, 0xbf,
  0xb2, 0x71, 0x04, 0x3e, 0xc1, 0x7d, 0xc7, 0x3d, 0xc1, 0xc9, 0xa9, 0xbf,
  0x06, 0xb0, 0x65, 0xbe, 0x3a, 0x5e, 0x69, 0xbe, 0x7f, 0x78, 0xe3, 0xbf,
  0xdd, 0xf0, 0x2d, 0xbf, 0x97, 0x46, 0x87, 0xbe, 0x7e, 0x34, 0xf1, 0xbf,
  0x06, 0x15, 0x28, 0xbf, 0x85, 0x9e, 0x66, 0xbf, 0x84, 0x75, 0xfe, 0x3d,
  0xee, 0x37, 0xb8, 0xbd, 0xbc, 0xda, 0x04, 0xbf, 0x0d, 0x5c, 0x65, 0x3d,
  0xdb, 0xc5, 0xdc, 0xbe, 0xb4, 0x82, 0xbd, 0xbe, 0x75, 0x34, 0x27, 0x3f,
  0x93, 0xd3, 0xda, 0x3e, 0x2d, 0x6d, 0x83, 0xbe, 0x27, 0x08, 0x92, 0x3f,
  0xa1, 0x9c, 0x64, 0xbe, 0x75, 0x11, 0x7e, 0x3d, 0x7c, 0x77, 0xc4, 0x3f,
  0x06, 0xd6, 0x85, 0x3e, 0xcc, 0x59, 0x89, 0x3f, 0x2e, 0xea, 0x9d, 0x3e,
  0x76, 0xce, 0x16, 0x3e, 0x7c, 0xd7, 0x2b, 0x3f, 0xd0, 0xb7, 0x1f, 0xbf,
  0xdd, 0xd4, 0xa6, 0x3f, 0x70, 0x20, 0xab, 0xbf, 0xf2, 0xe0, 0xa1, 0xbf,
  0x6d, 0x0a, 0x20, 0x3f, 0xeb, 0x17, 0x16, 0x3f, 0xb2, 0x09, 0x29, 0x3f,
  0x66, 0xf1, 0xfe, 0x3e, 0xd2, 0x49, 0x9e, 0xbe, 0x4c, 0x66, 0xd6, 0x3e,
  0x64, 0x1f, 0x1d, 0xc0, 0xe8, 0x0b, 0x45, 0x3f, 0x7f, 0xba, 0x99, 0xbf,
  0xc9, 0x43, 0x7d, 0xbf, 0x2c, 0x9f, 0xd9, 0x3e, 0x71, 0xb9, 0x2d, 0xbe,
  0x80, 0x60, 0x03, 0xbf, 0x17, 0x8d, 0x30, 0x3e, 0xc0, 0xfc, 0x25, 0x3e,
  0xd1, 0xf6, 0x3c, 0xbe, 0x59, 0x0f, 0xab, 0x3f, 0x16, 0xfe, 0x1f, 0x3e,
  0xd9, 0x84, 0xa0, 0xbd, 0x98, 0xb4, 0xcb, 0x3f, 0xe0, 0x6f, 0x48, 0x3e,
  0xf2, 0x7a, 0x61, 0xbd, 0x1c, 0xb6, 0xb3, 0x3f, 0x65, 0xd9, 0x56, 0xc0,
  0x18, 0x81, 0x1a, 0xbe, 0xb6, 0x7c, 0x6e, 0x3f, 0x7d, 0x61, 0x9c, 0xbf,
  0x34, 0xc8, 0xeb, 0x3d, 0x54, 0x5f, 0x5e, 0x3f, 0x62, 0x75, 0x8e, 0xbf,
  0x7c, 0xfc, 0xb8, 0x3c, 0x35, 0x06, 0xf7, 0x3e, 0x0e, 0xb6, 0x98, 0xbf,
  0xcf, 0x2f, 0x79, 0x3e, 0x43, 0xb1, 0x8b, 0x3f, 0x93, 0xa4, 0xc5, 0xbf,
  0x2d, 0xaf, 0xc4, 0x3e, 0xc2, 0x02, 0x84, 0x3f, 0xb2, 0xed, 0xaf, 0x3f,
  0xf6, 0xdc, 0x50, 0xbf, 0x81, 0xdb, 0x33, 0x3f, 0x1a, 0x64, 0x2c, 0x3f,
  0xfc, 0xb5, 0x47, 0xbe, 0xb9, 0x03, 0x67, 0xbd, 0xa2, 0x61, 0xd1, 0x3e,
  0xf2, 0xff, 0xd2, 0x3e, 0x9b, 0xc4, 0xac, 0x3e, 0x4c, 0x2a, 0x14, 0xbf,
  0xd6, 0xa3, 0x03, 0x3f, 0x1a, 0x5d, 0x3c, 0xbe, 0x23, 0x31, 0xe0, 0xbf,
  0xc7, 0x70, 0xd3, 0x3e, 0xb8, 0xbd, 0x8a, 0xbe, 0x32, 0x6a, 0xc9, 0xbe,
  0x2a, 0x17, 0xa4, 0xbf, 0x86, 0x86, 0x11, 0x3f, 0xf5, 0xe6, 0x8d, 0x3e,
  0x98, 0x3c, 0x16, 0xbf, 0x4a, 0x85, 0xad, 0x3e, 0x30, 0x20, 0x72, 0x3f,
  0x34, 0x01, 0x35, 0xbf, 0x3a, 0xbd, 0x72, 0x3f, 0x8f, 0x39, 0x62, 0x3f,
  0x3d, 0x94, 0x48, 0xbf, 0x58, 0x76, 0x19, 0x3f, 0xbf, 0x90, 0x7e, 0x3f,
  0x48, 0x10, 0xaf, 0xbf, 0xe6, 0x99, 0x88, 0xbc, 0x90, 0xd7, 0x50, 0x3f,
  0x0a, 0x8b, 0xa9, 0x3f, 0x34, 0xf3, 0x58, 0xbf, 0x86, 0x3f, 0x55, 0x3f,
  0x5b, 0x70, 0xcc, 0x3e, 0x6b, 0x44, 0x58, 0xbf, 0xa0, 0x28, 0xfa, 0x3e,
  0xce, 0x12, 0x8f, 0xbf, 0x36, 0x48, 0x7f, 0xbe, 0x65, 0x4d, 0xa2, 0xbf,
  0x1f, 0xef, 0x51, 0xbf, 0x1d, 0x74, 0x5b, 0x3f, 0xbc, 0xa8, 0xb5, 0xbf,
  0x64, 0xa8, 0x0a, 0xbe, 0xde, 0xbc, 0x3d, 0x3f, 0x4d, 0x32, 0x2c, 0xc0,
  0x5a, 0x90, 0xe6, 0xba, 0xd4, 0xd2, 0xe2, 0xbd, 0x79, 0x18, 0x36, 0xc0,
  0x37, 0x6e, 0xd7, 0xbe, 0xc5, 0x31, 0xad, 0x3f, 0x24, 0xfd, 0x29, 0xbf,
  0x18, 0x01, 0x2c, 0xbe, 0xdc, 0xe2, 0x2a, 0xbf, 0x05, 0xe0, 0x38, 0xbf,
  0x24, 0x85, 0x30, 0x3f, 0x07, 0x13, 0xa3, 0xbf, 0x0d, 0xa7, 0x64, 0x3f,
  0xf5, 0x21, 0x35, 0x3f, 0x5e, 0xe9, 0x9b, 0xbf, 0xc6, 0x64, 0x8f, 0x3e,
  0xb1, 0x51, 0x9c, 0x3e, 0xbb, 0xac, 0x0c, 0x3f, 0x7b, 0x88, 0x36, 0x3d,
  0x58, 0x07, 0x62, 0x3d, 0x0f, 0x35, 0xad, 0x3e, 0x06, 0x68, 0xfb, 0x3e,
  0xf6, 0xbf, 0xf3, 0xbe, 0xe5, 0xc4, 0x9d, 0xbf, 0x9c, 0x17, 0x1a, 0x3f,
  0xe6, 0xa0, 0x0a, 0x3f, 0xee, 0x84, 0x02, 0xc0, 0x0f, 0xba, 0x7d, 0x3f,
  0xae, 0x9a, 0xc5, 0xbc, 0xbe, 0xb6, 0x2a, 0xc0, 0x3a, 0xd1, 0x12, 0xbf,
  0xb8, 0x95, 0xdc, 0xbe, 0x33, 0x66, 0x11, 0xbe, 0x60, 0xdd, 0xac, 0x3c,
  0x95, 0xba, 0xc8, 0xbc, 0xb4, 0xc3, 0x15, 0xbf, 0x71, 0x29, 0x81, 0x3d,
  0x0a, 0x22, 0x8f, 0x3d, 0xb8, 0xe4, 0x90, 0xbf, 0x32, 0x6a, 0x09, 0x3f,
  0x07, 0xab, 0xfd, 0x3e, 0xba, 0xf4, 0xac, 0xbf, 0x12, 0xf7, 0x32, 0x3f,
  0x96, 0xb4, 0x3c, 0x3f, 0x19, 0x1a, 0xd7, 0xbf, 0x1b, 0x0f, 0xcc, 0x3e,
  0x70, 0x17, 0x1b, 0x3f, 0x1a, 0x3f, 0x4e, 0x40, 0x76, 0xf8, 0xfe, 0x3e,
  0x2a, 0x7f, 0x3a, 0x3f, 0x87, 0xfa, 0x2b, 0x3f, 0xf9, 0x52, 0xa5, 0xbe,
  0x48, 0x9d, 0xe5, 0x3e, 0x79, 0x7a, 0x87, 0x3f, 0x17, 0x1d, 0x23, 0x3e,
  0x44, 0x72, 0x0c, 0x3f, 0x7a, 0x11, 0xa4, 0x3f, 0xec, 0xab, 0xaa, 0x3e,
  0x38, 0xdd, 0xff, 0x3e, 0xe0, 0x79, 0x87, 0x3f, 0xd7, 0xcf, 0xec, 0x3e,
  0xfb, 0x58, 0xcf, 0xbe, 0x0e, 0x1c, 0x01, 0x40, 0xfd, 0x8d, 0x06, 0x3f,
  0xc8, 0x7a, 0xa2, 0x3e, 0xa9, 0x72, 0xda, 0x3f, 0x3f, 0xf6, 0x12, 0x3e,
  0x5f, 0xfe, 0xd8, 0xbe, 0x12, 0x16, 0x31, 0x3f, 0x16, 0x93, 0x1d, 0x3f,
  0x68, 0xfa, 0x0a, 0xbf, 0x9f, 0xaf, 0x45, 0x3f, 0xe2, 0xa4, 0x1c, 0xbe,
  0x19, 0xcf, 0xba, 0xbf, 0x27, 0x81, 0xa9, 0xbf, 0x2d, 0x55, 0x92, 0x3e,
  0x1c, 0x9c, 0x8c, 0xbf, 0x35, 0x94, 0xea, 0xbf, 0x27, 0xcf, 0x81, 0xbd,
  0xce, 0x16, 0xca, 0x3e, 0x67, 0xf1, 0xd4, 0xbf, 0x63, 0xfe, 0xc5, 0xbe,
  0x57, 0x9b, 0x8e, 0x3e, 0x79, 0xef, 0x17, 0x3f, 0x69, 0x99, 0xba, 0xbe,
  0x42, 0x53, 0x0e, 0xbd, 0xa0, 0x05, 0xa6, 0xbe, 0x96, 0xe6, 0x05, 0x3f,
  0x09, 0x36, 0x62, 0xbf, 0x0e, 0x5d, 0xf3, 0x3e, 0x3e, 0xfd, 0xff, 0xff,
  0x10, 0x00, 0x00, 0x00, 0x07, 0x00, 0x00, 0x00, 0x14, 0x00, 0x00, 0x00,
  0x30, 0x00, 0x00, 0x00, 0x02, 0x00, 0x00, 0x00, 0x14, 0x00, 0x00, 0x00,
  0x0f, 0x00, 0x00, 0x00, 0x1b, 0x00, 0x00, 0x00, 0x73, 0x65, 0x71, 0x75,
  0x65, 0x6e, 0x74, 0x69, 0x61, 0x6c, 0x5f, 0x31, 0x2f, 0x64, 0x65, 0x6e,
  0x73, 0x65, 0x5f, 0x35, 0x2f, 0x4d, 0x61, 0x74, 0x4d, 0x75, 0x6c, 0x00,
  0xd0, 0xfc, 0xff, 0xff, 0xba, 0xfd, 0xff, 0xff, 0x04, 0x00, 0x00, 0x00,
  0x50, 0x00, 0x00, 0x00, 0xce, 0xee, 0xc7, 0xbf, 0x31, 0xa7, 0x3a, 0xbf,
  0x49, 0x07, 0x55, 0xbf, 0xcd, 0x5a, 0xb5, 0xbf, 0x79, 0xd7, 0xb4, 0xbe,
  0x51, 0x58, 0xa3, 0xbf, 0xfb, 0x69, 0x99, 0x3f, 0x1d, 0x95, 0x6d, 0xbf,
  0x75, 0xaa, 0x2e, 0xbf, 0x3c, 0x5e, 0xa7, 0x3f, 0xd9, 0x54, 0x6d, 0x3e,
  0x59, 0xc0, 0x4c, 0xbe, 0xc1, 0x22, 0xe7, 0xbf, 0xcf, 0x3f, 0xa9, 0xbe,
  0x58, 0xd1, 0x23, 0x3e, 0x24, 0x7e, 0x4b, 0xbf, 0xf7, 0x47, 0xb5, 0xbf,
  0xeb, 0x82, 0x0c, 0xbf, 0x92, 0xbd, 0x2e, 0xbe, 0xe3, 0x4c, 0x56, 0x3e,
  0xde, 0xfd, 0xff, 0xff, 0x10, 0x00, 0x00, 0x00, 0x06, 0x00, 0x00, 0x00,
  0x10, 0x00, 0x00, 0x00, 0x20, 0x00, 0x00, 0x00, 0x01, 0x00, 0x00, 0x00,
  0x14, 0x00, 0x00, 0x00, 0x0c, 0x00, 0x00, 0x00, 0x64, 0x65, 0x6e, 0x73,
  0x65, 0x5f, 0x35, 0x2f, 0x62, 0x69, 0x61, 0x73, 0x00, 0x00, 0x00, 0x00,
  0x60, 0xfd, 0xff, 0xff, 0x4a, 0xfe, 0xff, 0xff, 0x04, 0x00, 0x00, 0x00,
  0x50, 0x00, 0x00, 0x00, 0xcd, 0x0c, 0x8f, 0x3f, 0xe7, 0xda, 0x96, 0xbe,
  0xd4, 0x35, 0x3d, 0xbf, 0x7c, 0x29, 0x28, 0x3f, 0x65, 0x3f, 0x96, 0x3e,
  0x71, 0x37, 0x37, 0xbe, 0x7b, 0xac, 0xe2, 0xbe, 0x3f, 0x18, 0xa9, 0xbf,
  0xf0, 0xc3, 0x02, 0x40, 0x11, 0x20, 0xbe, 0x3d, 0x57, 0x10, 0x0c, 0xbe,
  0x67, 0x20, 0xc6, 0xbf, 0x74, 0x1a, 0x1a, 0xbe, 0x6d, 0xd9, 0xc4, 0x3d,
  0x75, 0xff, 0x03, 0xbf, 0x16, 0xe3, 0x07, 0xbf, 0x82, 0x74, 0xa8, 0x3d,
  0x4c, 0xbe, 0x20, 0x40, 0x98, 0xa6, 0x80, 0xbf, 0xd1, 0x85, 0x57, 0xbe,
  0x6e, 0xfe, 0xff, 0xff, 0x10, 0x00, 0x00, 0x00, 0x05, 0x00, 0x00, 0x00,
  0x10, 0x00, 0x00, 0x00, 0x20, 0x00, 0x00, 0x00, 0x01, 0x00, 0x00, 0x00,
  0x14, 0x00, 0x00, 0x00, 0x0c, 0x00, 0x00, 0x00, 0x64, 0x65, 0x6e, 0x73,
  0x65, 0x5f, 0x36, 0x2f, 0x62, 0x69, 0x61, 0x73, 0x00, 0x00, 0x00, 0x00,
  0xf0, 0xfd, 0xff, 0xff, 0xda, 0xfe, 0xff, 0xff, 0x04, 0x00, 0x00, 0x00,
  0x50, 0x00, 0x00, 0x00, 0xc2, 0x8a, 0xbe, 0xbe, 0xea, 0x9b, 0x1c, 0x3f,
  0x04, 0x03, 0xfe, 0x3c, 0x30, 0xff, 0x4c, 0x3e, 0x84, 0x04, 0xb8, 0xbd,
  0x08, 0xad, 0x17, 0xbf, 0xd2, 0x9d, 0xc9, 0xbe, 0xd9, 0x42, 0x3b, 0xbf,
  0x3a, 0x50, 0xe1, 0xbf, 0x81, 0xcb, 0x1c, 0xbe, 0xfb, 0x9f, 0xec, 0x3e,
  0x0b, 0x53, 0x4a, 0x3f, 0x5b, 0xe6, 0x1a, 0x3f, 0xae, 0x48, 0x8e, 0xbe,
  0xe4, 0xb5, 0x13, 0xbf, 0x7b, 0x5c, 0xe1, 0xbe, 0xf2, 0x33, 0x1a, 0x3f,
  0xb6, 0xfa, 0x02, 0xbb, 0xdb, 0x8a, 0xf7, 0xbe, 0x1e, 0x7d, 0xce, 0x3e,
  0xfe, 0xfe, 0xff, 0xff, 0x10, 0x00, 0x00, 0x00, 0x04, 0x00, 0x00, 0x00,
  0x10, 0x00, 0x00, 0x00, 0x20, 0x00, 0x00, 0x00, 0x01, 0x00, 0x00, 0x00,
  0x14, 0x00, 0x00, 0x00, 0x0c, 0x00, 0x00, 0x00, 0x64, 0x65, 0x6e, 0x73,
  0x65, 0x5f, 0x37, 0x2f, 0x62, 0x69, 0x61, 0x73, 0x00, 0x00, 0x00, 0x00,
  0x80, 0xfe, 0xff, 0xff, 0x6a, 0xff, 0xff, 0xff, 0x04, 0x00, 0x00, 0x00,
  0x50, 0x00, 0x00, 0x00, 0x30, 0xa4, 0x1c, 0xbf, 0x49, 0x41, 0x6c, 0xbd,
  0x27, 0x69, 0x8d, 0xbe, 0xb9, 0xf2, 0x0f, 0x3f, 0x13, 0x92, 0x72, 0xbe,
  0x8a, 0xbc, 0x1d, 0x3f, 0xb0, 0xc2, 0x84, 0x3e, 0xfd, 0x47, 0x17, 0x3f,
  0x2f, 0xc6, 0x3f, 0x3e, 0xd4, 0x38, 0x6a, 0x3f, 0x38, 0x4e, 0x0a, 0xbe,
  0x26, 0xce, 0x03, 0xbe, 0xb4, 0xec, 0x23, 0x3f, 0xeb, 0x2e, 0x82, 0xbe,
  0x24, 0xe3, 0x99, 0x3f, 0x80, 0x03, 0xba, 0x3e, 0x68, 0xe3, 0x93, 0x3f,
  0x95, 0xe7, 0xb3, 0x3f, 0xac, 0x7d, 0x71, 0x3f, 0x32, 0x24, 0xb4, 0xbf,
  0x8e, 0xff, 0xff, 0xff, 0x10, 0x00, 0x00, 0x00, 0x03, 0x00, 0x00, 0x00,
  0x10, 0x00, 0x00, 0x00, 0x24, 0x00, 0x00, 0x00, 0x01, 0x00, 0x00, 0x00,
  0x14, 0x00, 0x00, 0x00, 0x0c, 0x00, 0x00, 0x00, 0x64, 0x65, 0x6e, 0x73,
  0x65, 0x5f, 0x38, 0x2f, 0x62, 0x69, 0x61, 0x73, 0x00, 0x00, 0x00, 0x00,
  0x04, 0x00, 0x06, 0x00, 0x04, 0x00, 0x00, 0x00, 0x00, 0x00, 0x06, 0x00,
  0x08, 0x00, 0x04, 0x00, 0x06, 0x00, 0x00, 0x00, 0x04, 0x00, 0x00, 0x00,
  0x24, 0x00, 0x00, 0x00, 0x59, 0xa7, 0xac, 0x3e, 0xf6, 0xa1, 0xa0, 0x3e,
  0xeb, 0xa8, 0xbc, 0x3d, 0xec, 0x83, 0xfe, 0xbe, 0xdc, 0x68, 0x29, 0x3e,
  0xe0, 0xd1, 0xab, 0xbe, 0x12, 0xed, 0x98, 0x3d, 0xb0, 0x7c, 0x52, 0xbf,
  0xa2, 0x78, 0x11, 0x3f, 0x00, 0x00, 0x0e, 0x00, 0x14, 0x00, 0x04, 0x00,
  0x00, 0x00, 0x08, 0x00, 0x0c, 0x00, 0x10, 0x00, 0x0e, 0x00, 0x00, 0x00,
  0x10, 0x00, 0x00, 0x00, 0x02, 0x00, 0x00, 0x00, 0x10, 0x00, 0x00, 0x00,
  0x20, 0x00, 0x00, 0x00, 0x01, 0x00, 0x00, 0x00, 0x09, 0x00, 0x00, 0x00,
  0x0c, 0x00, 0x00, 0x00, 0x64, 0x65, 0x6e, 0x73, 0x65, 0x5f, 0x39, 0x2f,
  0x62, 0x69, 0x61, 0x73, 0x00, 0x00, 0x00, 0x00, 0x90, 0xff, 0xff, 0xff,
  0x14, 0x00, 0x18, 0x00, 0x04, 0x00, 0x00, 0x00, 0x08, 0x00, 0x0c, 0x00,
  0x10, 0x00, 0x00, 0x00, 0x00, 0x00, 0x14, 0x00, 0x14, 0x00, 0x00, 0x00,
  0x14, 0x00, 0x00, 0x00, 0x01, 0x00, 0x00, 0x00, 0x18, 0x00, 0x00, 0x00,
  0x44, 0x00, 0x00, 0x00, 0x34, 0x00, 0x00, 0x00, 0x02, 0x00, 0x00, 0x00,
  0x01, 0x00, 0x00, 0x00, 0x0f, 0x00, 0x00, 0x00, 0x1f, 0x00, 0x00, 0x00,
  0x73, 0x65, 0x72, 0x76, 0x69, 0x6e, 0x67, 0x5f, 0x64, 0x65, 0x66, 0x61,
  0x75, 0x6c, 0x74, 0x5f, 0x64, 0x65, 0x6e, 0x73, 0x65, 0x5f, 0x35, 0x5f,
  0x69, 0x6e, 0x70, 0x75, 0x74, 0x3a, 0x30, 0x00, 0x02, 0x00, 0x00, 0x00,
  0xff, 0xff, 0xff, 0xff, 0x0f, 0x00, 0x00, 0x00, 0xfc, 0xff, 0xff, 0xff,
  0x04, 0x00, 0x04, 0x00, 0x04, 0x00, 0x00, 0x00
};

#endif //TEST_MODEL_H